#version: 0.2
d e
Ġ e
Ġ de
Ġ l
o s
Ġ p
Ġ c
a r
e n
e r
Ġ a
e s
Ġ s
a s
o n
c i
o r
u e
a n
Ġ m
a d
a l
Ġl a
q ue
Ġe n
u n
Ã ³
i n
Ġ t
r e
Ġ y
Ġ que
s t
en t
Ġe l
Ã Ń
i c
Ġc on
Ġ n
Ã ¡
Ã³ n
Ġ un
Ġ h
o m
r a
d o
r o
d i
t i
Ġs e
Ġ f
Ġ v
ci Ã³n
a m
Ġe s
Ġl os
Ġp ar
t e
Ġe st
Ġ o
l e
t a
r i
Ġ re
Ġ in
Ã ©
Ġs u
t o
Ġde l
ad o
o l
Ġc om
i d
Ġ C
a b
r es
Ġp or
Ġa l
Ġ E
e c
Ġ b
Ġ d
Ġl as
Ġpar a
Ġ g
ent e
m p
Ã ±
i s
Ġ A
Ġun a
Ġ P
a ciÃ³n
Ġ S
Ġn o
i l
ÃŃ a
Ġ di
ci on
u l
â Ģ
q u
Ġ M
Ġp ro
t u
a c
Ġs i
Ã¡ s
Ġp er
Ġc u
Ġ L
t er
i en
l o
t r
l a
Ġm e
ad a
Ġl o
i o
d a
m a
u c
i st
i r
Ã º
Ġde s
e l
ic a
i a
g u
ci a
Ġa c
t os
Ġ D
g o
u s
i er
i z
r an
i ent
ti v
Ġcom o
i t
an do
Ġ (
Ġt o
Ġ 1
al es
Ġ i
Ġe x
id ad
u es
Ġh a
Ġm Ã¡s
Ġ 2
Ġ T
m o
cion es
. .
i ci
m os
a j
s e
b re
ad os
t or
c u
ic o
i e
p a
Ġ R
Ġs er
Ã¡ n
Ġ B
Ġp o
d ad
Ġ j
de n
Ġs o
Ġa n
t ra
i v
t es
de s
Ġ G
b i
Ġ N
er a
t en
t ro
Ġt ra
t ar
Ġ I
Ġ âĢ
Ġ F
Ġ res
id a
Ġa p
i Ã³n
r as
i g
c o
Ġl e
i b
Ġt e
er o
i m
c h
c a
or m
ad or
d os
Ġp ue
Ġ qu
Ġcom p
ient o
u m
Ġm u
Ġsu s
Ġp re
an te
Ġt en
Ġm a
p er
i os
c e
p o
t as
Ã© n
âĢ Ŀ
r u
de r
e z
0 0
Ġa s
Ġ H
am os
Ġp r
am ente
Ġ V
uc h
t re
Ġp a
Ġest e
Ġ ar
p e
Ġh ac
Ġ J
b l
Ġh ab
m ente
Ġa Ã±
ar a
Ġc a
u er
Ġm an
g un
Ġ U
ĠâĢ ľ
Ġi mp
c on
en cia
g ar
i on
Ġper o
ĠE l
s on
i do
ri m
Ġs in
Ġp res
u r
am bi
g a
al iz
ĠL a
Ġest a
n a
Ġc as
Ġt ien
tr os
ad as
u st
d uc
Ã© s
ent o
Ġs on
Ġv er
ue v
l es
l os
z a
in a
Ġp as
v er
Ġ r
E l
f er
Ġm o
j e
d as
or es
en s
Ġin ter
an a
Ġ O
Ãº n
Ġdi s
ĠE n
or a
Ġper son
Ġso bre
c es
l as
Ġ Â
c ul
Ġc ar
Ġl le
0 1
Ġen tre
c l
n o
Ġc o
Ġm is
ent es
l an
ar io
Ġ or
ic os
t al
ĠE st
Ġs ol
Ġo b
Ġcon s
.. .
Ġa m
p or
b aj
Ġe mp
Ġn ues
ic as
Ġn os
Ġm uch
Ġt u
Ġy a
p on
e mos
Ġin f
ĠE s
ec h
Ġmu y
ci as
ambi Ã©n
Ġc re
ĠI n
Ġto do
ent a
Ġs al
pa Ã±
ci al
o y
e m
Ġme di
ec es
j o
Ġp os
Ġc or
Ġ 3
L a
d r
Ġ "
Ġes c
i f
Ġa b
p ar
Ġp rim
Ġm i
Ġn uev
ab le
Ġt an
Ġme j
Ġde b
ab a
en do
an o
o c
ĠC on
Ġ2 01
Ġf in
tiv o
g ra
ÃŃ as
re c
ÃŃ n
or ma
m in
cion al
Ġc am
v e
Ġm ar
Ġtra baj
ci o
m e
Ã± o
ti l
i ta
u di
tu ra
Ġest Ã¡
ÃŃ s
u en
i as
b a
p os
b le
f ici
Ġ Y
Ġt ambiÃ©n
Ġp e
r en
Ġg ran
l ar
ĠaÃ± os
es ti
Ġf ue
E n
e b
Ġc al
as ta
Ġd u
m as
ist a
Ġha y
an tes
v en
Ġpue de
Ġdes de
ida des
Ġn i
g an
r os
am iento
j er
ci p
Ġ us
Ġpar ti
Ġcu ando
u t
Ġhac er
ar ios
Ġc ol
Ġn a
Ġcu al
ĠS e
in o
c ar
Ġd os
or t
o ci
ĠR e
Ġd on
Ġtien e
Ġto dos
f ec
ie mp
u d
Ġ -
Ġ u
qu i
Ġm en
) .
ĠU n
Ġm un
Ġse gu
g en
Ġ Ã©
Ġc os
m b
Ġh asta
ĠA l
ÃŃ t
ar on
Ġn eces
p ec
Ġre g
Ġh an
Ġt er
Ġmej or
Ġl u
Ġpro p
in g
v i
Ġma y
l ic
Ġde ci
Ġ 4
Ġt iemp
tiv a
Ġdon de
Ġb ien
ent os
on es
qu ier
g r
en er
Ġc an
Ġc h
Ġal gun
Ġpar te
ar Ã¡
m i
tr as
a y
) ,
al mente
s o
Ġpro duc
Ġg ra
ter i
Ġex p
m Ã¡s
i tu
Ġa d
Ġf un
ion es
tu r
ĠD e
Ġv ez
o g
ador es
m an
o b
ue l
Ġb uen
Ġpor que
Ġ 5
c an
j a
ri b
Ġc ada
Ġas ÃŃ
Ġl l
Ġp ol
Ġre aliz
Ġf orma
z o
Ġm il
ar se
e t
Ġp u
Ġd a
Ġinf orm
Ġtiemp o
st e
t ado
i de
id os
Ġ do
Ġs ab
ĠC om
ran te
ÃŃ cul
i u
Ġv e
ci l
âĢ ¦
Ġser v
Ġt i
er v
ro l
e mp
ĠM ar
on a
Ġd ÃŃa
ĠN o
cu r
p u
ĠÂ ¿
n os
un to
Ġes pe
er os
Ġ1 9
c om
ÃŃ an
Ġun o
ul ar
Ġt ran
a v
g os
Ġn e
ĠaÃ± o
Ġa de
e d
Ġv ida
Ġc er
m iento
Ġcon tra
Ġa h
Ã© r
Ġd ic
Ġc l
Ġin st
Ãº l
Ġcon t
Ġlle v
Ġcon f
it ar
i to
Ġin v
Ã± os
al idad
ib le
Ġf u
ĠS an
ic aciÃ³n
Ġemp res
Ġ W
i den
e a
Ġo p
om b
Ġa u
Ġin cl
ĠA n
Ġf uer
il idad
tiv os
v o
Ġhac e
Ġl ib
Ġmis mo
Ġperson as
Ġ ra
Ãºl ti
Ġj u
ti r
ar rol
iu dad
Ġ ro
Ġpro f
a ciones
Ãº bl
a t
Ġa y
le c
Ġe v
ĠC h
c as
Ġg ener
Ġlu gar
Ġo f
Ġo tros
âĢĿ ,
c or
Ġmay or
d u
ue go
Ġb as
g Ãºn
ĠL os
er s
ci os
Ġcom un
en a
u b
i ciÃ³n
Ġe ra
Ġcon st
Ġre ci
Ġpa ÃŃs
Ġm as
Ġdi rec
Ġm om
Ġserv ici
p ues
y ec
Ġtran s
an os
Ã¡ t
ien do
ient os
Ġimp ort
Ġse c
Ġm in
j os
ĠP or
in cip
Ġac tu
Ġpo dr
Ġ 6
Ġmun do
Ã± a
ech o
Ġde n
Ġp lan
Ġp la
Ġre p
Ġdi st
d ic
Ġv al
Ġdi fer
Ġsi g
Ġmuch o
mp l
Ġtan to
Ġ Ãºlti
Ġf orm
Ġ K
ver s
u y
âĢĿ .
Ã³ lo
cu ent
t on
Ġest Ã¡n
in e
Ġv iv
ra ciÃ³n
Ġen con
Ã© c
Ġm es
Ġs ent
Ġv is
Ġsol o
Ġpr incip
aj e
Ġsi emp
om bre
Ġsiemp re
Ġdes arrol
un que
Ġdu rante
Ġp ues
Ġtrabaj o
Ġ w
Ġes o
ĠA r
t ic
Ġten er
Ġl i
Ġqu ien
en di
Ġu til
Ġl es
Ġp on
is mo
pu Ã©s
Ġh ist
Ġp es
v is
tr ar
or ia
Ġde j
Ġc ab
Ġe qui
am il
Ġh er
Ġcu enta
e o
r ar
Ġde st
Ġal go
Ġest udi
Ġqu ier
c er
Ġb aj
Ġc ent
Ġcas o
r uc
Ġes e
Ġ Ã¡
se gu
ist as
Ġcual quier
Ġc iudad
Ġo tro
ces o
te l
i ente
tor es
ar go
Ġmen os
st a
Ġb us
Ġmu jer
ta ciÃ³n
ent ar
Ġll am
Ġpo co
Ġre f
d ar
Ġv ol
f ic
Ġres ul
Ġt ar
Ġ ri
i mo
Ġt ras
z ar
Ġsi do
Ġt om
ĠL e
Ġen cuent
Ġcomp le
ĠP ro
en e
Ġnues tro
Ãº s
ĠM e
re ch
h o
da des
Ġex per
Ġc Ã³
Ġto da
ĠS i
Ġv en
Ġmom ento
al a
Ġh or
u ciÃ³n
Ġutil iz
ec e
Ġp l
Ġest os
te g
an cia
gu a
Ġse a
Ġre la
Ġf al
Ġg ust
Ġsu per
c al
it al
Ġm on
Ġ2 00
ĠC ar
Ġpue den
Ġde f
Ġy o
ier no
paÃ± a
Ġ 7
ol a
Ġpro yec
Ġap ar
Ġto das
om o
ĠA s
Ġm er
Ġnues tra
Ġprof es
Ġpo der
Ġnuev o
Ġh i
Ã³ m
t an
ci ales
Ġf amil
ri s
Ġ 8
c el
Ġor gan
Ġpro ble
Ġti po
Ġinform aciÃ³n
Ġc ul
iv ers
Ġt r
Ġ Q
t Ã³
Ġv a
Ġp Ãºbl
Ġac tiv
L os
Ġpol ÃŃt
Ġhab ÃŃa
Ġest ar
c re
Ġca p
ti s
ÃŃ st
Ġtra v
Ġe mb
us o
Ġman era
Ġan tes
que l
v il
Ġf i
Ġh um
Ġ z
Ġt al
Ġd ÃŃas
Ġes p
ÃŃ o
Ġpu bl
Ġprim er
Ġde rech
Ġest o
Ġi de
Ġh e
Ġob je
g e
Ġah ora
u ro
Ġo tra
Ġprim era
er on
Ġt res
g res
Ġd ar
Ġh echo
Ġdes puÃ©s
i ma
Ġtien en
Ġ1 0
Ġdeci r
Ġg ru
ol og
Ġs Ã³lo
Ġ ,
Ġel ec
im iento
ce p
Ġsi gu
Ġa f
Ġtrav Ã©s
Ġqu Ã©
Ã¡ c
Ġ 9
ab an
om in
qu ÃŃ
Ġse gun
Ġv ar
t amente
Ġ ir
c os
ĠD es
Ġes a
ch e
Ġf o
E S
Ġp el
Ġel los
te c
ĠL as
ĠS u
Ġg u
t ica
Ã³ g
Ġun os
Ġo tras
u al
Ġp ens
iv el
s iÃ³n
t ados
Ġm al
om e
Ġcon oci
er g
Ġ .
ob ierno
a p
Ġh oy
Ġa unque
Ġb a
Ġg an
Ġn ada
Ġex ist
ĠN a
Ġin s
er ÃŃa
g as
tiv as
ient ras
v a
Ġsu b
! !
Ġf r
ient es
v an
Ġpro gra
Ġa quel
id as
Ġpe que
di do
tur al
Ġen tr
Ġ Ã
Ġsi tu
i Ã³
Ġespe cial
Ġe fec
C I
z as
Ġcas a
di a
Ã³ r
Ġre l
i ar
ci dad
Ġan te
Ġcont in
am a
Ġper mi
ĠÃ© l
Ġres pon
E R
" ,
Ġse Ã±
in as
Ġsin o
Ġn ivel
ien cia
i or
s a
en o
ri st
Ġc ier
ri dad
Ġpres ent
c ado
du ci
Ġorgan iz
ĠC u
Ġest ado
le g
Ġe je
Ġap ro
Ġ k
ĠD E
Ġp al
Ġe con
Ġest as
in ar
ĠcÃ³ mo
Ġb o
Ġe di
os o
er n
ri l
r ado
Ã¡ g
Ġte mp
Ġade mÃ¡s
âĢ ľ
Ã¡ l
ĠP ar
Ġdeb e
e ci
Ġcos as
Ġp i
Ġmuch os
ste ma
Ġsi stema
00 0
Ġar t
Ġmil l
Ġdi se
Ġb ar
Ġ Ãºn
Ġau tor
P or
Ġp ri
or d
S e
Ġmedi o
Ġse m
Ġser Ã¡
l ica
ĠM a
min ist
ĠP ero
Ġ Z
e le
i mos
ez a
Ġcom er
ten er
m ar
Ġs ÃŃ
Ġ X
ador a
Ġpas ado
i al
if ic
Ġc ambi
Ãº m
Ġca pa
Ġa g
A R
ĠP ara
l or
Ġ os
teri or
Ġs an
Ġeje mp
Ġequi po
ĠC o
h e
C on
Ġinter es
O S
E s
Ġda tos
Ã©c n
N o
qu il
Ġimport ante
Ġalgun os
oc er
Ġel la
iden te
ĠT o
Ġb an
Ġhist oria
Ġh o
i cia
ĠÂ ¡
Ġlle g
ï ¿
cion ales
ï¿ ½
E N
h a
ten ciÃ³n
ĠâĢ ĵ
ch a
Ġes per
s os
Ġrep res
Ġw eb
ti do
ĠEs paÃ±a
" .
Ġempres a
un tos
Ġnuev a
f ica
b o
Ġcomp ar
in os
ri g
an za
Ġto tal
ÃŃcul o
ul o
Ġnues tros
Ġ2 0
Ġ1 5
Ġcal idad
y a
Ġest able
ab les
ad re
ar an
Ġm ientras
Ġfin al
i tos
de mos
m ent
Ġhor as
e p
Ġg ente
Ġel e
Ġmill ones
u ra
ier on
Â »
d an
t ad
t am
i p
Ġre con
Ġha cia
O N
e x
or n
Ġin ici
Ġv eces
gu al
em bre
ri r
c ri
A S
Ġcon tro
por t
ĠL o
Ġservici os
b io
Ġdifer entes
Ġre cu
Ġden tro
olog ÃŃa
Ġest aba
Ġv ia
Ġinv esti
Ġprofes ion
on o
Ġes pa
Ġus o
ti dad
lo g
Ġap lic
ĠIn ter
Ġc r
Ġmuch as
Ġdi jo
av or
or te
ta c
ab or
A N
Ġmis ma
il o
ĠC as
Ġa gua
Ã³ x
Ġel lo
ri d
Ġre v
Ġperson a
Ġn Ãºm
ci e
Ġse x
Ġservici o
Ġi ma
Ġin d
mp le
Ġemb argo
al l
S i
Ġac uer
Ġ1 2
ci miento
Ġlle gar
Ġcom paÃ±
an d
es ta
Ġ1 8
Ġre cor
ec n
en cias
di o
âĢ Ļ
ĠB ar
Ġse gÃºn
Ġof re
Ġa quÃŃ
Ġfun cion
Ġso cial
ue la
Ġ ru
Ġus u
de mÃ¡s
Ġes paÃ±
Ġgru po
ĠS al
Ġo fici
Ġpos ible
Ġdist in
ul a
Ġa ut
Ġan ti
Ġt us
Ġdis pon
ar d
Ġcontin u
ĠJ u
ici p
Ġmujer es
Ġp an
ci n
p i
Ġdis f
a tro
Ġproduc tos
Ġor ig
Ġhab er
Ġesc ri
g n
Ġs ue
u da
Ġcon v
Ġpro ceso
Ġv i
Ġf avor
Ġle y
Ġam b
e ta
Ġm Ã¡
ri a
o k
ĠM ad
Ġp ie
r al
Ġcu er
t ante
ol Ã³g
Ġc las
il l
Ġv o
Ġpre gun
Ġejemp lo
z Ã³n
it as
b ol
ar ia
il la
Ġpro v
Ġt Ã©cn
om a
Ġnos o
Ġju g
Ġencon trar
un ca
Ġgener al
Ġes pec
is o
di da
bi do
Ġgran des
A L
Ġm Ã©
st itu
Ġl uego
d or
j as
tu ras
ĠP er
tor io
gra f
ac h
L as
Ġfuer on
Ġproyec to
Ġay ud
Ġmo de
Ġt ri
ti o
ci endo
b er
Ġdesarrol lo
Â Ń
Ġcu r
ĠÂ «
Ġqu er
ĠD i
ĠG u
Ġpo d
Ġp unto
ĠP a
f orm
Ġreci b
pec to
Â ¿
ter a
Ġpr Ã³x
Ã¡ m
Ġf Ã¡
Ġparti cip
esti Ã³n
p en
ac e
Ġnoso tros
O R
Ġcon ocer
Ġbaj o
Ġcon di
Ġ ...
Ġc lar
Ġs ac
Ġin t
Ġpos ib
Ġcas i
Ġcomp r
t amiento
ton ces
Ġin di
Ġen f
Ġle g
r ic
Ġd in
Ġtr ad
Ġc in
t ico
Ġsem ana
Ġperson al
Ġmu er
aj es
ĠR o
Ġbuen a
ĠE x
E st
Ġe duc
ĠNa cional
p re
Ġi gual
g aciÃ³n
ec u
ele b
Ġv uel
er as
Ġap oy
Ġn ombre
Ġval or
Ġf or
Ġmej ores
ĠM Ã©
Ġg as
un ci
Ġdisf ru
Ġno v
por te
Ġ 0
Ġacuer do
ĠS in
ĠP o
Ġcol or
Ġm ie
Ġe t
Ġgra cias
Ġcon ten
Ġecon Ã³m
Ġexper iencia
Ġpal ab
Ġni Ã±os
di Ã³
an to
Ġor den
os a
ues tra
ĠC ol
Ġdes cu
Ġex tra
ens a
Ġsal ud
ac ter
Ġempres as
Ġa mpl
t Ã¡
Ġmin u
Ġc eleb
ĠA m
ĠUn ivers
Ġal l
ien e
Ġl ado
Ġp Ã¡g
r Ã¡
Ġinter na
Ġrespon s
Ġcons i
Ġz ona
ĠM an
den cia
x ico
Ġsegu ridad
Ġh ombre
Ġten dr
Ġne go
Ġter min
ĠV al
ĠnÃºm ero
re a
n e
ĠC a
i te
Ġinst al
omb res
v id
Ġt ecn
Ġre com
is iÃ³n
ech a
Ġrealiz ar
Ġque d
Ġla b
ĠEst e
Ġca us
Ġlib ro
ab ilidad
ĠS o
Ġs a
pos iciÃ³n
Ã¡ p
Ġ on
Ġap ren
f ico
Ġmes es
Ġexp res
Ġdi f
Ġtra ta
Ã± as
Ġa um
ir m
Ġ |
tor ia
ra m
c tu
iz aciÃ³n
Ġfu era
de ra
ĠU na
Ġa segu
b an
ĠM o
A l
Ġn unca
dos e
Ġam or
Ġam ig
Ġna tural
Ġv ent
Ġh emos
Ġten emos
Ġre cur
ci s
Ġfamil ia
D es
D e
ci na
Ġl ÃŃ
P ara
Ġc ir
pues to
Ġl ÃŃn
iz o
Ġpue des
Ġincl uso
A D
Ġf a
Ġin te
Ġj ue
l am
ĠF ran
ol es
Ġcu mpl
ĠMad rid
iv o
Ġ1 1
Ġpar ece
i re
Ġj uego
Ġpr Ã¡c
ĠEst a
Ġal im
Ġpre v
ĠD ios
Ġ #
ist o
Ġcent ro
Ġsab er
Ġmer cado
ec er
Ġten go
Ġun as
Ġac er
den te
Ġemp le
port un
Ġma teri
Ġa Ãºn
ĠM un
Ġs en
Ġa le
Ġcom en
ic amente
ĠEst ado
ar es
I C
Ġdest ac
Ġ3 0
g ent
un d
Ġrel aciÃ³n
Ġj ust
Ġalgun a
p ti
Ġh ora
Ġdeb er
Ġproble mas
Ġcam bio
b ar
Ġsegu ir
Ġ ust
n et
Ġal can
en d
ol uciÃ³n
Ġsig n
t ando
Ġprogra ma
Ġj unto
Ġper fec
Ġre fer
Ġte ma
Ġ [
Ġpres idente
2 01
bl es
a f
ri o
l u
i le
Ġcon tac
Ġ /
Ġalgun as
Ġm os
an ci
Ġet c
Ġcuer po
Ġpon er
re g
ti fic
Ġfo to
Ġo portun
Ġdef in
Ġcom ent
Ġincl uy
Ġm Ãºs
Ġf ac
Q u
ur os
ĠC ent
y o
us iÃ³n
Ġf il
Ġan im
ier a
Ġver dad
ĠC or
Ġpel ÃŃcul
ter min
Ġsitu aciÃ³n
Ġdic e
i es
Ġ201 8
Ġa fec
ci do
ĠM on
t ada
ĠL u
ti tu
Ġcu atro
Ġreg ist
Ġd omin
er ic
Ġparti r
Ġpubl ic
res pon
Ġpo demos
ĠE uro
aliz aciÃ³n
if ica
Ġo l
Ġp uer
Ā Ā
Ġn orm
in aciÃ³n
Ġdes p
Ġsol ici
Ġpre cio
Ġcar acter
Ġo cas
ĠJ os
Ġproble ma
t in
Ġlo gr
Ġdi vers
Ġe jer
z os
ĠpÃºbl ico
Ġg en
aj a
ici o
Ġre d
Â ¡
ĠMÃ© xico
Ġfr ente
Ġb ene
Ġdi rig
Ġcomp e
j ar
Ġv arios
Ġg obierno
di r
Ġcon segu
Ġe m
Ġser ie
p el
ĠÃºlti mo
g er
Ġna cional
Ġsi endo
Ġest u
Ġse lec
ĠQ u
Ġcontro l
Ġpas o
Ġso cie
ĠO r
Ġp in
an as
Ġdo cu
Ġencuent ra
Ġre alidad
b lo
bl ig
Ġl argo
ist e
Ġen tonces
Ġmo v
Ġ1 4
Ã© is
g ado
ar ÃŃa
Ġe j
1 9
Ġm or
ist er
ier ra
Ġlo c
r on
ĠC am
. -
Ġlib er
qu es
Ġofre ce
m ento
v es
ar lo
I N
Â º
Ġob ra
Ġman o
Ġcons ide
Ġen fer
Ġ1 6
ĠfÃ¡ cil
Ġr Ã¡p
Ġfun d
di al
iv a
Ġno che
Ġv ÃŃ
Ġmun icip
r Ã³
Ġa tra
n as
Ġpre par
Ġv ide
Ġminu tos
Ġobje tivo
g on
s erv
Ġm us
Ġte le
Ġactiv idades
Ġ1 3
Ġsu r
ie dad
e f
Ġparti do
Ġad minist
Ġi den
p as
duci r
Ġde tal
re o
Ġele g
Ġten ÃŃa
Ġfal ta
rib u
Ġbene fici
ĠA demÃ¡s
Ġsec tor
Ġo blig
Ġen erg
Ġa tenciÃ³n
Ġso ciales
Ġv an
ĠâĢ ĺ
m bre
Ã ĥ
ĠEst ados
Ġtemp or
Ġespa cio
Ġde cl
Ġp untos
Ġ2 5
z ado
i ado
ĠpolÃŃt ica
ĠC an
Ġbas e
ent al
g re
n es
Ġcor respon
Ġa t
Ġemp ez
ĠG obierno
om os
g el
C u
Ġrepres ent
Ġre al
Ġt or
e as
Ġdin ero
Ġ '
om ÃŃa
ra c
Ġpodr ÃŃa
ic h
Ġpr ue
v ar
Ã¡t ica
en as
r era
m it
g les
Ġderech o
Ġj un
Ġart ÃŃculo
I n
g ro
m ientos
Ġpermi te
ol u
Ã¡ b
Ġg aran
Ġpar e
ĠM in
v al
Ġinst itu
ch o
Ġde termin
ĠpaÃŃs es
el l
Ġh izo
Ġpre cios
le x
Ġmedi ante
c ent
ruc ciÃ³n
Ġsent ido
ĠÃ ģ
Ġsi tio
Ġo cur
vis iÃ³n
st as
Ġin de
Ġb lan
Ġin dic
Ġexp lic
tr Ã³n
m on
ar Ã¡n
Ġm ens
g ue
Ġsigu iente
U n
Ġsegun do
.. ..
Ġpro ce
ĠP ol
ar e
Ġ1 7
Ġal ta
ri Ã³
p ciÃ³n
Ġen can
ĠseÃ± al
Ġal gÃºn
Ġmayor ÃŃa
Ġu b
Ġm ir
cion ar
un a
ĠP re
Ġdise Ã±o
Ġre un
Ġnuev os
Ġmo do
ĠUnivers idad
ĠA d
Ġte x
Ġac om
Ġ il
Ã ĵ
a te
Ġima gen
ĠUn idos
Ġal um
E ste
Ġsu f
tar io
Ġau to
aliz ar
tr an
Ġfin anci
t s
Ġb ol
pos i
Ġnuev as
Ġof rec
Ġquien es
s i
Ã± ana
d al
Ġespe ci
Ġper io
Ġactiv idad
Ġcondi ciones
Ġcas os
ĠJu an
Ġay uda
or ÃŃa
ti on
Ġlab or
Ġcons ul
baj o
Ġide a
Ġcon j
Ġsocie dad
Ġt am
ues ta
Ġtar de
Ġs os
Ġ201 7
Ġest amos
ĠG ener
Ġs ens
ĠmÃ¡ x
Ġpro ces
Ġencon tr
cu p
in al
p endi
Ġa van
Ġco lec
i k
ul io
Ġconf i
Ġel em
Ġsi mple
Ġcre o
Ġj o
Ġes os
Ġderech os
Ġ :
Ġres pecto
v ÃŃa
ĠT ambiÃ©n
in gun
Ġas ist
Ġneces ario
Ġsegun da
Ġvi ol
Ġcu anto
Ġs or
ĠB o
Ġrela cion
Ġproduc to
Ġresul tados
ti en
Ġpos i
Ġcon ver
t h
Ã¡n do
Ġcu b
i go
Ġcon ven
Ġpr omo
ib les
Ġdej ar
Ġcer ca
Ġh ombres
Ġac ab
Ġpas ar
Ġre co
Ġind ust
Ġdi g
Ġ1 00
l ine
pues ta
Ġ2 4
Ã¡t ico
ĠlÃŃn ea
ech os
Ġust ed
u ales
p ular
Ġl ec
v ent
Ġf on
ĠN e
Ġen ten
Ġesc uch
ĠP e
ÃŃ amos
Ġbas tante
t Ã³n
Ġl an
Ġr ad
Ġtien es
Ġprincip al
Ġamig os
ti ene
tic ular
Ġm ul
Ġest ra
Ġfu tu
Ġhay a
U na
Ġl uch
p res
3 0
Ġnues tras
I I
gu ien
ri do
Ġdic ho
Ġac ep
1 0
Ġhac en
Ġestudi o
l er
Ġllev ar
r ero
ĠJos Ã©
ÃŃt ulo
Ġe uros
ol o
Ġpue blo
Ġin cre
u rante
d ico
Ġpues to
ĠP res
Ġ ur
z Ã³
ad ie
ĠY o
ing Ãºn
Ã¡ r
ÃŃst icas
Ġimp res
T A
Ġen vi
Ġpres ente
un ta
Ġri es
gen es
Ġcom b
I S
ĠR es
l ado
Ġpro b
ic e
Ġest oy
Ġpa pel
ÃŃcul os
ĠG ran
Ġmie mb
Ġcl ientes
Ġac ceso
Ġclar o
Ġen c
ita ciÃ³n
Ġli bre
em as
ĠC al
Ġv ac
ĠA p
Ġdes e
d ica
Ġacom paÃ±
ĠpÃ¡g ina
tec ciÃ³n
Ġma Ã±ana
Ġsi m
Ġ19 9
Ġan terior
Ġn ingun
ĠespaÃ± ol
Ġprop io
Ġmode lo
on e
ti Ã³
ĠÃºn ico
ctu bre
Ġdescu b
ĠA c
ĠCom o
il lo
ci Ã³
Ġas es
Ġcier to
g l
i ra
ente mente
Ġcon te
Ġe r
ad amente
Ġesc rib
Ġincl u
Ġprim ero
ie mbre
ĠT ra
Ġdeb en
Ġfa cil
r ados
Ã©r ica
Ġf ÃŃs
Ġn ingÃºn
Ġcin co
Ġvar ias
il ar
Ã³ vil
per aciÃ³n
Ġa do
u g
Ġt el
ter o
Ġf el
Ġgust a
Ġhab lar
Ġrecon oci
r or
Ġquier e
Ġf ab
ĠmÃºs ica
Ġg ol
Ġin m
Ġcan tidad
t ri
ĠLe y
Ġen car
Ġcap ital
Ġusu arios
Ġdes car
i Ã©n
f o
Ġlu z
ram ient
Ġcam ino
h ora
il idades
Ġmedi os
Ġin vers
Ġcapa cidad
Ġel las
Ġpue da
Ġparti ci
Ġproduc ciÃ³n
ĠP la
ĠÃºlti mos
Ġf ran
Ġdo c
Ġh ub
Ġmar ca
Ġ x
Ġv ista
ĠV er
Ã³ s
iz a
Ġpalab ras
Ġman ten
Ġha ciendo
Ġconsi der
gres o
i an
Ġres ta
ac k
w w
Ġob serv
Ġpa ci
Ġde mÃ¡s
duc ciÃ³n
on os
Ġcab o
Ġpo bl
ĠAs ÃŃ
ic ado
se Ã±
Ġcos a
ac er
r in
Ġcre ar
Ġbuen o
Ġgra tis
Ãĵ N
ad res
Ġtom ar
Ġpar ticular
Ġma ter
2 0
pti embre
Ġ201 6
Ġman if
o ce
iv il
Ġl im
Ġa gu
Ġpri v
Ġ5 0
de z
Ġcu ar
Ġun ivers
Ġr om
Ġli mp
ti z
Ġb eb
ĠI s
Ġpro por
ĠRe g
Ġal guien
Ġejer ci
Ġlo cal
iz ar
Ġinvesti gaciÃ³n
Ġconst itu
Ġprop ia
Ġdisfru tar
Ġdes a
b e
Ġb log
Ġdirec tor
Ġi m
Ġal to
Ġper man
Ġpo ten
Ġrecu er
T E
l ante
t icas
Ġpes ar
bi Ã³
âĢ Ķ
am ientos
_ _
tiv idad
Ġfund am
Ġcu ales
as e
Ġc ri
ĠC l
gent ina
Ġc la
Ġsen cil
Ġf echa
qu is
Ġman tener
ul os
if icaciÃ³n
ven es
I D
Ġde dic
M e
Ġab ier
m entos
Ġes f
Ġpi el
Ġe mo
Ġin ten
c ÃŃa
is is
Ġo fer
Ġv ir
ec re
da p
ĠGener al
Ġdif ÃŃ
Ġade cu
Ġprov in
ĠD is
ister io
tu al
p le
Ġac ciones
Ġelec trÃ³n
Ġrecur sos
Ġconst ru
Ġno ti
ĠÃºlti ma
Ġactu al
ĠDi rec
Ġde bido
uer ra
E sta
Ġev itar
Ġresul tado
Ġdu da
Ã© f
Ġab s
ig n
t Ã¡n
Ġconsegu ir
Ġher ramient
Ġres to
Ġcal le
Ġal ter
Ġcon ci
Ġser ÃŃa
al o
de dor
om as
ec en
re z
Ġcon cep
Ġsign ifica
Ġest ilo
Ġfutu ro
Ġcon tar
Ġcol abor
Ġt a
Ġprofesion ales
en ci
Ġm ol
Ġe dad
Ġm ÃŃ
cul o
ĠCu ando
ien da
Ġpr on
Ġvol ver
Ġar ti
ĠpelÃŃcul a
ĠâĢ Ķ
Ã ¼
Ġfamil iar
ĠÃ© x
Ġn adie
Ġaplic aciÃ³n
de ro
tal la
Ġgran de
on as
Ġex cl
Ġprofesion al
s iones
Ġentr ada
graf ÃŃa
Ġde por
cel ona
tur ales
Ġt Ã©r
Ġenfer me
Ġmo der
Ġ is
Ġbus c
ĠF e
Ġt it
Ġdi ci
Ġb al
ĠG ra
j ust
Ġsegu ro
Ġtu vo
Ġfo tos
tiv amente
par tam
Ġso y
p ara
b as
Ġv ig
Ã³ venes
ĠSe gu
Ġah ÃŃ
f t
5 0
Ġd ado
Ġa z
i ano
m ac
Ġcom ien
Ġmedi da
Ġjo ven
Ġf e
Ġsig ue
Ġform aciÃ³n
Ġinter ior
Ġayud ar
ador as
Ġproyec tos
R A
Ġop in
Ġo ctubre
bi ente
Ġmuer te
ar ias
Ġv enta
Ġtra tamiento
ĠT e
Ġ2 1
t t
Ġen v
Ġa dap
Ġv isto
ĠN uev
Ġcomun icaciÃ³n
Ġe ran
Ġf re
t ÃŃn
L o
Ġaquel los
b u
Ġest ruc
Ġbus car
ac ciÃ³n
iv os
ĠprÃ³x imo
Ġa gr
Ġprof un
Ġtrabaj ar
Ġenf r
Ġest Ã©
ĠQ ue
j es
ĠG ar
tr Ã¡s
Ġsec re
Ġnov iembre
Ġde mas
Ġoportun idad
Ġes as
Ġf an
Ġhi jos
Ġse an
Ġ201 5
Ġve h
to do
Ġapoy o
t icos
ĠJ o
Ġllev a
re l
Ġcomun idad
Ã¡l isis
il las
Ġac ciÃ³n
Ġm adre
ĠP ue
Ġvide o
Ġman os
Ã³ p
Ġres pe
f icaciÃ³n
R O
ĠG o
es a
f orma
Ġa ire
t ina
Ġp udi
Ġcu ad
Ġter ri
Ġg estiÃ³n
ta ciones
Ġcomp rar
Ġa ta
ul s
Ġop era
C omo
Ġt ur
lar es
Ġdici embre
Ġcon tr
a u
Ġno ve
Ġinterna cional
an cias
p s
Ġindi vid
Ġl ig
Ġhab l
Ġle er
Ġpas a
Ġv amos
r ÃŃa
Ġprincip ales
Ġob ras
r ada
Ġpre o
ĠM or
Ġdirec ciÃ³n
Ġpla ta
l i
Ġf ir
Ġcor rec
ici os
Ġse ptiembre
ul aciÃ³n
u mo
ÃŃst ica
Ġmejor ar
Ãºbl ica
ven ciÃ³n
Ġm uestra
Ġinter Ã©s
m en
Ġex cel
Ġpo pular
it or
Ġcab eza
p ro
Ġtempor ada
ta gon
ĠH a
Ġc ora
Ġj Ã³venes
os p
ac to
Ġ2 2
T o
Ġinte gr
Ġall ÃŃ
Ã³ mo
Ġter c
Ġre almente
Ã¡ genes
t Ã©
Ġcam po
Ġus ar
Ġsig lo
A s
Ġimport antes
ĠA b
Ġten ido
Ġmo di
Ã¡n dose
ĠCom un
Ġdi o
Ġc ara
Ġenerg ÃŃa
Ġl ar
Ġneces idad
tor no
ÃŃ f
Ġin cor
il a
Ġcu id
Ġfuer te
Ġdes con
ien cias
Ġca teg
Ġdis posi
R E
ĠEst o
Ġre des
ĠCent ro
Ġel im
ĠA y
po co
Qu Ã©
fici ente
ĠJ es
ĠcompaÃ± ÃŃa
al u
Ġen seÃ±
Ġcontac to
ĠR ec
Ġfuer za
ru z
Ġdise Ã±
Ġcon duc
Ġex ig
Ġprim eros
Ġv iene
ib ilidad
rim on
Ġpodr Ã¡
Ġde r
Ġtrad i
u do
Ġa udi
Ġdecl ar
Ġutiliz ar
Ġcar rera
Ġpue do
Ġv as
Ġmis mos
Ġpobl aciÃ³n
Ġon line
Ġque da
se jo
Ġequi pos
ĉ Ċ
tar on
Ġres puesta
l io
Ġj ulio
ici dad
Ġjun io
Ġentr en
re mos
d ra
ran tes
ĠEs c
Ġsal ir
Ġte mas
Ġposib ilidad
Ġpos t
st ico
al e
it an
Ġob tener
Ġl en
Ġg ob
p ren
Ġsi st
Ġpeque Ã±o
Ġmuch a
Ġver da
ent as
Ġpres encia
ĠS erv
cion ado
ĠO b
Ġvia je
ĠtÃ©r min
P ero
2 00
Ġpl ante
Ġb el
Ġt ierra
pon e
ĠBar celona
Ġan unci
Ġmay o
Ġm ad
r ad
Ġprincip io
Ġeduc aciÃ³n
Ġconst rucciÃ³n
Ġmedi a
Ġcur so
ĠdifÃŃ cil
Ġde man
cul ar
Ġex ten
T I
x ic
Ġdi a
ĠÃ©x ito
Ġusu ario
orm e
Ġal re
Ġs Ã©
gles ia
ĠC rist
Ġo jos
Ġf is
Ġcon cre
Ġcons um
ĠMar ÃŃa
Ġconj unto
Ġsex o
es t
Ġb Ã¡s
Ġfi gu
Ġneces ita
Ġconten ido
ĠM i
Ġpre m
x im
Ġar te
Ġhi jo
c en
ĠB uen
Ġorganiz aciÃ³n
Ġespecial mente
Ġp adre
im ientos
cur so
b al
1 1
Ġapro v
b il
ti m
ir se
Ġse man
Ġim Ã¡genes
es iÃ³n
ir Ã¡
Ã© l
ĠInter na
Ġv ic
Ġtecn ologÃŃa
A M
gos to
A n
Ġres erv
Ġtel Ã©f
Ġm ÃŃn
ĠM u
ĠIn stitu
Ġencuent ro
Ġgru pos
gr Ã¡
Ġra zÃ³n
Ġ201 4
Ġelem entos
Ġsi r
Ġlib ros
ier nes
ti endo
Ġc ine
teri ores
Ġpro tagon
Ġtoda vÃŃa
am eric
Ġries go
Ġser Ã¡n
Ġmateri al
ĠH o
ĠEuro pa
ĠB an
CI ÃĵN
ĠLu is
ĠA le
ar i
t adas
ĠaÃ± ad
Ġningun a
Ġen ci
Ġamb os
Ġ4 0
Ġd Ã³
O M
Ġde mos
h i
uer to
Ġsu ce
Ġjue gos
Ġedi ciÃ³n
ĠÃ¡ rea
ion al
Ġop ciÃ³n
h er
Ġesf uer
Ġexist e
Ġquier o
Ġin gres
ĠÃ© po
Ġf ru
ent an
it ado
Ġin me
Ġneces idades
Ġver siÃ³n
d ÃŃa
Ġsab e
Ġhist Ã³r
es e
ĠL A
oci aciÃ³n
Ã© m
or o
p ir
ic ÃŃa
ĠAr gentina
Ġsuper ior
Ġre par
ĠCar los
de o
v ia
Ġhacer lo
Ġbus ca
Ġcar go
f a
Ġparticip aciÃ³n
Ġp adres
Ġclas e
Ġconoci miento
k e
lica ciones
ues to
Ġa gra
Ġfun ciÃ³n
ÃŃ do
me tros
di endo
ul as
Ġpla zo
Ġb on
Ġm Ã³vil
Ġpare ja
ĠSan ta
. ,
Ġpar tes
e te
1 2
Ġcre a
âĢ ĵ
Ġpartici par
Ġf ra
aliz ado
Ġin icia
f i
ĠS on
Ġ2 3
Ġestudi os
Ġpres enta
de l
Ġp ier
Ġl ista
Ġen ero
Ġmar zo
ĠE duc
Ġconside ra
ĠS a
Ġpue dan
Ġme tros
Ġofrec er
f il
ĠF ac
Ġima g
ĠH ay
Ġmedi das
Ġh ici
Ġofici al
T O
Ġju gar
Ġt ama
re as
Ġsol u
Ġ â
eb rero
Ġcambi os
un es
Ġac on
ĠÃºn ica
E L
Ġel abor
Ġcl iente
Ġviv ir
Ġe uro
t ino
in ado
ti a
ic al
Ġsigu ientes
Ġ $
p l
Ġho tel
Ġam biente
Ġefec to
ist ro
Ġ q
ent aciÃ³n
Ġcom Ãºn
tor a
ĠC iudad
Ġmiemb ros
Ġp s
Ġgu ar
in es
tar se
Ġn um
r um
o o
R e
Ġcon cl
Ġab ril
Ġc rist
ac a
no v
ie za
Ġre c
fer encia
ĠT er
Ġcambi ar
mo c
r ica
Ġcol oc
gl Ã©s
f e
Ġcul tura
Ĥ ¬
Ġcora zÃ³n
ran do
Ġmen or
Ġestra teg
c k
Ġgra tu
Ġme z
Ġpre ten
den tes
Ġimport ancia
Ġtendr Ã¡
Ã¡m ara
id ores
Ġj orn
Ġl in
Ġv in
E C
ac es
Ġp en
Ġcon ec
Ġcre cimiento
Ã©c tr
Ġcomp ra
ĠT en
ĠP r
omb ia
Ġh as
Ġv oy
Ġpens ar
Ġde pen
Ġd om
O L
ue lo
Ġb or
Ġform as
ĠS ol
tis f
ÃŃ os
ĠS er
Ġprue ba
k et
Ġcons erv
Ġmay ores
ter ÃŃa
di z
ch es
Ġpro teg
H ola
I A
Ġg al
Ġinter pre
Ġnego cio
ĠI N
Ġse is
en da
Ġencon tra
Ġte m
Ġev ento
Ġper ten
ĠCon s
Ġc iento
ri tu
titu d
es te
ĠpÃºbl ica
n er
Ġpes o
Ġd an
Ġaprov ech
it antes
ĀĀ ĀĀ
Ġh on
or ta
Ġa di
Ġre quier
Ġv iernes
Ġsu st
Ġlugar es
Ġco cina
Ġg ri
Ġdes c
ar do
v ieron
s u
Ġpa go
Ġefec tos
Ġg o
ĠV en
Ġfre cu
Ġrecib ir
Cu ando
Ã³ l
Ġten ga
Ġ201 3
ÃŃt ica
Ġmom entos
Ġestudi antes
Ġman e
Ġn ar
Ġtrabaj adores
Ġacer ca
Ġhab ÃŃan
g ada
cri pciÃ³n
Ġcomple to
Ġcan dida
Ġpro tecciÃ³n
ier e
Ġtotal mente
Ġdifer encia
Ġreg res
E D
Ġalre dedor
ĠF ern
Ġcol ores
ĠM er
Ġan Ã¡lisis
ol ver
ĠP lan
Ġc ient
Ġa gosto
Ġide as
Ġs Ã¡b
Ġp ien
Ġar ch
Ġmov imiento
Ġrecom end
w are
Ãº a
ĠDes de
t rimon
Ã© di
ĠY a
partam ento
Ġcaracter ÃŃsticas
ris is
tel ig
orm ente
ĠÃ©po ca
v in
Ġve lo
mi te
eb o
Ã į
Ġeduc a
1 5
Ġedi fici
Ġac ce
Ġdemas iado
ues tas
Ġapro b
Ġcor reo
Ġsist emas
Ġc el
Ġdeci siÃ³n
Ġpres u
it ario
or k
Ġdesarrol lar
Ġall Ã¡
Ġcompr om
di go
1 8
Ġcaus a
Ġop ciones
Ġdo lor
Ġpel ig
ĠInter net
Ġna ve
Ġnatural eza
Ġrela ciones
er ia
z an
Ġmater ia
Ġ2 8
Ã¡c ter
ĠB ol
ĠH er
tu d
Ġres ist
Ġg uerra
e ar
Ġreg iÃ³n
Ġpr os
Ġ201 2
ti da
Ġcar Ã¡cter
Ġni Ã±o
Ġex tre
Ġencuent ran
Ġk il
Ġno ta
ĠMin isterio
ig a
ris mo
Ġob st
Ġpeque Ã±a
cion a
am b
ri os
p era
Ġbaj a
Ġan d
Ġhum anos
Ġtam poco
Ġt ÃŃtulo
Ġexcl us
Ġs omos
Ġra z
t ales
Ġv esti
Ã¡t icos
Ġpermi tir
w s
ĠE S
ÃŃ m
ĠT or
ĠP as
Ġorig inal
Ġsor pren
Ġsa tisf
ica ciones
Ġ2 6
Ġfab ric
Ġn orte
Ġ2 7
ĠB a
Ġme m
Ġm ec
es o
Ġliber tad
Ġfon do
Ġpa gar
e tas
Ġre cl
Ġcompar tir
t amos
ĠD er
Ġf ebrero
Ġcom ida
um en
ay a
Ġpr ome
Ġev alu
qu ina
ita ciones
Ġper der
Ġorig en
Ġvar i
Ġvol un
Ġcons ecu
Ġj ur
e e
Ġm ara
Ġlle ga
ul ta
Ġay er
Ġcompe ten
Ġentre ga
Ġa ten
til la
Ġsu m
Ġper s
og le
r y
Ġa just
ĠdÃ³ lares
ĠprÃ¡c tica
es tr
Ġvis ita
Ġc risis
Ġmos tr
Ġesp era
ÃŃ fico
Ġin tro
Ġmateri ales
ed or
Ġsu puesto
Des de
Ġdistin tos
ĠT he
Ġcam paÃ±a
cep ciÃ³n
Ġexper im
Ġcre aciÃ³n
Ġtama Ã±o
ĠâĢ ¦
ĠmÃ¡x imo
Ġdomin go
Ġe vi
di ente
Ġe qu
ul tura
Ġrel ig
Ġmun dial
Ġenten der
Ġpeque Ã±os
- -
ĠE mp
Ġs il
Ġor ient
ĠtelÃ©f ono
Ġe ta
Ġpalab ra
Ġ iz
/ /
A C
i ana
Ġ19 8
Ġde ja
Ġincor por
c ti
ti dades
Ġanti gu
ĠJes Ãºs
Ġv ie
Ġd Ã©
Ġs uel
Ġp is
Ġllam ado
Ġver ano
m bi
Ġalum nos
p ero
Ġse par
Ãºs que
Ġdesarrol l
Ġar ri
Ġquier es
Ġaut om
Ġcon ce
tar ia
r er
ĠCol ombia
Ġd orm
ti les
Ġprogra mas
Ġcomp ren
Ġseman as
Ġpod ÃŃa
Ġtrabaj os
Ġautor idades
Ġsal ida
Ġmon ta
Ġdesa par
ĠCh ile
Ġhum ano
Ġpos iciÃ³n
Ġdirec tamente
Ġdis co
Ġz onas
Ġher m
Ġb lo
Ġest aban
teri ormente
ĠSu per
Ġtex to
ĠT u
Ġt ro
ren o
olÃ³g ico
esti on
able mente
cul os
Ġenci ma
Ġproces os
t bol
Ġi ba
Ġcons umo
ĠAn ton
Ġejerci cio
Ġdefin i
on g
ĠRe al
ĠN av
Ġho gar
osp ital
Ġ6 0
r Ã¡n
ci to
Ġin glÃ©s
Ġper mit
Ġcontr ario
ĠInterna cional
Ġc ivil
ab lo
Ġp un
Ġprop ie
ĠAd minist
p ut
Ġimp os
id or
ues tro
Ġiz quier
Ġpregun ta
vo ca
Ġle van
Ġexist en
Ġvo z
Ġsimple mente
ĠsÃ¡b ado
Ġpan talla
p h
Ġt ab
Ġel Ã©ctr
Ġlleg Ã³
un tamiento
aliz ada
Ġconver tir
e dad
ab il
Ġcontinu aciÃ³n
h u
Ġincluy e
tar ÃŃa
Ġac e
Ġtiemp os
Ġqu iz
Ġp ul
Ġlogr ar
Ġprovin cia
Ġco che
ĠD el
er te
Ġb rin
Ġdi bu
qu Ã©
d on
Ġde v
Ġan un
er to
ĠP al
di s
i el
Ġblan co
ĠP u
ĠÃ¡ mbi
ĠE N
rib un
tor ial
Ġiden tific
A demÃ¡s
ti os
Ġval ores
Ġbien es
Ġsol uciÃ³n
Ġcl ub
ĠL ib
Ġperson ajes
p an
Ġinf orma
Ġt Ãº
form aciÃ³n
Ġprov oc
Ġllam a
Ġade lante
Ġg lo
Ġdifer ente
Ġt ir
Ġdistin tas
Ġgan ar
ac o
Ġm ic
Ġne gro
Ġap re
Ġindust ri
ti dos
qui tec
ĠP rim
en os
: //
ĠÃ ī
Ġcor ri
Ġmar co
A r
Ġplan ta
Ġf amos
ci dos
t ÃŃa
Ġsu je
d ores
Ãº tbol
ar la
ĠMar tÃŃn
C om
Ġb Ãºsque
le v
di miento
Ġc ic
ĠpolÃŃt icas
ĠRe p
di entes
Ġh u
ar te
Ġab and
Ġeuro pe
le o
Ġpo cos
Ġhist or
ri to
uev es
Ġide al
ĠSo cial
ĠM ay
Ġinteres ante
Ã© tica
ĠEduc aciÃ³n
f f
ĠCon sejo
ebo ok
uy e
k a
Ġapren der
Ġr endi
Ġam igo
Ġparti dos
Ġas i
ĠM as
Ġgaran ti
Ġrefer encia
Ġluch a
Ġh om
ĠR a
Ġrespons abilidad
Ġcompe ti
ĠvÃŃ cti
Ġmil itar
y e
Ġmo tivo
ĠFran cis
Ġcl Ã¡s
Ġnivel es
Ġalter na
Ġrecu per
Ġac to
Ã¡t icas
ĠAm Ã©rica
Ġo per
Ġme xic
am e
Ġob ten
Ġentre v
Ġest rel
Ġsue lo
Ġconoci do
Ġpar eci
Ġin telig
Ġdo ble
Ġl unes
Ġesc en
S in
im as
Ġin nov
Ġg Ã©n
Ġjug adores
den a
Ġ201 1
Ġtra tar
Ġrealiz ado
Ġdi ver
a pa
Ġdetal les
d icos
ÃŃ p
ĠA hora
Ġen trar
Â» .
j u
Ġocas iÃ³n
Ġpodr Ã¡n
Ġen torno
Ġti pos
c la
Ġfamil ias
ĠU S
Ġapro xim
ĠpolÃŃt ico
1 6
Ġn orma
ĠInstitu to
Ġpresent aciÃ³n
Ġmara vil
ĠeconÃ³m ica
Ġh echos
Ġmens aje
R I
is l
Ġresul ta
ment aciÃ³n
Ġr os
Ġcomer cial
id amente
Ġocas iones
es tiv
ens iÃ³n
la z
Ġen s
!! !
c ados
ÃŃst ico
Ġr en
ĠM ig
Ġde m
pec tos
ent ado
gen ier
Ġcon oce
Ġde c
Ġloc ales
ĠÃ© ste
Ġar m
ĠA u
l ores
Ġalim entos
âĢ¦ ]
ĠC os
Ġsuper fici
Ġrespons able
m er
ĠH ab
Ġf ras
Ġpuer ta
e Ã±o
Ġej ecu
Ġpres entar
Ġcom e
is mos
Ġbuen as
Ġecon omÃŃa
Ġ za
ĠS ecre
Ġmar cha
ĠMun icip
Ġinici o
Ġagra de
as a
Ġve ci
Ġcon vers
en cial
Ġad qui
Ġm it
aj as
Ġr Ã©
Ġrepres enta
1 4
di das
ĠMun dial
Ġher mos
Ã³n ica
Ġobje to
Ġtar je
ic es
Ġviol encia
di os
ĠF in
Y o
ĠG al
Ġtemp era
Ġhab itu
w it
ie lo
Ġj ef
Ġatra c
ĠelectrÃ³n ico
Ġinde pendi
Ġ ÃŃn
Ġselec ciÃ³n
Ġdis posiciÃ³n
Ġvuel ta
v ado
Ġ2 9
ĠTo do
Ġso b
ti que
Ġinvers iÃ³n
i ro
Ġtien da
Ġopin iÃ³n
Ġpodr Ã¡s
Ġin ci
Ġpron to
s as
ed ro
o z
f es
Ġtrans porte
ĠS oci
ar o
ra ciones
Ġac ces
Ġde moc
Ġenferme dad
or ÃŃas
ĠSe Ã±
U N
leg io
ra g
Ġdi v
Ġes ca
Ġban da
Ġ201 0
Ġinter net
Ġprop uesta
Ġpres iden
Ġcon cent
Ġest ad
E x
le ta
Ġcateg orÃŃa
Ġherramient as
Ġ +
Ġen l
u ri
Ġcomprom iso
ĠeconÃ³m ico
ĠRep Ãºblica
Ġexcel ente
Ġa un
ter as
Ġma es
itar ia
ĠAnton io
log ÃŃa
ĠM us
ci ente
Ġpre cis
p ol
Ġjorn ada
ĠJ a
ĠD a
Ġdes emp
rib uciÃ³n
Ġex tran
Ġah or
Ġp Ã©r
ĠEn tre
Ġcoment arios
Ġpe lo
tar ios
Ġtal ler
iv er
Ġeleg ir
ÃŃ r
ĠCom isiÃ³n
lo go
Ġsent ir
on ia
Ġdis c
Ġsu erte
im en
Ġcapa z
Ġac us
ĠNuev a
ÃŃ ritu
ent ales
j ero
b ia
el lo
Ġref le
olÃ³g ica
Ġd Ã©c
ĠE L
ĠR os
Ġnorm al
1 7
Ġcla ve
Ġconf orm
Ġquer emos
Ġespa cios
ĠC ap
Ġdispon ible
Ġam ena
Ġindust ria
j ado
Ã³n de
Ġart ÃŃculos
u ras
ĠH um
Ġres pec
ĠI mp
ens o
Ġj a
ĠA unque
Ġe res
Ġesc uela
Ġpr ensa
tar Ã¡
Ġc ru
ĠFrancis co
Ġrep ro
Ġpon e
ta ba
inar ia
1 3
Ġf em
Ġos cu
E M
com o
Ġin teg
dr Ã¡
Ã© st
Ġ Ãº
ĠtÃ©cn ica
2 5
im ismo
Ġgob ern
ific ar
ĠbÃºsque da
Ġas pectos
Ġbenefici os
Ġp ena
Ġtom a
iz ado
Ġin con
z ada
Ġvelo cidad
Ġmes a
Ġobje tivos
Ġcapa ci
am p
Ġanim ales
x to
? ?
Ġol vid
Ġv ÃŃa
Ġco b
Ġmode los
Ġ %
Ġin ver
ĠrÃ¡p ido
ĠSal ud
Ġdi ario
Ġdi ez
Ġmul ti
Ġba Ã±o
Ġpreo cup
ĠC ON
c ol
Ġcomp on
Ġpre ci
Ġcomple ta
Ġo cup
Ġal mac
Ġcent ros
Ġprop iedad
Ġac ci
ific ado
Ġad ul
c oles
Ġ Ã³r
Ġconf lic
un iden
iu dades
ĠJ ust
ĠAn d
Ġescrib ir
Ġt he
or ge
Ġ19 7
Ġper m
an til
Ġinstal aciones
qu er
it ales
ĠespaÃ± ola
i res
Ġfr on
ra mos
Ġsu ficiente
Â °
Ġmit ad
aliz a
Ġest im
ĠseÃ± or
ez uela
ï¿½ ï¿½
Ġperson ales
Ġj ueves
Ġfun ciones
Ġ &
p al
Ġconst ante
ri que
Ġcumpl ir
ĠV ic
ĠP an
ĠM Ã¡s
Ġinf l
Ġlabor al
Ġestruc tura
trimon io
di l
Ġprue bas
ĠtÃ©cn icas
Ġqu iÃ©n
Q ue
Ġofer ta
Ġaum ento
Ġest Ã¡s
irm Ã³
les c
v iv
ĠO l
ien en
p ia
Ġf ol
m entar
Ġdi fic
Ġde cor
Ġconten idos
Ġab rir
Ġpor no
Ġmie do
Ġcent ral
Ġtit ular
6 0
Ã¡n dez
p es
Ġmanif es
ĠGo ogle
Ġt re
S u
Ġor g
Ġap or
Ġco ord
Ġo tor
vi Ã³
Ġcuid ado
Ġcu an
Ġh id
Ġ[ âĢ¦]
l ad
ran s
ul tad
Ġor o
ĠD o
Ġp rac
Ġprincip ios
Ġsegu ra
Ġre ce
Ġest arÃ¡
ĠS us
Ġo c
Ġestu vo
ĠpolÃŃt icos
tia go
Ġbuen os
ĠD ÃŃa
Se gÃºn
Ġdic ha
Ġher man
Ġm ente
Ġconv ier
le z
ĠEuro pe
ÃŃs imo
Ġinst rum
Ġcu yo
Ġsan gre
ĠM ic
Ġqu in
Ġinform e
Ġpaci entes
Ġdivers os
Ġbusc ando
Ġex terior
Ġcu estiÃ³n
ĠMig uel
Ġal cal
Ġcomp ro
Ġconcep to
Ã³s ito
ĠAy untamiento
Ġb ra
oso tros
P ro
Ġciudad anos
Ġb ril
Ã©r coles
d ado
ab e
Ġ8 0
a g
Ġdist ancia
jer os
Ġconfi anza
on z
tor ios
tu vo
ĠpÃ¡g inas
ues tos
Ġc iudades
Ġub ic
un o
A T
quier a
Ġma gn
Ġas oci
Ġhab la
ier to
Ġdeb emos
ĠP edro
Ġpubl icaciÃ³n
il es
Ġesfuer zo
Ġdest ino
Ġrealiz a
ĠS h
Ġap licaciones
ĠGar cÃŃa
Ġcr Ã©di
Ġl ic
e os
Ġcon se
Ġcir c
Ġ Ã³
Ġma dera
Ġe p
Ġpa z
Ġinstitu ciones
Ġdeber Ã¡
ÃŃ fica
el as
y as
ĠpelÃŃcul as
Ġmunicip io
I L
ĠU N
CI ON
Ġm ues
k i
tor al
Ġpro ve
ĠD an
Ġempez ar
Ġcom ba
Ġh tt
Ġdig ital
ĠMan uel
Ġam ar
Ġconsi gu
Ġdef ensa
Ġlan z
Ġes pos
Ġfi esta
Ġal o
Ġque dar
Ġquier en
Ġr eno
l y
im e
Ġemple o
Ġkil Ã³
Ġaz ul
Ġestado uniden
Ġsac ar
Ġa trÃ¡s
ig ue
di eron
Ġactu almente
ĠtÃ©cn ico
4 0
ru mp
Ġaf ir
der al
Ġref lex
Ġampl ia
Ġgol pe
ĠE j
Ġfu ente
ma il
Â ³
Ġclas es
t antes
ĠÃ¡ reas
Ġma g
T ambiÃ©n
Ġ ul
U E
ĠGra cias
ĠlÃŃ der
ĠCon greso
ĠM al
Ġreun iÃ³n
Ġpa g
ĠAs ociaciÃ³n
Ġperfec to
Ġacce der
Ġmo da
ios o
Ġgust o
Ġpa is
ĠO s
Ġde ri
Ġf res
Ġmem oria
Ġal tura
Ġadminist raciÃ³n
Ġmil es
Ġorig in
cion ados
ft ware
c Ã³
di dos
ech as
te les
Ġro pa
Ġprop ios
ut ri
Ġdeb erÃŃa
Ġ *
ĠF o
Ġc if
Ġcon ex
Ġna turales
Ġescri to
j an
Ġfor tal
Ġv ino
Ġpes os
ar emos
ĠI glesia
Ġne ga
Ġa v
Ġes co
ta ble
te ca
gu ay
Ġlo g
Ġdivers as
Ġinterna cionales
Ġden omin
Ġcam pe
Ġhub iera
Ġap enas
Ã© tico
ru po
Ġcolabor aciÃ³n
ti ficaciÃ³n
ĠÃ¡mbi to
ĠgÃ©n ero
Ġch icas
Ġimp le
Ġtele visiÃ³n
Ġnum eros
Ġllam ada
Ġdis min
ros o
Ġtradi cional
t ador
ĠC er
Ġhab rÃ¡
ĠmÃ© dico
S O
estiv al
Ġdar le
Ġdu ra
Ġen tidad
Ġt on
Ġemp ren
ĠB en
Ġeta pa
Ġvis itar
ĠL i
Ã ģ
Ġch ica
Ġvis iÃ³n
ue las
C Ã³mo
Ġfuncion amiento
ĠRe y
ĠÃ¡ r
Ġe ch
itu d
it es
Ġperson aje
Ġun idad
gra ma
Ġperio di
ĠâĢ ¢
Ġconfi gu
ĠpÃºbl icos
ĠVen ezuela
Ġmo tor
Â» ,
ĠI I
gu st
Ġc lic
den cias
i x
Ġinvesti g
Ġ3 1
Ġesc ol
Ġd ando
ĠCas a
ter os
Ġs ÃŃn
Ġpu do
ĠDes arrol
ket ing
Ġsi ete
Ġha ga
Ġinme dia
ĠtÃ©rmin os
Ġcul tural
quil ib
Ġdes can
Ġcar re
in ci
Ġfigu ra
Ġper fil
c am
ĠP os
Ġprogra m
Ġza pa
ue gos
Ġcomple tamente
Ġt orn
om bi
Ġarri ba
h t
Ġas pecto
tr on
tri z
ad Ã©m
Ġpro duci
ras il
Ġin fer
Ġcomen zÃ³
Ġnego cios
pues tos
is a
de m
ĠH e
L e
ĠSegu ridad
ÃŃf icos
ĠÂ ·
Ġas um
Ġf Ãºtbol
Ġcontra to
Ġ Ġ
ĠMu jer
Ġequ iv
Ġej ec
Ġres iden
ec ÃŃa
Ġar quitec
i ales
Ġter cer
Ġtr Ã¡
Ġar gu
Ġgan as
ĠV e
Ġfue go
ĠM uch
ribun al
Ġev entos
ĠÂ »
ĠG onz
b ilidad
Ġfundam ental
Ġmar tes
Ġten iendo
I T
Ã¡ st
Ġlen gu
Ġdic en
ð Ł
2 4
Ġre cha
Ġdeman da
Ġplata forma
ĠÃ© sta
Ġcal les
ca pa
M Ã¡s
Ġcomun ic
Ġlleg ado
an ÃŃa
Ġperio do
Ġar ro
Ġcu ya
gue z
Ġan teriores
mi tir
Ġpregun tas
de res
Ġcuar to
Ġprofes or
U R
ĠCon stitu
ĠX X
wit ter
Ġmos trar
Ġcirc un
Ġactu alidad
Ġesper ar
Ġ9 0
Ġn ie
ri endo
Ġapar ece
M A
tro l
Ġcor re
ĠP ablo
Ġcualquier a
Ġutiliz a
Ġconte mp
Ġimp acto
Ġmis mas
Ġsos ten
Ġmi Ã©rcoles
Ġorganiz aciones
Ġt esti
U L
Ġo cu
Ġrad io
Ġ ras
Ġps ic
cri p
tien en
Ġa vent
ĠSan tiago
Ġmar cas
lam ento
Ġsal a
Ġcar ga
Ġc e
Ġgen era
Ġterri torio
Ġt ales
en se
Ġado lesc
an ce
Ġle jos
Ġderech a
As ÃŃ
g Ã¼
Ġpre fer
H ay
ĠTo dos
Ġ Ã¡n
ĠCa tal
it y
ul ado
Ġpe dir
Ġace ite
Ġint ent
iste ma
Ġinv it
Ġprimer as
Ġ200 9
y os
d Ã³
ĠF und
ar ca
I O
ĠB el
di dad
T e
Ġalcan zar
v as
i ados
ru p
Ġf lu
Ġtran quil
us a
Ġin c
Ġconv ir
Ġre vis
in s
Ġsitu aciones
ĠS E
Ã ī
Ġgener aciÃ³n
le za
Ġjur ÃŃ
2 2
Ġinicia tiva
am o
ĠE di
Ġtrabaj ando
Ġf er
Ġimp er
Ġc m
Ã³p ez
ĠS ur
pon er
p ora
Ġb ur
Ġsi tios
ĠD on
ĠA t
Ġizquier da
ib lio
Ġgra ve
r Ã³n
Ġpie zas
am or
ĠE con
Ġestrateg ia
Ġaband on
Ġper ÃŃo
__ __
Ġdi Ã¡
ĠR ob
Ġamb ient
Ġre pe
diz aje
U S
ĠEs paÃ±
ĠH oy
Ġpla ya
ĠT rans
Ġder ro
d ÃŃ
g imen
estr uc
Ġelec ciones
Ġj ard
Ġqu erÃŃa
Ġpe or
ĠDes puÃ©s
Ġsab emos
vil la
Ġinteres es
Y a
en der
Ġsol a
ĠFran cia
Ġedifici o
ĠE E
Ġrequier e
Ġdescar gar
ci ar
ĠvÃŃ deo
â Ĥ¬
Ġan al
ĠmÃŃn imo
ac ho
Ġconoci mientos
Ġfamiliar es
ĠW eb
Ġjust icia
ĠT h
Ġjust o
Ġg rado
Ġplan tas
Ġado p
Ġdispon ibles
Ġb ara
Ġo cul
Ġro de
m Ã¡n
Ġtam b
Ġhab itaciÃ³n
Ġen orme
Ġalmac en
ĠCh ina
Ġterc era
Ġcomen z
Ġbo ca
Ġdocu mento
Ġaquel la
ĠC ab
Ġblo que
A P
Ġalgun o
s an
Ġsol amente
Ġvent as
Ġpresu puesto
Ġde tec
til las
Ġindivid u
Ġde ten
ĠkilÃ³ metros
Ġre ducir
Ġsolu ciones
Ġse l
Ġpres iÃ³n
Ġg rÃ¡
in ario
Ġexist encia
cip l
Ġm ala
Ġposib ilidades
Ġac og
Ġfin ales
ĠF u
m ina
ĠP at
Ġadminist ra
Ġnove la
ĠMe di
Ġvar iedad
B uen
k y
Ġpie dra
Ġ7 0
on d
ĠA ut
Ġrecor dar
Ġhi ja
Ġre quis
Ġb re
Ġten gan
g Ã³
Ġd Ã³nde
olog ÃŃas
Ã¡ is
Ġhici eron
Ġcompeten cia
ĠO fici
ed ores
i amente
g al
i ores
Ġcomp lic
Ġg ras
Ġdu das
iemp re
ar nos
Ġmanten imiento
âĢ ĭ
ĠL Ã³pez
Ġri t
Ġveci nos
Ġpuer tas
Ġp ec
Ġl uc
f on
Ġdeci siones
Ġf irm
Ġmodi fic
Ġf as
ĠR am
Ġimp uls
Ġfuer zas
iv as
Ġlar ga
Ġconsecu encia
Ġen tra
ul l
Ġ3 5
til lo
Ġ200 8
Ġ >
Ġreg al
Ġd ue
ĠÃºlti mas
Ġsal v
y Ã³
Ġespe ciales
ĠA ires
Ġcomp ort
ĠBuen os
s es
tr Ã³
tic amente
u ta
Ġnorm as
ĠCom er
Ġhum an
Ġexp lica
Ġencan ta
bl os
el es
Ġdej Ã³
T en
Ġcompr ome
Ġex posiciÃ³n
Ġtri un
udi cial
Ġlec tura
Ġll u
Ġmon e
ĠlÃŃn eas
Ġab og
tu s
an g
Ġobst ante
ÃŃt ulos
t y
Ġrev el
us e
Ġcas as
Ġmej ora
ĠFac ebook
Ġsue Ã±o
ĠcompaÃ± eros
il los
Ġi do
Ġnoti cias
k er
Ġter ror
Ġherramient a
Ġsex ual
U U
Ġc ita
a ve
Ġpas os
ech e
ĠIn v
Ġcon oc
ĠDesarrol lo
Ġgra b
Ġcu mple
ĠB us
Ġcr ÃŃt
ĠCl ub
ĠN os
ĠCu ba
Ġo cho
Ġsu stitu
Ġveh ÃŃculos
ÃŃ da
b la
Ġjug ador
Ġfin almente
Ġac um
ue bles
ĠB lan
Ġhac ÃŃa
Ġest an
ci mientos
ier o
h n
Ì ģ
Ġm am
Ġab or
Ġpo bre
Ġme ta
ch as
Ġtri tur
Ġcar ta
Ġdirec to
Ġdes pe
ĠfÃŃs ica
ĠVal encia
Ġe fica
ĠB er
Ġm ent
Ġvin cul
P o
Ġviv ienda
Ġdi go
ĠEs o
ĠPres idente
Ġs esiÃ³n
Ġal quil
Ġinstal aciÃ³n
Ġres oluciÃ³n
Ġvac aciones
k o
Ġposib les
Ġrespe to
Ġt es
Ġpublic ado
Ġ ran
Ġescen ario
Ġviv o
R es
2 3
Ġequi p
ĠH ist
Ġespe cie
Ġjef e
Ġk m
ĠB l
ic ciÃ³n
aliz ados
man ia
ĠÃģ n
H oy
Ġs ome
ĠSeÃ± or
u f
ĠUn iÃ³n
ĠB rasil
Ġap un
Ġca tal
Ġfu entes
ĠEst udi
Ġqued Ã³
Ġesc al
f ÃŃa
Ġestable cer
Ġan o
k s
Ġveh ÃŃculo
ĠC re
Ġex ac
Ġescuch ar
8 0
Ġcu entas
Ġhab itaciones
Ġc Ã¡mara
Ġpr om
Ġaquel las
Ġfir ma
r ador
ios a
Ġvide os
Ġse de
ĠPer Ãº
Ġfis cal
ti g
Ġex ter
ĠmÃ¡x ima
Ġver de
in do
Ġs omb
c Ã©s
p les
Ġgener ar
Ġexp lo
Ġre lev
Ġa vis
Ġmic ro
ĠG rupo
ĠRe v
ci da
Ġfin es
Ġpodr ÃŃan
tu mb
Ġhab rÃŃa
Ġsec tores
Ġenfr ent
ie go
d Ã³n
fica ciones
ĠD av
Ġsuperfici e
Ġi di
Ġmin istro
Ġar tes
Ġp ris
Ġdic h
iv e
Ġac adÃ©m
D urante
Ġpros titu
ĠT a
Ġg a
Ġpo dido
Ġpeque Ã±as
ĠF ue
Ġsue le
Ġprop ias
Ġvis it
ch ez
Ġbar rio
ru pciÃ³n
Ġre tir
or g
Ġlleg ada
Ġproduc e
ĠC ruz
ĠJ av
Ġdes eo
Ġdom ici
Ġun idades
Ġmen ores
ĠprÃ¡c ticas
ĠF er
Ġf en
Ġsencil lo
ĠN ic
Ġpla za
Ġg es
Ġve o
Ġcor te
Ġrendi miento
e des
Ġhum ana
er an
Ġh arÃ¡
ĠEmp res
Ġcolec ciÃ³n
Ġcer c
Ġsu pone
le tas
tis mo
Ġa bajo
Ġrealiz Ã³
Ġint entar
Ġfel iz
Ġregist ro
ier an
Ġincre ÃŃ
un cia
uen cias
Ġres olver
Ġsal e
p lic
Ġemb ara
Ġexper iencias
ero p
f in
Ġag reg
Ġtrad uc
ĠEst os
ĠY ork
ra cia
Ġreg ular
Ġag re
Ġre quer
pues tas
Ġdi put
Ġsec ciÃ³n
Ġpas Ã³
ga ciones
Ġsim ilar
am ble
âĢ ¢
Ġcri ter
an zas
ĠC ada
ĠB e
Ġr ue
Ġprem io
Ġen tidades
Ġcal or
Ġresta u
Ġc iencia
de raciÃ³n
Ġimpos ible
f Ã©
ĠDirec ciÃ³n
9 9
Ġprincip almente
ĠE m
Ġre por
ven ida
Ġre y
Ġex cep
Ġenferme dades
Ġso ftware
Ġre ac
Ġcer eb
Ġesp ero
Ġbel leza
an da
ĠF is
der os
Ġabs olu
on da
Ġcircun st
ĠA g
ĠR us
ĠpÃ©r dida
i gu
Ġpe dido
ona to
Ġer ror
Ġdocu mentos
j or
Ġc Ã¡n
Ġamb as
Ġapren dizaje
Ġo peraciÃ³n
Ġtrans form
ĠPol icÃŃa
ĠFund aciÃ³n
. âĢĿ
Ġar gent
Ġmaravil los
v el
Ġcan ciones
Ġabier to
vi amente
Ġcomen zar
ĠD omin
Ġm Ãºlti
u das
Ġsigu en
Ġtempera tura
il ares
tor ias
Ġco inci
r eras
ĠseÃ±al Ã³
Ġagr ad
ĠH u
Ġvic toria
b ra
ĠE lec
Ġverda dera
Ġmec an
Ġcam a
Ġhub o
Ġde porte
Ġofer tas
Ġdeb es
IC A
Ġingres os
Ġloc alidad
Ġpol icÃŃa
Ġpermit en
Ġvuel ve
ĠV ir
Ġraz ones
ar le
Ġopera ciones
ĠC ivil
ĠT ri
ÃŃ guez
Ġparticip antes
Ġsi quiera
Ġten ÃŃan
ĠR om
f re
ĠÃ¡r bol
) :
Ġn omb
V A
Ġh ar
ĠN orte
l en
Ġde p
Ġe quilib
Ġcomer ciales
Ġleg al
i anos
Ġdes af
Ġis la
in ados
Ġfuncion a
Ã¡n d
it Ã©
ĠAdminist raciÃ³n
Ġdes per
Ġte j
Ġna cionales
dr ÃŃguez
Ġfac tores
r ales
Ġcomun idades
Ġde trÃ¡s
ĠD u
e Ã±
te m
ĠperÃŃo do
Ġpar ecer
Ġcons ol
d ust
ĠOr gan
Ġrecor rido
Ġtras lad
Ġgas tos
Ġpro bar
Ġru ta
Ġaum entar
Ġelec ciÃ³n
Ġllev Ã³
v era
Ġap er
Ġcoment ario
Ġj am
Ġcorrespon diente
Ġd ul
ĠB al
Ġtien das
Ġsor pres
Ġarti stas
C O
me tro
Ġco o
Ġcomp os
ec a
Ġsens aciÃ³n
i aciÃ³n
l ÃŃ
ĠM ac
Ġinform Ã³
) ;
E T
iv amente
Ġcomer ci
ĠN i
Ġmunicip al
L A
ĠN O
Ġa us
Ġcomien za
Ġur b
Ġf ase
ra z
ĠT ele
is iones
ar me
ide z
o que
h ib
Ġson ido
Ġcomer cio
ĠPre m
Ġs es
Ġ ital
quil la
Ġprop uestas
Ġesp ÃŃritu
Ġfal le
Ġincluy endo
id ar
Ġhay an
Ġdi vi
ĠSe gÃºn
ĠrÃ© gimen
T ras
Ġconsul ta
Ġnoti cia
Ġconstru ir
Ġcondi ciÃ³n
p r
it arios
Ġneces it
ĠpÃºbl icas
Ġcor to
w n
Ġp iso
Ġofrec en
Â ª
ti go
Ġinten s
g amos
Ġest Ã©n
Ġencontra mos
k ing
Ġf ar
in ta
ĠJust icia
ier ta
Ã©n dose
Ã¡n ica
ĠEs pe
ĠServ icio
rib uy
Ġreco g
Ġal ma
Ġpue blos
g ados
ĠT ras
Ġexper tos
er al
Ġman da
tal ia
Ġrev ista
Ġcumpl imiento
Ġexpres iÃ³n
ĠcÃ³ digo
Ġdi m
Ġviv e
olÃ³g icos
Ġpres entes
Ġaproxim adamente
ti ma
Ġr ÃŃo
Ġp ic
Ġata que
Ġiden tidad
4 5
am ento
or e
ven ir
Ġforma to
Ġh al
st ru
ĠP uerto
Ġherm ano
ien das
C h
Ã¡n chez
Ġman tiene
Ġdis par
Ġj untos
ĠF el
Ġmar c
u Ã±a
ĠP P
ĠRo drÃŃguez
ĠPro vin
Ã¡ lez
graf ÃŃas
Ġreconoci miento
Ġinf lu
Ġa st
en es
A hora
Ġtar ea
u dos
ar ial
Ġe c
ad io
Ġtermin ar
ĠP Ãºbl
Ġpi es
Ġen em
au gu
d s
c rib
Ã©n do
Ġgaranti zar
Ġcar ne
ĠPer son
ĠCrist o
Ġentrev ista
Ġdist ribuciÃ³n
ĠIn f
ra el
Ġdel ante
Ġind ica
Ġdecl ara
Ġplan es
Ġdisposi tivos
u de
ĠtÃ©rmin o
ĠÃģn gel
Ġt ren
Ġb omb
ĠU r
ĠJ orge
I M
Ġn utri
Ġrit mo
C A
de ras
Ġin augu
i ri
in t
Ġhistor ias
Ġac os
ĠmÃ© todo
Ġac tos
Ġarti sta
Ġhab itantes
Ġden unci
ti sta
Ġcan ciÃ³n
Ġdescub rir
Ġcons ec
Ġfem en
Ġc ielo
Ġadul tos
Ġin tenciÃ³n
Ġfon dos
p ens
u p
Ġpri or
Ġgust arÃŃa
ĀĀĀĀ ĀĀĀĀ
Ġoportun idades
ĠvÃŃcti mas
Ġr um
Ġdu ro
Ġele v
ĠPor que
ĠPro fes
ra estruc
Ġrecuer do
A unque
Ġrelacion ados
Ġconver tido
is la
ÃŃ gen
Ġil um
Ġsil en
Ġi gu
En tre
ĠM il
Ġexplic Ã³
Ġconte xto
P A
ar los
Ġobje tos
ĠJ un
Ġdej ado
es tre
Ġsur g
to dos
Ġemple ados
cion amiento
ĠP l
Ġocur re
Ġpriv ado
Ġalo j
Ġreci bido
Ġcur sos
Ġdeb ate
Ġmiemb ro
ĠprÃ³x ima
Ġc rim
Ġpar que
Ġcos to
tr ado
gen cias
fici encia
ez ol
Ġmir ada
ĠEsc uela
ĠRe d
ĠAl gun
ĠrÃ¡p ida
Ġpreo cu
Ġg ar
Ġen ter
Ġli ter
ol uc
Ġser es
Ġre mo
Ġglo bal
ac as
Ġpas ando
Ġc aja
Ġofici na
tera tura
Ġtarje ta
Ġju icio
Ġust edes
ĠS ec
Ġ4 5
Ġoblig a
Ġesc ena
ĠS Ã¡nchez
Ġconex iÃ³n
ĠO n
uc ÃŃa
ĠFern ando
Ġpers pec
Ġpoten cial
Ġsir ve
Ġar mas
Ġcir cul
Ġde bajo
Ġper iÃ³
2 1
ĠGonz Ã¡lez
lan o
olu cion
ĠDE L
es tas
de os
Ġinter venciÃ³n
Ġcre ado
ÃŃ z
Ġenl ace
Ġconci encia
G ra
ĠSe villa
Ġ200 7
Ġ5 00
ĠS il
ti cias
yec to
Ã¡m ica
Ġter reno
ĠAle mania
Ġac re
Ġcol ombi
Â «
Ġdirec ta
. )
Ġade lan
* *
Ġtamb ien
ĠA z
ti mos
ĠServ icios
Ġform ul
Ġdetal le
Ġcon tras
ĠT V
ĠespaÃ± oles
Ġdisposi tivo
i pe
Ġpaci ente
ĠLe Ã³n
Ġinstitu ciÃ³n
e Ã±a
Ġprac tic
Ġ @
Ġ rol
ber to
Ġda Ã±o
Ġdist ribu
Ġpri ma
Ġil ust
ti ble
ulta des
Ġpubl icidad
Ġreno v
Ġpe le
Ġp uso
us iones
ĠDav id
Ġestadouniden se
Ġvolun tad
Ġb io
x o
r adas
Ġ Ð
Ġimp orta
ĠIn cl
Ġcon tiene
Ġpa t
am entos
Ġmez cla
t ÃŃculo
Ġconf irm
Ġten dencia
ww w
Ġt ÃŃp
V I
Ġl eche
r ores
ĠcrÃ©di to
Ġmus ical
Ġlimp ieza
ĠComun idad
Ġro jo
Ġpas ada
Ġ19 6
Ġespec ta
Ġproteg er
Ġa se
Ġv oc
Ġley endo
ut bol
or ios
Ġprop Ã³sito
Ġneces aria
a a
Ġca dena
Ġcon den
ran o
ĠS am
Ġcer tific
Ġelim inar
Ġp endi
Ġsab or
ĠP en
Ġrecl am
Ġley es
Ġquiz Ã¡s
Ġg ama
Ġpre f
a de
Ġex am
er do
Ġpas e
B A
ĠhistÃ³r ico
Ġb i
ĠJ unta
ti das
ue los
ĠDe por
Ġcon voca
ĠL uego
Ġale gr
2 7
ĠA quÃŃ
cia ciones
Ġl Ã³g
Ġbre ve
Ġvol umen
Ġresist encia
indo ws
Ġco ti
ien es
c Ã³n
Ġmen cion
Ġsu pon
Ġven der
Ġsab en
Ġprecis amente
as h
Ġcier re
ĠS em
Ġ =
Ġherman os
Ġd ro
Ġtar eas
Ġpro ducir
Ġc Ã¡l
Ġleg isl
Ġimpres ion
Ġcan al
Ġref orma
Ġest ren
Ġllev an
Ġorgan ismo
esti ones
Ġsu ma
el la
ĠO ri
Ġque dan
m isiÃ³n
Ġv emos
Ġpos e
Ġmens ajes
qu inas
Ġproce dimiento
Ġcic lo
Ġpo cas
Ġa gres
ular es
ĠP on
Ġtor no
ĠfÃŃs ico
ĠPar tido
Ġrecon ocer
Ġinte gra
2 6
r arse
Ġhtt p
Ġde partamento
w e
ĠmÃºlti ples
Ġampl io
Ã©r cito
Ġb ici
Ġcl ÃŃn
Ġpromo ciÃ³n
Ġac udi
ĠAn dal
Ġfor o
Ġcre e
Ġsi ento
t adores
erop uerto
ti mo
L E
Ġpues tos
Ġbenefici o
gra m
ĠF or
it ada
Ġb os
le y
Ġhabitu al
Ġrequis itos
Ġsuel en
lec ciÃ³n
Ġpresent ado
j al
ĠBan co
Ġh ospital
Ġex pe
Ġhac emos
Ġev oluciÃ³n
ĠT al
Ġperman ente
ĠV illa
Ġcier ta
3 3
EN T
Ġv ul
os os
ĠÃº til
Ġper dido
Ġlengu aje
Des puÃ©s
Ġi glesia
Ġh ier
uch a
Ġhon or
ĠM Ã¡
Ġfrecu encia
Ġdu raciÃ³n
ĠD urante
I F
Ġespec tÃ¡
Ġasegu rÃ³
de dores
Ġneces arios
Ġar reg
Ġde pendi
Ġn ombres
ĠL in
tien de
Ġre duci
Ġreci ente
Ġdesc rib
Ã© rez
% .
duc e
qu ia
ĠA na
Ġagu as
g adas
tam ientos
Ġinfer ior
Ã³lo go
Ġvia jes
Ġpl acer
Ġcontro lar
Ġmov imientos
Ġcl ima
Ġar ran
Ġref iere
Ġperfec ta
Ġpoten cia
iz ada
âĢĻ ,
Ġw ww
Ġm ig
un g
Ġencontr ado
ĠC ultura
Ġem erg
Ġrealiz aciÃ³n
Ġmo tiv
Ġg l
Ġqu is
ĠrÃ¡p idamente
Ġcons iste
i i
Ġv endi
tÃ© g
Ġtendr Ã¡n
Ġt era
Ġconoci da
ĠT ierra
in ada
Ġplan eta
Ġalim entaciÃ³n
ÃŃ c
z z
Ġsi mp
Ġpens amiento
eci Ã³
pi raciÃ³n
ĠcÃ¡n cer
Ġresta urante
ues tros
Ġsegun dos
Ġch icos
ĠS istema
Ġaplic ar
Ġentre gar
Ġcon curso
Ġrecuer da
Ġsolici tud
M ar
ci les
Ġasist encia
Ġform ar
Ġmis iÃ³n
ĠG re
Ġactu aciÃ³n
Ġsub ir
Ġtecn ologÃŃas
2 8
Ġro b
ĠInv esti
h at
C E
ĠMunicip al
Ġinte lec
P re
Ġtan tos
3 5
Ġac aba
ĠEs p
201 8
Ġases or
amble a
Ġsu minist
Ġreci biÃ³
Ġcom pa
qu en
Ġasegu ra
ĠT ribunal
t ing
Ġpro du
Ġgu ÃŃa
M i
ĠRus ia
Ġinf antil
Ġcu entan
Ġas c
Ġprome dio
Ġsu ave
Ġefec tu
pi ra
Ġlen gua
jer on
P S
ĠT ecn
Ġas unto
Ġreserv a
y s
Ġop tim
Ġde jo
Ġb ri
Ġpresent Ã³
Ġimp lic
rim iento
Ġdomici lio
? ,
m m
Ġv aya
Ġfran cÃ©s
] âĢĭ
Ġv io
Ġpro tes
Ġcomport amiento
Ġconcre to
ĠG er
Ġhabl ando
Ġdi eron
Ġalcan ce
gu ar
Ãº car
ĠÃī l
Ġll en
Ġll eno
ĠH ar
s en
ĠV I
Ġaudi o
Ġelem ento
Ġneces itan
Ġh os
Ġfen Ã³m
Ġam ist
Ġries gos
Ġexp an
Ġpor ta
Ġme dic
es ÃŃa
vi mos
Ġg ana
Ġcontac tos
Ġalcal de
dic e
Ġval e
ĠS ala
ĠH ol
Ġconsec uencias
2 9
Ġcl ara
Ġbeb Ã©
Ġespos a
Ġer rores
Ġca fÃ©
Ġ3 6
ĠEst as
Ġag entes
Ġindustri al
ru guay
p in
er aciÃ³n
v iera
Ġ3 00
Ġsu ces
Ġco cin
Ġadecu ado
D O
ci r
Ġpor cent
Ġesp al
Ġcontinu ar
Ġsolici tar
Ġau tores
Ġasegu rar
ĠDer echo
Ġex pec
Ġcer can
uev e
Ġsab es
Ġf om
Ġverda dero
Ġpro gres
ol ina
Ġutiliz ando
on do
ĠP RO
Ġni Ã±a
Ġrepresent antes
Ġf lor
ĠR u
ĠS ub
ĠEurope a
Ġpreten de
ĠP Ã©rez
Ġtrabaj a
Ġal co
ĠS te
ĠIn dust
le t
ĠPla za
Ġrespon der
ĠprÃ³x imos
Ġevalu aciÃ³n
Ġch ico
Ġdes en
in i
Ġinf ec
Ġmen udo
ĠZ apa
Ġafir ma
Ġgratu ita
ÃŃs ima
ĠB as
Ġf lo
Ġconflic to
Ġinv oluc
Ġdescon oci
Ġconse jos
Ġpu tas
ĠPue de
Ã ĳ
Ġb ru
Ġperfec tamente
Ġmer cados
Ġpa que
Ġcon tes
ĠCo pa
ro id
Ġantigu o
Ġrespons ables
Ġp ilo
tu ales
Ġconvier te
Ġam eric
r ÃŃ
Ġmo tivos
iver so
ĠO N
M uch
ar ra
eci do
Ġv it
Ġe tique
ĠA gu
Ġimp or
ces a
Ġsencil la
ĠP ri
Ġutiliz ado
ÃŃst icos
ĠT witter
Ġacci dente
tr ic
R ec
ĠA L
Ġca er
Ġestable ce
Ġven ezol
' ,
Ġabier ta
Ġdest ru
R ES
Ġpro te
Ġes con
Ġserv ir
Ġfoto grafÃŃa
ruc ciones
% ,
Ġqu ÃŃm
Ġre m
s al
ĠDe partamento
ĠA mb
do ba
uev a
Ġpues ta
Ġfuer tes
Ġcarre tera
t om
Ġne g
Ġh uel
Ġinf raestruc
t ones
Ġde cÃŃa
Ġdes n
an e
Ġejec uciÃ³n
ĠC orte
Ġdocu ment
Ġdeber Ã¡n
ĠA D
n i
Ġenv ÃŃo
Ġarch ivos
Ġab ra
Ġextra ord
Ġcal iente
Ġub icado
Ġ )
ĠT om
ic ales
9 0
ri da
b um
Ġt ier
Ġcomun es
Ġautor idad
Ġconv oc
Ġso porte
Ġaut Ã©n
ĠmÃ¡ quina
Ġincluy en
Ġpe ti
Ġhi po
ĠV ol
ĠCent ral
ĠSecre tarÃŃa
tiz aciÃ³n
ĠJav ier
Ġac lar
Ġl ist
Ġal ar
ĠA st
Ġdis cipl
Ġcab al
Gra cias
Ġpropor cion
ab ora
Ġceleb raciÃ³n
Ġf lex
Ġprotagon ista
Ġhacer se
Ġqued ado
Ġcar b
Ġpelig ro
Ġo posiciÃ³n
e la
Ġtrans par
h or
ĠmÃ© dicos
Ġve in
ĠM at
Ġmi ra
ort s
es per
ĠJo hn
Ġmas a
Ġaper tura
bi os
ad ura
ĠT Ã©cn
Ġdef ens
af a
ĠPro duc
Ġac titud
r ue
Ġcam p
Ġar tic
Ġhab ilidades
ri eron
Ġb u
ĠincreÃŃ ble
ĠTra bajo
i j
Ġf ich
Ġanim al
Ġg er
l in
ĠestÃ¡n dar
Ġactu ales
Ġexp lor
ti eron
pen dencia
u almente
que z
ĠC ul
Ġfan tas
gr ado
ĠnÃºm eros
H ace
am Ã©rica
ĠC ur
Ġto que
Ġad j
Ġâ Ĥ¬
ĠL iga
Ġllev ado
Ġg estion
ĠD eb
Ġpos terior
Ġpens ando
Ġen amor
h ol
Ġv ienen
Ġv iendo
Ġest aciÃ³n
AR A
Ġres ca
Ġpin tura
te o
D is
Ã± ar
Ġin gre
ĠD ist
Ġdes ea
Ġ ..
Ġestrel las
ĠtÃ©cn icos
Ġimp on
Ġmar keting
Ġn erv
genier ÃŃa
gu en
ĠMartÃŃn ez
ok ies
ĠM ientras
Ġv istas
as o
il os
Ã³ stico
- ,
il le
Ġper ro
ion ales
ĠG a
ĠÃºn icamente
ti stas
ris a
ĠR E
Ġfuncion arios
Ġagrad able
ĠD r
Ġaut on
Ġ200 6
P ue
l ando
Ġenvi ar
ĠsÃŃn t
Ġter ra
ĠP ues
ĠF uer
ĠdÃ©c ada
Ġdefini tiva
Ġde leg
Ã¡b amos
Ġte atro
Ġemp ieza
Ġda Ã±os
aj o
7 0
Ã¡ bi
3 6
oso fÃŃa
ĠS en
ĠCos ta
Ġub icaciÃ³n
r ente
ĠG uerra
Ġrecib e
ig na
Ġindependi ente
Ġreci Ã©n
ĠFern Ã¡ndez
ub e
Ġapar tado
Ġcomun icado
Ġre ca
ĠC Ã¡mara
Ġbus can
Ġes encial
Ġins pir
Ġf utbol
Ġbas es
Ġsecre tario
Ġaum ent
ĠI talia
ĠC la
ĠSan to
Ġha go
ĠF orm
en das
Ġc ruz
Ġcont am
v os
Ġaquel lo
ĠprÃ¡c ticamente
grÃ¡ fica
Ġre lo
di mientos
Ġprem ios
Ġv idas
Ġcab ello
Ġsu p
l ada
Ġmo d
z on
Ġll ena
Ġf lores
Ġlu jo
ĠEj ecu
um b
Ġimp lica
Ġpriv ada
h am
capa cidad
or ar
Ġi gn
ĠD ic
Ġcompren der
olÃ³g icas
Ġcons ist
ent ro
ĠFe deral
ĠP D
ĠT ar
Â ´
Ġdej ando
Ġfi estas
Ġanunci Ã³
ter n
Ġsab ÃŃa
Ġdeci diÃ³
y endo
ĠJ ulio
Ġcam is
ĠmÃ³vil es
Ġv es
ad Ã¡
Ġinici al
af as
Ġcont ribu
Ġcu Ã¡n
Ġindic Ã³
v io
Ġcos ta
Ġdi eta
Ġdepen de
Ġarch ivo
ĠDe f
Ġref orm
Ġprofes ores
du ras
ĠA udi
ic ultura
Ġch oc
Ġjue z
Ġma trimonio
Ġadecu ada
ala cio
ĠMus eo
Ġca ÃŃda
Ġro bo
m es
Ġfr ÃŃo
Ġa go
Ġsim ilares
ĠConstitu ciÃ³n
Ġcre er
Ġofici ales
Ġcon cur
ĠGu ar
Ġsu fici
Ġap ort
S o
Ġh uev
Ġaf irmÃ³
Ġc Ã©l
Ġr in
americ ana
Ġmo vil
Ġrecu peraciÃ³n
Ġgob ier
ĠW indows
Ã¡ stico
Ġ ðŁ
Ġesper anza
Ġcap aces
ĠeconÃ³m icos
Ġvia jar
t ÃŃ
Ġllam ar
ĠH ern
Ġtu rismo
A B
Ġmane jo
Ġmez cl
Ġestable cido
Ġc uel
and ro
Ġacon te
I B
mar t
ĠS ab
Ġcos tos
Ġestrateg ias
ig os
Ġso por
to l
P er
Ġfacil itar
ĠC iencias
ĠA ma
c ciÃ³n
ĠfÃ¡cil mente
u ma
Ġrepresent aciÃ³n
Ġtrad iciÃ³n
Ġvis itas
Ġorg ul
D E
Ġja pon
Ġempez Ã³
. "
Ġper ci
t Ãºa
Ġcomien zo
Ġintegr al
Ġros tro
Ġindivid ual
Ġdestac ar
Ġdes ay
P ar
Ġt ono
Ġimp ar
Ġa bre
Ġas ign
5 5
Ġlogr Ã³
tes is
Ġbri tÃ¡n
or as
Ġcircunst ancias
f icos
Ġg eo
ĠtrÃ¡ fico
Ġrecuper ar
Ġpue das
ĠaÃ±ad ir
Ġi leg
Ġaz Ãºcar
Ġcandida to
Ġinnov aciÃ³n
ĠHo tel
Ġderi v
Ġgener ales
Ġac u
Ġpes e
Ġsi ente
Ġconf ir
ĠPro grama
ĠMun do
Ġpos ee
Ġcu idad
Ġpis cina
Ġur g
ÃŃf icas
Ġceleb rar
Ġreg alo
ĠT ur
Ġcu ch
am i
ĠS olo
ap Ã³n
Ġneces arias
Ġestudi ar
Ġalquil er
tu des
Ġvent aja
Ġprob ablemente
Ġre ales
5 00
Ġcomp ut
ĠA ctu
Ġgen ial
o p
Ġespeci es
Ġju z
ĠRe ino
Ġban co
z ca
d remos
Ġelec toral
Ġte orÃŃa
Ġap ara
Ġb iblio
Ġcomp ras
Ġde uda
Ġpropie dades
Ġneces itas
Ġpar ecÃŃa
Ġpl eno
Ġrece ta
Ġadqui rir
Ġcaus as
Ġto car
Ġsal iÃ³
ĠSal v
ĠT iene
ĠT rump
lan d
id u
Ġcon oz
ĠÃ¡ l
Ġconsul tar
Ġus a
Ġpie za
T U
Ġgaran tÃŃa
Ġtu vieron
!! !!
Ġquer ido
Ġl ide
Ġllu via
Ġdispon e
Ġg uer
Ġal tos
ĠC Ã³r
ĠF il
Ġen ga
Ġt asa
Ġan s
Ġcu Ã¡l
Ġdis curso
Ġrecur so
Ġtorn eo
u alidad
ĠA N
Ġnuev amente
Ġsitu ado
ĠM en
ĠFis cal
Ġad mi
Ġestra tÃ©g
di mos
Ġdifer encias
ĠEn tonces
ĠH ospital
Ġfun cional
d ados
ĠF lor
Ġco p
D A
Ġcomple jo
ĠO c
Ġinclu ir
Ġdi je
Ġraz on
ĠJ ul
II I
Ġcir cu
Ġfras es
Ġreg ul
ĠPar que
Ã³r m
Ġpresent an
to logÃŃa
Ġni Ã±as
Ġutiliz an
ã ģ
Ġescri biÃ³
Ġconvertir se
ĠA C
Ġentren amiento
Ġan alizar
inar ias
Ġest ados
ĠC at
Ġac tores
Ġm m
dr ÃŃa
ĠF re
Ġviv en
Ġdis puesto
Ġcorrespon de
Ġlle gan
Ġdemoc racia
Ġcr ÃŃtica
ĠcompaÃ± ÃŃas
Ġi P
Ġp ene
Ġnuev e
U C
ĠMe dio
b el
Ġcon ta
h abil
ĠC Ã¡
Ġres pal
o ta
ID AD
Ġjam Ã¡s
Ġli teratura
Ġac tor
Ġtritur adora
Ġre ducciÃ³n
is os
I V
u ir
r icaciÃ³n
Ð ¾
tura ciÃ³n
Ġdel an
Ġso cio
9 5
Ġf echas
ar t
ond res
d y
Ġpuer to
Q U
Ġens ay
an t
qu ÃŃa
Ġsal vo
Ġexpec ta
Ġesper ando
Ġdi os
e v
Ġcul turales
Ġtan tas
ĠIn formaciÃ³n
Ġinme di
or Ã¡n
T ER
Ġdestac a
ĠenseÃ± anza
Ġalegr ÃŃa
ĠSoci edad
l on
Ġperson alidad
mi go
Ġinv ierno
Ġre to
Ġtex tos
ste d
Ġrealiz an
ĠLa tina
Ġcier tos
Ġv iento
Ġzapa tos
Ġcon qu
Ġdetermin ar
S S
Ġc Ã¡
Ġ200 0
Ġsent encia
ĠseÃ± ala
Ġcuad ro
Ġ3 2
Ġa ma
ĠlÃŃ qu
Ġt ribu
americ ano
ĠE d
Ġmal o
ĠR ÃŃo
ĠG ab
ĠAn dr
Ġex por
ĠNo ticias
Ġdeclar aciÃ³n
ĠA M
Ġanti gua
H a
Ġh Ã¡bi
Ġevi dente
Ã ł
G O
3 4
in ter
Ġpopular es
. [
Ġpan tal
ĠMa g
Ġsal Ã³n
ĠFe deraciÃ³n
Ġdef ender
ĠComer cio
âĢ¦ .
Ġacre di
tr al
Ġmo to
Ġinver tir
Ġorden ador
h an
ĠG e
f as
Ġesc uelas
Ã¡ndo le
Ġrealiz ada
rist as
Ġfoto grafÃŃas
Ġg ir
N os
Ġa j
Ġcu rios
Ġd ur
ri dos
Ġdomin io
Ġminu to
it h
ion ar
ib er
ĠP Ãºblica
Ġac el
Ġh ice
Ġcor rer
if e
mit es
Ġman ual
ĠPar ÃŃs
Ġsorpres a
Ġreci entemente
Ġapar ecen
Ġactu ar
Ġtar if
m enta
Ġra to
Ġacep tar
To do
Ġap os
Est o
ĠNuev o
Ġdesarrol lado
ara go
Ġsuper ar
Ġrecor d
L O
Ġentr adas
g ador
Ġprostitu tas
Ġf ib
mar as
Ġpelig ros
m al
Ġanun cios
ĠB ur
ĠD ec
Ġg r
Ġcompon entes
den tal
p p
ĠD iv
r arÃ¡
ĠT ea
Ġac tivos
Ġsilen cio
Ġquier a
ĠclÃ¡s ico
ĠR afa
ĠdiÃ¡ logo
f rica
ier en
Ġac or
Ġcor rupciÃ³n
ecre to
Ġres puestas
vent ud
it ando
la ga
ĠJ er
Ġa leg
Ġincre mento
Ġimp uestos
Ġcu estion
ĠAnd roid
Ã¡n ico
Ġescol ar
Ġvol viÃ³
un da
Ġh orm
ĠBol iv
ill er
I P
Ġep iso
Ġdeci dido
g ando
ĠU no
Ġinter ac
? .
Ġcorri ente
ter s
Ġch il
Ġp ide
Ġsegu ros
Ġpermitir Ã¡
en aje
Ġfin alidad
Ġs ho
To dos
Ġperiodi sta
Ġac cion
Ġadi cional
ĠEst Ã¡
Ġcu esta
Ġres al
Ġcereb ro
u x
Ġutiliz aciÃ³n
Ġt ÃŃtulos
Ġas ociaciÃ³n
Ġmo ver
ĠM ur
un dar
Ġvent ajas
Ġfras e
Ġvis itantes
Ġalterna tiva
Ġc erv
ist en
Ġaten der
Ġconsegu ido
Ġme ter
iz on
Ġg ig
Ġan ual
ĠAndal ucÃŃa
Ġperspec tiva
Ġj udicial
Ġtaller es
Ġcu estiones
t Ãº
e go
ĠR ic
Ġhum or
Ġs Ã³l
ĠVal le
Ġal m
ĠP C
ĠG estiÃ³n
Ġh el
Ġbaj ar
Ġrestau rantes
ez ca
Ġinflu encia
la ciones
Ġj e
ĠNe w
Ġviv iendas
ĠPla ta
Ġpar ecen
M a
ik e
ĠC Ã³
C o
Ġparti da
Ġdorm itor
ĠF estival
t res
Ġd or
ent en
Ġhuman idad
Ġdis pu
Ġunivers idad
ĠHist oria
Ġinteres antes
Ġad v
P ues
ĠE ra
Ġlo gra
s ar
ĠC OM
Ã³n ico
Ġexplic ar
Ġco legio
ĠDer echos
Ġcan tante
Ġpro to
Ġcos te
Ġvul ner
Ġintelig encia
Ġdoc tor
Ġcont ribuy
z ando
Ġdecor aciÃ³n
Ġint ento
Ġreg las
Ġconv iv
w a
Ġacer car
Ġtradi cionales
ific ados
ĠmÃ© todos
Ġaut Ã³n
am bre
Ġbol sa
Ġcoti di
Ġcu ento
Ġg ira
Ġplan o
Ġhor ario
Ġpudi era
am es
Ġba talla
Ġacab ar
Ġ3 4
com un
Ġpri va
r aron
Ġus ando
Ġe mi
Ġsu ger
Ġconf orme
ort un
Ġaf i
Ġpro pon
p ul
j era
ĠdÃ©c adas
Ġcam pos
Ġparticular es
cin di
Ġdeclara ciones
Ġlanz amiento
C ar
b res
Ġrelacion adas
Ġna cimiento
Ġsent imientos
Ġde cre
Ġtele f
Ġopin iones
Ġbienes tar
ĠEn cuent
Ġvig il
Ġefec tivo
aliz adas
ĠA ust
u bl
Ġre pu
Ġofrece mos
Ġnego ci
Ġesc ala
g or
Ġcier tas
Ġv ay
ĠAp ren
Ġv Ã¡l
aj aj
e di
Ġref ug
ez as
Ġcar i
Ġdel ito
y en
ĠlÃŃ deres
ĠCÃ³r doba
Ġa tre
Ġprepar aciÃ³n
7 5
Ġsos p
iz ados
oc k
Ġd arÃ¡
Ġconsider ar
x il
ĠPa z
Ġindi s
Ġr ent
Ġterc eros
Ġso le
ĠAle j
Ġorganiz ado
ĠG ol
d om
Ã¡ les
st er
Ġpromo ver
Ġargent ino
Ġesfuer zos
Ġpre venciÃ³n
Ġ3 3
b os
ĠL ondres
Ġmer can
ĠPrem io
ĠSe gun
am an
Ġedifici os
Ġcomb inaciÃ³n
Ġdescan so
Ġra p
i ada
Ġescri tor
ĠÃ¡l bum
Ġtra yec
Ġso f
Ġdis cu
ĠcompaÃ± ero
ĠS Ã³lo
Ġdirig ido
ĠE r
Ġfra cas
Ġform an
Ġm uebles
Ġprev ia
i jo
Ġceleb ra
Ġb r
ĠLa tino
Ġlogr ado
Ġsegu imiento
ci das
Ġapar tam
Ġjard ÃŃn
ig ht
grÃ¡ fico
ĠPro tecciÃ³n
Ġca tÃ¡
Ġamig a
der ÃŃa
Ġa ver
T R
ter rÃ¡n
ĠI b
at amente
Ġna ciÃ³
Ġ200 5
CI A
Ġpen al
ĠsÃŃnt omas
Ġal er
o t
Ġper ros
in ando
ĠC O
Ġprob able
c ra
ĠS ÃŃ
Ġre tro
Ġdific ultades
ĠH asta
ari amente
Ġacos tumb
Ġdes ign
Ġde fec
s er
Ġcor por
Ġefica z
Ġho jas
Ġinici ar
Ġaprovech ar
Ġb ro
Ġvie jo
Ġac ero
Ġal tas
ĠIn g
Ġv osotros
Ð °
Ã³ d
Ġcol um
Ġdescu ento
Ġmir ar
Ã© ut
Ġestar Ã¡n
Ġvesti do
os as
ĠGu ad
Ġtu ve
Ġar re
Ġmaes tro
arago za
fer encias
Ġpas iÃ³n
Ġpos teriormente
Ġejerci cios
Ġdesp laz
Ġencontra ba
Ġ id
ĠDan iel
Ġcer rar
Ġgan ado
ÃŃ na
Ġcre cer
Ġin greso
Ġ ;
ĠEn rique
Ġconci erto
Ġso cios
ep res
Ġgu itar
ĠD ig
Ġsuce de
Ġingre dientes
Ġestable cimiento
Ġf l
Ġimpres iÃ³n
id aciÃ³n
Ġpl ena
Ġcorrec to
Ġprev isto
Ġb es
Ġar ena
Ġconcep tos
us os
Ġquiz Ã¡
Ġdia gn
Ġdi ciendo
oo d
or io
Ġf ren
ĠG as
on al
Ġposi tivo
ĠEspaÃ± ola
Ã³m ico
Ġreg ional
Ġh in
Ġ15 0
ĠIs rael
ĠPu bl
Ġdeb a
ĠD ecreto
Ġpo ca
cri to
Ġmues tran
Ġas o
Ġc Ã¡r
Ġsegura mente
Ġinf in
Ġfac tor
ĠDirec tor
Ġl um
Ġme tal
Ð µ
as ti
Ġcompro bar
Ġobserv ar
Ġblan ca
Ġest rech
il lar
Ã© ro
Ġinclu ido
Ġcap ÃŃtulo
p la
AD O
ĠM is
gu es
Ġsobre viv
ĠL or
Ġa pa
cam bio
Ġhu bi
Ġpa de
Ġma pa
4 8
Ġsex uales
Ġconvoca toria
ivers ario
Ġafec ta
Ġ4 8
Ġdes ac
I EN
Ġapar ecer
Ġdemos trar
ĠOr den
dem ia
ĠCatal uÃ±a
Ġentre ten
S on
en ciales
Ġman ip
ĠA R
ĠJ apÃ³n
ĠespectÃ¡ culo
Ġper u
Ġcorrec ta
ĠA P
Ġcor ta
Ġdorm ir
Ġesta tal
o x
Ã³m ica
l Ã³
Ġt ec
ĠD os
c ada
Ġter mina
qu ie
ĠlÃŃ mites
u a
f icas
Â ®
Ġanun cio
u aciÃ³n
Ġherm ana
Ġprepar ar
Ġan teriormente
Ġpri vi
ĠD oc
ios os
Ġestrel la
Ġpol ici
i que
Ġdemoc r
Ġenf oc
Ġpres tig
Ġimp ac
Ġsue Ã±os
Ġho teles
ĠCom itÃ©
ĠN Âº
Ġrealiz arÃ¡
i anza
a que
l d
3 9
s in
d icas
Ġgras a
qui to
x x
der Ã¡
Ġden uncia
Ġconvir tiÃ³
Ġcap it
Ġtrans por
I G
e y
Ġgust an
Ġporcent aje
Ġavent ura
Ġfi j
ĠM ir
Ġcom isiÃ³n
Ġle tras
Ġg or
Ġp echo
Ġgas tron
Ġc ruc
Ġdibu jos
Ġmuer to
ĠAp ple
Ġcolec tivo
ĠCas tilla
Ġ19 5
Ġdif un
ĠA ca
3 8
Ġmuer tos
Ġsuje to
Ġelabor aciÃ³n
s ion
Ġpareci do
Ġhom enaje
Ġc ientos
Ġdi ri
l ÃŃn
ĠvÃŃcti ma
Ġdise Ã±os
SO E
Ġg rad
Ġlib res
ĠM os
y n
ĠSalv ador
b ur
ĠM ed
Ġclar amente
g et
Ġest ancia
ab el
Ġac tivo
Ġselec cion
Ġidi oma
Ġemo ciones
Ġimp ul
Ġtan ta
ne y
Ġinmedia to
dr Ã¡n
Ġc itas
ĠI II
ĠAr m
Ġcerc ano
Ġa eropuerto
Ġmunicip ios
Ġempres arial
ter al
ĠEjecu tivo
Ġag encia
me di
hi bi
Ġamist ad
Ġpo t
Ġnov ia
Ġtriun fo
ĠD iego
cu ra
ĠV ide
Ġco okies
ĠNav idad
ĠPa ÃŃs
Ġintegra ciÃ³n
ĠS iempre
Ġofici nas
Ġeleg ido
Ġcub rir
Ġdestac Ã³
tor nos
Ġac tiva
ĠM es
Ġco ber
er io
as te
Ġel ig
Ġlec tor
Ġpartici pa
Ġbon ito
ĠPol ÃŃtica
Ġigual dad
ĠC lar
Ġpa trimonio
Ġcorrespon dientes
Ġllegar on
ĠI l
Ġhab il
Ġ3 8
h one
Ġvo tos
Ġm ental
Ġexac tamente
Ġinvestig adores
Ġmor al
ci ta
Ġ ic
Ġespecta cular
Ġbo tÃ³n
ens iones
Ġespal da
Ġes que
cu ador
ĠcÃ©l ulas
Ġtra to
st os
Ġespecial istas
Ġcon migo
ĠSuper ior
ĠR adio
Ġpropor ciona
Ġun iverso
Ġpas an
P E
ist encia
Ġsign ificado
ĠvÃŃ deos
Ġba terÃŃa
Ġco ches
Ġdedic ado
ĠAl berto
ĠAs amblea
Ġfamos o
ĠC reo
ĠIn st
Ġcul pa
Ġtier ras
Ġmilitar es
el os
ing ton
ĠJ e
Ġlab ora
" :
Ġcomb ust
Ġp ista
ĠLe er
ĠP in
Ġdeci dir
ĠPo pular
ic en
3 7
Ġinm ig
ĠV iv
Ġme tro
Ġser io
ĠMo v
ĠeconÃ³m icas
Ġambient al
Ġleg ales
Ġno ches
Ġmas cul
Ġmonta Ã±a
ĠJ uegos
ib e
ter na
Ġfan tÃ¡
Ġcab e
Ġv uelo
Ġcar reras
Ġacces orios
Ġbra zos
ĠA ir
Ġla tino
Ġcuel lo
rag Ã³n
it s
Ġcontin Ãºa
f al
ĠCom p
Ġur ban
Ġpr Ã©st
Ġo jo
Ġpro tec
Ġgobier nos
Ġex ces
ĠIn form
Ġmoder no
ĠsÃŃ mb
Ġver siones
ĠlÃŃ mite
Ġsecre to
ĠfÃ¡ b
Ġpe da
r g
ur ÃŃa
Ġorigin ales
Ġme todo
ĠA ra
ci entes
Ġnove dades
4 7
Ġfinanci era
i ciones
Ġpar ed
ĠNo v
ĠV is
Ġorganiz a
Ġex itos
r Ã©s
Ġeleg ante
I X
ĠTea tro
A c
is p
Ġlic encia
Ġpor tal
Ġconsider ado
Ġnorma tiva
w er
ĠCons ul
Ġsegu idores
ĠX V
ĠL uc
Ġabs or
ĠL oc
ide l
ab ilidades
Ġmexic ano
Ġcateg orÃŃas
Ġrepar aciÃ³n
u re
ĠSo bre
Ġejemp los
Ġacon di
aliz Ã³
Ġaus encia
Ġpare jas
Ġocu pa
Ġle ÃŃdo
Ġidentific ar
tar a
ĠelÃ©ctr ica
posi ciones
Ġaf irm
Ġcon ces
Ġoblig aciÃ³n
ĠM uy
M P
v iendo
Ġhi per
ĠAut Ã³n
Ã¡t icamente
Ġdej an
ĠT el
b erg
an es
ĠAndr Ã©s
Ġimpres cindi
Ġproce dimientos
Ġvent ana
d ri
ter ra
Ġquer er
Ġinterpre taciÃ³n
0 5
Ġcif ra
Ġmer ece
Ġc able
Ġprev io
Ġemo cional
Ġm ac
Ġalim ent
Ġpla tos
Ġri que
Ġfu i
Ġcient ÃŃficos
Ġe ficiencia
ĠB ro
Ġpar cial
ĠS ch
Ġban cos
Ġson risa
ĠC E
ĠN uestra
Ġadolesc entes
ĠÃģ l
Ġdul ce
Ġalco hol
ĠPD F
Ġbas ado
Ġ4 00
Ġtele vis
p Ã³
pres iÃ³n
Ġfel icidad
Ġvo to
Ġinteres a
Ġequilib rio
ĠCÃ³ digo
Ġar ras
Ġfab ricaciÃ³n
Ġref or
Ġbici c
rim ir
ĠM el
ĠP el
ĠA gr
if orn
Ġcan cel
Ġac ord
Ġgas to
Ġre visiÃ³n
Ġcon ferencia
gan os
ci enda
Ġinc endi
Ġven ir
Ġfundam entales
Ġapar iciÃ³n
Ġcriter ios
Ġp unta
S E
cul ares
form as
d ras
Ġinstrum entos
1 00
Ġestudi ante
Ġapro pi
D I
Ġpod remos
Ġsim ul
Ġfel ici
Ġcan ales
Ġpla zas
l Ã³n
i esta
F E
Ġgener almente
Ġconst a
Ġcon tigo
Ã³m ez
ion ado
am Ã¡
Ã¡ndo lo
Ġgan Ã³
T he
Ġningun o
ic s
Ġsegu ido
gen da
Ġpron unci
Ġpla to
Ġten gas
Ġha gan
ĠfenÃ³m eno
S an
Ġre in
ĠF al
Ġbo da
Ġrepresent ante
Ġinfraestruc tura
ong itud
Ġv ib
ĠYo u
ĠUn ido
ĠMÃ¡ laga
Ġperm ita
ti d
Ġin gles
Ġases ina
Ġactu aciones
ĠF amil
ĠAr te
Ġres uel
Ġpa tr
Ġb ras
Ã §
ci Ãĥ
Ġenc ab
Ġopera tivo
Ã© ticos
Ġprepar ado
Ġque de
ar las
ĠUn idad
r Ã©
ĠHum anos
b amos
Ġdich os
ĠH ace
Ġf ues
l ia
Ġinteg rantes
g in
Ġpi diÃ³
Ġpas aj
ĠV ie
Ã± ez
Ġinmedi atamente
Ġj ud
is co
ĠCo legio
Ġpobre za
Ġpan or
ran a
is h
Ġdocu mentaciÃ³n
Ġinvesti gaciones
Ġtrayec toria
un ciÃ³n
Ġt um
Ġtal ento
d omin
Ġprogram aciÃ³n
4 4
ĠH on
ĠM c
Ġl la
Ġimp lan
Ġvig ente
Ġrela j
ri el
ĠF ab
Ġenf oque
un do
Ġdefin iciÃ³n
i mp
ĠLe g
Ġch at
Ġcompeten cias
Ġpon en
Ġgust ado
Ġtrabaj an
Ġarquitec tura
Ġcandida tos
Ġap lica
Ġtesti mon
Ġlleg ue
Ġind ÃŃgen
ven ciones
Ġpublic Ã³
Ġaf il
Ġconsum idores
Ġpol vo
Ġpregun tar
en de
Ġ200 4
Ġllam adas
Ġavan ce
Ġequiv al
M ientras
ĠL es
Ġre cre
ĠAl cal
ĠFac ultad
des a
Ġvuel to
ĠAs imismo
Ġto ca
ĠacompaÃ± ado
Ġcol on
ĠTu rismo
Ġcel ular
Ġser ies
Ġser ia
Ġgratu ito
Ġjug ue
Ġ ?
z ados
Ġad quis
n y
ĠPue des
Ġne gra
Ġp us
mo bil
3 1
ĠF ar
Ġir re
s ic
ĠdiseÃ± ado
O C
Ġre emp
Ġlabor ales
Ġsin g
im nas
Ġd aba
t n
ĠRafa el
Ġvit am
ten cia
Ġm oles
uc le
Ãį A
Ġper f
ĠTra baj
Ġdefin ir
Ġtab la
Ġfil osofÃŃa
ĠDÃŃa z
Ġnumeros os
Ġsu g
S A
Ġac triz
Ġsol ar
Ġcor pora
Ġme t
ĠU ruguay
Ġcar gos
Ġlec tores
ĠL ic
Ġcontemp orÃ¡n
ĠSu pre
b y
ĠAr tes
Ġdirig ida
Ġcar tas
IC O
Ġpris iÃ³n
z adas
Ġalterna tivas
Ġauto b
ra y
Ġro ck
in d
Ġprofun do
Ġocur riÃ³
ĠU su
Ġoc ci
Ġt rim
Ġtendr ÃŃa
Ġdoc entes
Ġsuf rir
Ġpien sa
a Ã±os
um bre
Ġconcent raciÃ³n
Ã³ st
M o
ap ia
Ġten dencias
Ġap uesta
Ġfir me
er ra
ĠS im
Ġtrans formaciÃ³n
Ġse g
r om
Ġtra tamientos
ĠF a
ĠR ub
Ĩ Ĵ
Ġcomplic ado
Ġtermin Ã³
ĠR oma
Ġreun iones
Ġdesarrol la
Ġdeb ÃŃa
ĠP SOE
Ġcontinu a
Ġinvers iones
ĠEcon omÃŃa
ĠB os
ĠĠ ĠĠ
Ġgra ves
Ġbol s
Ġdos is
in adas
as as
te dr
Ġd ra
Ġformul ario
cu a
Ġcuer pos
em or
Ġso ber
Ġhor izon
Ġf Ã³rm
Ġs Ãº
Ġgobern ador
Ġinstal ar
ĠP adre
Ġmunicip ales
3 2
ĠEl la
m Ã¡tica
Ġin quie
Ġpl Ã¡stico
Ġvir tual
Ġl ine
Ġcrist al
Ġagreg Ã³
ĠÃ ļ
Ġpun tu
Ġqu itar
Ġt ol
Ġcontra tos
ĠL ima
Ġpro pone
Ġexpecta tivas
Ġecon om
Ġreg iones
Ġintelec tual
ĠC ir
ter ÃŃas
Ġ7 5
ĠC D
ĠV i
ce dentes
ol ut
ĠJ ef
Ġre ti
ĠCam pe
Ġconoci dos
4 6
Ġp las
ĠA lex
Ġ3 7
Ã³lo gos
ĠbÃ¡s icos
an s
C ada
Ã ¨
ta je
Ġcif ras
ĠOrgan izaciÃ³n
Ġaf ron
ĠDis eÃ±o
ĠE du
ĠhistÃ³r ica
Ġapor tar
er ar
Ġcons igue
ÃŃ mp
Ġm Ã¡g
Ġata ques
Ġad ver
dad or
Ġg oles
Ġesp iri
il aciÃ³n
h ÃŃ
x i
Ġsac ri
Ġac a
ĠMujer es
Ġembara zo
Ġrecom iendo
ar ro
Ġclas ificaciÃ³n
Ġtom ando
Ġprotagon istas
em ent
Ġguar dar
ĠG Ã³mez
roso ft
Ã³ lica
Est os
g ano
c amiento
H e
Ġpre para
Ġab und
ĠTor re
Ġdetermin ado
Ġprofun didad
ĠAlgun os
Ġes cu
Ġenfr entar
Ġale mÃ¡n
Ġses iones
Ġacon se
ĠZ aragoza
Ġfigu ras
Ġro dil
Ġolvid ar
iz aciones
Ġmon o
ĠB or
Ġinter cambio
ĠT i
Ġpier nas
ÃŃcul a
ul ada
Ġg e
Ġrealiz ando
Ġllev arÃ¡
Ġempres arios
Ġh omb
Ġnorm almente
Ġno tas
Ġpu ente
Ġcompar aciÃ³n
Ġten siÃ³n
ĠMuch as
Ġdifer enci
U M
Ġmedic amentos
s s
ĠJ im
um e
Ġdi vis
itar ias
Ġtarje tas
er tos
ĠM ol
Ġcompro b
Ġas pir
entar ia
olut amente
Ġri val
Ġg ris
v ez
Ġmon tÃ³n
ic k
st o
er t
u z
Ġacuer dos
Ġv ÃŃas
Ġf rac
Ġ201 9
Ġa mp
ur ar
Ġm ando
Ġmor ir
M an
ĠcÃ¡ maras
Ġubic ada
me j
Ġcoloc ar
Ġco leg
Ġre tras
ĠMon te
Ġ200 3
cul a
Ġcam bia
v ie
Ġtra er
Ġcont Ã³
Ġsac erdo
0 9
Ġp ac
Ġprove edores
vo z
F in
Ġj oy
ĠcÃ³mo do
Ġcambi ado
0 7
Ġfis c
ic ano
b it
Ġla v
Ġdes h
ier es
f os
Ġve ge
Ġinvit ados
in er
L uego
ĠIn te
Ġeduca tivo
Ġg rados
0 6
fic amente
Ġleg isla
Ġconstitu ye
j Ã³
tor ÃŃa
Ġvis ual
H ab
Ġposi ciones
Ġsigu iendo
Ġpod Ã©is
Ġconfigu raciÃ³n
Ġinter no
Ġsig los
Ġreconoci do
ĠHern Ã¡ndez
ic ana
Ġf estival
ĠS eb
19 9
ĠAt l
ve la
Ġactu alizaciÃ³n
' .
Ġa Ã©
ĠMe jor
Ġrecon oce
Ġsatisf acciÃ³n
Ġciudad anÃŃa
or ld
T ra
ĠAlej andro
ril lo
ĠGran ada
Ġman eras
l le
Ġapoy ar
Ġapar te
idu os
ĠT am
Ġtrans misiÃ³n
Ġl ad
Ġrelacion ado
ĠEspe cial
Ġco pia
Ġan iversario
v ido
Ġextre mo
Ġserv idor
ĠÃģl var
Ġre per
âĢĻ .
Ġpas eo
Ġhermos a
Ġv id
Ġmar ido
Ġcas tel
ĠA f
in ten
ĠW ar
Ġun if
Ġbas ada
Ġinde pendencia
Ġreco p
Ð ¸
Ġign or
ĠInvesti gaciÃ³n
ĠT an
Ġpropor cionar
ĠPrim era
ĠB ra
ĠK a
Ġmen Ãº
Ġcober tura
Ġin cu
Ġpare des
Ġabog ado
ĠW ill
Ġrev oluciÃ³n
Ġtom Ã³
ĠCon se
Ġaum enta
Ġr ico
Ġgaran tiz
Ġextran jero
Ġmar gen
l ga
n al
Ġlo ok
Ġcre ma
Ġexpres Ã³
Ġcon m
ĠM ario
i gual
ĠA cu
Ġpien so
0 8
ios as
Ġti ro
ril la
Ġespiri tual
Ġarti fici
ĠE se
Ġbo tel
Ġregres o
P res
Ġar ma
u tas
Ã³r ico
Ġpubl ici
Ġ om
Ġv ÃŃn
Ġla ment
Ġdig itales
Ġt ap
Ġdesay uno
Ġ5 5
ĠcÃ¡r cel
Ġdi pl
ĠD ar
Ġs orte
ĠAr ch
Ġorgan ismos
end ario
Ġin just
Ġh ues
Ġat ribu
i ario
Ġequiv oc
ci eron
ĠPÃºbl ico
Ġâ ĨĴ
Ġlegisl aciÃ³n
tus ias
Ġaloj amiento
o ca
Ġre tra
7 8
Ġaprob aciÃ³n
all er
Ġt h
ĠCar men
endi do
Ġchoc ola
' s
iz an
Ġcomb ina
Ġtej ido
iforn ia
Ġemp u
Ġcri tic
Ġa qui
Ġins cripciÃ³n
Ġrespec tivamente
Ġle tra
Ġentren ador
Ġimp uesto
Ġdependi endo
g ip
ĠEn erg
Ġmol ino
Ġo x
Ġdi entes
uc a
Ġintelig ente
Ġ <
Ġfinanci ero
Ġdel itos
Ġdemos trado
Ġrecomend able
As imismo
Ġa den
g na
Ġamena za
Ġin com
ĠLib er
teri al
Ġform ado
Ġrecom ienda
Ġpens ado
ing Ã¼
ĠG ob
Ġna v
Ã©s pe
Ġrela to
C H
am as
Al gun
Ġp Ã¡r
Ġh echa
Ġinici Ã³
c Ã¡n
it ados
4 9
ĠmÃ¡ quinas
Ġcomba te
Ġmodific ar
m erÃŃa
Ġres tos
Ġpor tÃ¡
ĠNe gro
ÃŃn ea
U no
ĠN aciÃ³n
Ġd arse
Ġmoder na
Ġade lga
Ġcapaci dades
ĠIn s
O D
ĠPor tu
Ġreflex iÃ³n
o d
ĠÃ© stos
Ġexten siÃ³n
go tÃ¡
ĠPo der
ĠAn ti
Ġinstrum ento
Ġn aciÃ³n
ĠE cuador
Ġcircu ito
Ġv ital
in io
Ġencontrar Ã¡s
Ġdiagn Ã³stico
Ġen tusias
Ġtom ado
m ana
Ġperiodi stas
ĠR iv
Ġbrin dar
Ġtendr Ã¡s
la terra
Ġintens idad
ĠCas tro
i des
Ġma tar
in to
Ġcon sejo
Ġpublic ar
Ġemerg encia
ri sta
Ġten ia
un as
Ġhac es
Ġcont amos
Ġaudi encia
Ġco le
Ġl isto
Ġcomo didad
Ġcu ri
m ir
Ġg ay
Ġextran jeros
ĠÃ¡rbol es
Ġinteres ados
Ġra ÃŃz
ent imiento
Ġdej amos
Ġdepor tivo
st rucciÃ³n
Ġrealiz adas
ĠmÃŃn ima
ar as
t z
Ġe ficiente
Ġterra za
Ġexp los
qu ilidad
ĠFo to
ĠB r
Ġdi jeron
Ġevi dencia
Ġca tÃ³
Ġsin c
Ġasist ir
Ġcin ta
ĠU E
ĠT ex
Ġluc es
Ġdi gn
to p
ĠCam p
G A
Ġab st
Ġ6 5
Ġas untos
Â ©
201 7
ĠCon tra
ĠH D
Ãº c
m ica
Ġprofun da
Ġpreocu pa
Ġpublic ada
Ġpre viamente
Ġinform es
Ġpu de
er ales
Ġtur no
Ġe mail
Ġv el
Ġcre en
ĠO ro
Ġdivers idad
Ġhabl amos
Ġdeber ÃŃan
Ġfil m
s ito
Ġcer em
ĠAg encia
Ġconduc tor
ĠCar ta
Ġplan e
Ġdoc ente
Ġabs olutamente
Ġgu ard
Ġdiver tido
Ġsi mb
Ġrev olucion
Ġbras ile
i ter
Ġpar o
ĠNic ol
Ġco g
Ġmon itor
Ġproduc tores
Ġacab ado
Ġfacil idad
ma to
Ġa isl
Ġl ongitud
Ġhid ra
Ġpo bres
Ġalum no
Ġcorrec tamente
Ġquier as
Ġp uls
Ġasist entes
Ġpreocup aciÃ³n
Ġma qu
Ġav iÃ³n
enda ciones
paÃ± as
in cu
Ġre pos
Buen o
Ġex pon
Ġcom entar
Ġedi torial
ic ar
Ġnumeros as
Ġmedi cina
ĠEs per
Ġma tem
ug ÃŃa
ĠVir gen
ĠPres iden
Ġmag ia
ici as
Ġcient ÃŃfico
ĠS U
Ġinf ancia
Ġf ri
Ġtotal idad
Ġc ero
Ġdi aria
Ġap orta
Ġdisc rim
Ġdescar ga
Ã± ado
hu a
Ġencontr Ã³
all ado
Ġenl aces
f ru
Ġap as
Ġponer se
Ġrefer ente
Ġest rÃ©s
Ġdisc usiÃ³n
Ġpeti ciÃ³n
Ġextre m
trÃ³ leo
Ġpre venir
Ġestar ÃŃa
graf o
Ġdif usiÃ³n
ent arios
di ciÃ³n
gr ad
id al
hat s
Ġc ach
in an
man es
Ġfe deral
b es
Ġab ur
ĠTo das
ĠT es
ĠBl ack
Â¡ Â¡
ec o
Ġestad io
Ġtra e
me dio
Ġayud an
I R
b or
Ġes encia
Ġs h
Ġexclus ivamente
Ġcer rado
i am
Ġtri ste
Ġvir us
Ġt able
ĠP alacio
Ġne u
Ġins pec
Ġocur rido
Ġcoment Ã³
ĠPo demos
Ġmar car
Est amos
y er
Ġdi as
ĠP ARA
Ġefec tiva
ĠE qui
Ġdeclar Ã³
Ġperten eci
Ġdedic ada
____ ____
Ġju ris
Ġnar ra
ĠCon tin
Ġcomp uesto
Ġexam en
ĠB ern
om ba
Ġvis u
ã ĥ
Ġdific ultad
Ġextra Ã±o
den as
Ġperten ece
-- --
Ġexclus iva
ĠR osa
Ġgan ador
ĠelectrÃ³n ica
G u
Ġh ambre
Ġantigu os
Ġconduc ta
undar ia
Ġagrade cer
Ġproduci do
Ġbaj os
Ġllev aba
Ġ3 9
Ġil usiÃ³n
Ġsuper iores
ur al
ÃŃ dos
idar idad
Ġconvers aciÃ³n
Ġcampe Ã³n
Z A
f era
Ġconserv aciÃ³n
ble mente
ĠN uestro
Ġresiden cia
Ġc ena
ĠW al
Ġconflic tos
ĠV an
Ġcomple tar
ĠFel ipe
Ã¡ rez
Ġex ceso
. âĢĶ
d f
l ie
Ġterc ero
olu ciones
Ġus ado
Ġcrea tividad
u to
Ġven ido
Ġcuad ros
Ġexplo taciÃ³n
S er
0 4
Ġpre mi
Ġpl en
ĠRic ardo
Ġb e
ĠS tar
ĠSeb asti
Ġdis cre
j ada
ĠMay or
Ġtrad u
ĠAn tes
cin as
ĠP h
ĠMe tro
Ġpaque te
ig h
Ġoblig aciones
ĠH ombre
Ġavan ces
Ġgra cia
ĠOfici al
Ġestruc turas
ĠI P
Ġocu par
ĠEdu ardo
Ġc en
Ġtran quilidad
Ġad or
Ġi ban
ÃŃcul as
Ġrelig iÃ³n
6 5
Ġencar gado
ĠDomin go
Ġdes gra
Ġejer cer
... ]
Ġpo esÃŃa
ĠComun icaciÃ³n
ĠiP hone
cios o
Ġsalud able
Ġahor ro
ĠD ip
ĠS oy
Ġital iano
Ġa er
Ġcontac tar
dis mo
Ġreco ger
Ġru ral
Ġconst ruc
r ones
Ġexist entes
Ġre cepciÃ³n
den es
Ġinteres ado
Ġdeci de
Ġt echo
Ġdro gas
Ġmas co
Ġrique za
Est as
Ġproduc en
Ġan cho
ĠB il
S al
ĠN aciones
ĠEs a
ĠcrÃŃt icas
Ġh osp
Ġex cepciÃ³n
Ġmul titud
Ġbar ra
Ġ200 2
m is
ĠC r
ĠEE UU
F ue
Ġsal en
Ġcam inos
ĠS erg
Ġencuent ros
Ġme te
Ġles iones
di as
Ġplata formas
Ġau tos
ĠCon trol
ĠP S
Ġposi tiva
Ġfinanci eros
l ico
Ġatrac tivo
V er
il as
Ġre acciÃ³n
Ġluch ar
ĠB u
ĠCul tural
Ġhor no
m ala
Ġbril lante
Ġcoo peraciÃ³n
Ġru ido
Ġ200 1
to Ã±o
Ġrepe tir
Ġpendi ente
in ales
ĠBoliv ia
Ġdirector a
c ambi
ĠIndust ri
americ anos
Ġpu ra
ic ha
Ġcom edor
Ġca u
Ġigu almente
Ġtraduc ciÃ³n
Ġol vi
Ġsin dica
Ġv uestra
Ð ½
ier te
Ġten dremos
ĠestÃ© tica
Ġper j
ĠIn dia
ĠC el
ĠBo gotÃ¡
ĠCal ifornia
Ġdistin to
ĠU sted
c ando
Ġh ÃŃ
Ġban das
ĠIn de
ĠL OS
Ġrom per
Ġins u
ĠÃ¡n imo
ĠL le
Ġpermi tido
Ġcons ciente
ĠPro yecto
U D
Ġvideo j
i tivo
par te
Ġesper an
Ġesper aba
Ġtempor al
Ġfinanci aciÃ³n
ĠC e
ĠEspaÃ± ol
ĠIng laterra
ter apia
Ġinst ante
ĠA S
P ubl
tra ciÃ³n
Ġpa p
Ġper ju
Ġm Ã³d
Ġinclu idos
Ġint enta
ĠSan tos
Ġdi visiÃ³n
ĠMic rosoft
it ores
ĠmÃ© dica
Ġindivid uales
ĠMe xic
Ġpod amos
Ġcu mp
Ġmin ist
n ing
ĠCol or
a unque
Ġcuar ta
Ã©n d
Ġintro ducir
ĠIncl uso
Ġmanif ies
tri cidad
Ġmecan ismos
Ġhier ro
Ġpais aje
Ġpa gos
ĠReg istro
Ġcl im
Ġsomb ra
Ġadi cionales
Ġllev o
Ġl Ã¡
Ñ Ĥ
s h
ĠA do
Ġpens amientos
fici o
e da
Ġre ma
Ġse mej
ven il
ĀĀĀĀĀĀĀĀ ĀĀĀĀĀĀĀĀ
Ġde je
orm es
Ġsec und
Ġ ÃŃ
ĠC las
Ġcam paÃ±as
Ġdocument al
ĠI V
Ġautor izaciÃ³n
ra te
ĠEstudi os
Ġsocie dades
r eros
ĠT emp
ĠelÃ©ctr ico
M I
Ġfues e
Ġmone da
ĠR io
Ġabsolu to
ĠQ uer
sta gram
Ġinst rucciones
ĠCas tel
Ġres umen
t ÃŃas
Ġoscu ro
Ġprofes iÃ³n
ĠD ra
Ġmon um
it Ã³
Ġmaes tros
A quÃŃ
Ġgust e
Ġrom Ã¡n
ec as
Ġho ja
Ġesc la
Ġrece tas
ient a
Ġcla ves
ent ario
âĢ¦ âĢ¦
Ġnecesit amos
Ġh ue
Ġagre gar
Ġcan tidades
Ġunivers idades
Ġsal udo
Ġau xil
Ġar que
Ġrecuer dos
Ġcu Ã¡les
Ġla bios
Ġeduca tiva
.... ....
gles ias
Ġre bel
Ġfron tera
Ã ļ
Ġest ric
Ġimple mentaciÃ³n
Ġen tiende
en z
Ġconven io
an tiles
A d
Ġampl iar
il io
Ġafec tados
Ġcon trar
b ro
Ġescri tura
Ġfin alizar
Ġen rique
Ġej Ã©rcito
Ġest abilidad
Ġinst ancia
Ġcam inar
ĠA B
tar Ã¡n
ĠelectrÃ³n icos
Ġurb ano
Ġa gar
Ġinstitu cional
Ġhab lan
Ġbaj as
Ġsal ido
ue ble
Ġautom Ã³vil
Ġbos que
6 6
Ġan aliz
Ġalmacen amiento
Ġve ter
Ġcertific ado
ĠI r
ist emas
Ġcuan tos
Ġchocola te
jer ÃŃa
Ġjue ga
Ġpod ÃŃan
Ã³n imo
AL ES
Ġconcl uy
S ÃŃ
Ar tÃŃculo
Ġmanifes tÃ³
Ġre cep
ab as
Ġton el
Ġdem uestra
Ġins ul
ĠL an
Ġl ados
Ġins ist
c ara
m n
Ġun iÃ³n
it en
Ġmostr Ã³
tiv e
Ġcu yos
Ġtrabaj ador
ĠBuen o
titu des
CION ES
Ġflu jo
Ġar mon
Ġdis capacidad
Ġtempera turas
Ġes cul
ĠNa tural
Ġres iduos
Ġna cido
Ġquier an
ĠProvin cial
Ġencab ez
Ġpilo to
Ġpol Ã©m
Ġhum il
ĠS ierra
Ġfabric ante
ĠDi ario
ĠEst oy
Ġsus p
tam en
Ġpro ven
ĠAm eric
Ġespecial ista
Ġbar co
Ġal f
e ma
Ġver tic
Ġrelo j
Ġunivers al
ĠB re
Ġrue das
ĠI ma
Ġdim ensiones
Ġmu riÃ³
M S
Ġdes as
Ġn Ãºc
u era
ash ington
Ġb l
Ġrue da
Ġdis cos
ĠDig ital
Ġapre ci
Ġbal ance
ĠUn idas
Ġrecom endaciones
Ġindividu os
ĠbÃ¡s ico
ĠC ine
Ġcari Ã±o
Ġciudad ano
Ġag ente
Ġadap taciÃ³n
Ġin ex
u an
ĠS ud
Ġorganiz ar
Ã© tr
Ġeurope o
Ġl lan
Ġcuidad os
Ġcompos iciÃ³n
ĠQu Ã©
Ġinmedia ta
Ġajust e
st ica
Ġpar Ã¡
Ġcal endario
Ġmuch ÃŃsimo
cor d
Ġprima vera
Ġconstitu cional
Ġimp orte
Ġpier de
raz go
Ġtrans mitir
Ġir reg
Ġin genier
Ġeurope os
Ġn aran
tr ÃŃa
rib uye
Ġcolor ear
habil itaciÃ³n
ist ar
Ġindividu o
Ġba ilar
Ġcumple aÃ±os
Ġfabric antes
Ġus an
ĠV ar
ib il
Ġa genda
Ġha z
tion al
ues tras
hibi ciÃ³n
Ġdes pues
ĠBlan co
Ġdibu jo
ĠSan t
ĠAm biente
H asta
ĠDef ensa
Ġbeb idas
ĠC N
Ġm adres
Ġper diÃ³
Ġilum inaciÃ³n
Ġprivi leg
âĢ¦ )
Ġjug ando
Ġcient ÃŃfica
ĠÃ³r ganos
Se gu
ĠDa tos
8 5
Ġ Ã³p
Ġdiput ado
Ġdesemp eÃ±
ĠAr t
U T
ip s
Ġmar ch
Ġ !
Ġhermos o
Ġte la
Ġli der
Ġru tas
Ġconven iente
is po
Ġexpres a
Ġcaracter ÃŃstica
ĠÃŃn dice
ÃŃt ico
Ġpon iendo
cu b
Ġcomun icaciones
Ġcoord in
Ġg re
Ġsent imiento
Ġperm iso
me dia
Ġd amos
ri tos
ÃŃ g
Ġcriter io
al d
Ġesper amos
ĠT ener
ci pe
Ġsob res
Ġlleg ando
ĠQu iz
j ando
uer zo
uen a
Ġutil idad
, ,
Ġimprescindi ble
uri as
Ġvein te
tan der
Ġdispon ibilidad
Ġtranquil o
ti po
Ġcircul aciÃ³n
mart ph
ĠL en
Ġsal var
Ġcoord inaciÃ³n
ut ados
Ġdesemp eÃ±o
ĠSoci ales
ust o
Ġcan s
Ġmus icales
Ġpu ro
ĠH an
Ġavan zar
] .
Ġinicia tivas
Ġesta tu
Ġtu ristas
Ġincre ment
Ġjorn adas
Ġefica cia
Ġc ien
Ġregist rado
Ġcic l
Ġx D
Ġespec ÃŃfico
Ġtra tando
Ġm ister
ĠK ar
Ġabsolu ta
ĠHa cienda
ĠMay o
Ġconside ran
Ġcul o
Ġdo ce
ĠRey es
Ġrespon de
tar lo
ac u
O tro
Ġ4 2
E mp
tor iales
Ġex c
Ġbas a
Ġrequier en
ĠseÃ± ora
Ġenem igo
g ran
ĠAl lÃŃ
ĠS O
Ġllam Ã³
Ġcapaci taciÃ³n
Â ·
ĠÃ³ pti
Ġhubi ese
ĠCh ar
Ġpla yas
Ġdistin gu
Ġde dos
Con s
Ġtermin ado
Ġtrim estre
ĠPa pa
C a
Ġpasaj eros
Ġda to
Ġr osa
0 3
ĠF un
ÃŃ ficamente
Ġpe trÃ³leo
ac ha
te cas
Ġemp ie
ĠPan amÃ¡
s ula
Ġde pos
Ġfra g
Ġg imnas
Ġexper to
ce mos
ĠjurÃŃ dica
4 2
Ġay udas
Ġrealiz ados
aliz aciones
Ġcol a
Ġorient aciÃ³n
ĠX IX
Ġmill Ã³n
Ġdue Ã±o
Ġcomp ens
Ġcu ero
Ġplan tilla
Ġiden tificaciÃ³n
Ġal iv
Ġmodi ficaciÃ³n
ba o
8 8
Ġmoder n
Ġutiliz ados
ĠD I
tran s
Ġvo ces
Ġavis o
Ġpriv adas
Ġre Ãºn
ta Ã±a
Ġsa ga
Ġrecor rer
Ġba Ã±os
ĠV ia
ĠPe Ã±a
ã Ĥ
Ġa ust
Ġaprob ado
ĠEst amos
ĠReg ional
ti bles
Ġmo dos
Ġmam Ã¡
Ġrepresent an
ate mala
ĠdÃ© bil
ĠOfici na
Ġlan zar
ĠP R
Ġindustri ales
Ã³s itos
ĠC Ã³mo
ĠTo da
aj aja
Ġmater ias
- .
Ġr enta
ici oso
Ġman tienen
ĠNicol Ã¡s
a k
ĠForm aciÃ³n
ĠMe dia
te d
Ġb ron
Ġasum ir
Ġf um
Ġalum inio
tr ices
Ġcontra taciÃ³n
ĠcatÃ¡ logo
Ġdese os
Ġ ï
Ġman ga
ĠSe xo
t le
Ġpres erv
ĠRam Ã³n
... )
ĠlÃ³g ica
an c
ĠAutÃ³n oma
ĠReg lamento
Ġconstante mente
Ġpriva cidad
Ġw ith
Ġperci b
Ġen tiendo
Ġfamos a
S ab
t inas
ĠIn stagram
Ġfru tas
f un
Ġreci entes
ĠF ondo
Ġ6 00
ĠMur cia
de a
Ġju ventud
Ġmexic ana
Ġran go
an al
v ol
Ġqued arse
Ġconcl usiÃ³n
Ġc eb
fon so
Ġmad ru
ĠB ien
Ġcompr ensiÃ³n
ĠO tros
ĠSegun da
Ġcul tivo
Ġfortal ecer
le to
Ġca fe
ĠSerg io
0 2
Ġha ci
men es
Ġsin dic
Ġsu av
Ġf eria
Ġh arÃ¡n
Ġimpresion ante
Ġconf un
Ġapartam ento
IS T
Ġtre inta
Ġesc as
Ġmod alidad
Ġf icciÃ³n
Ġmov ilidad
Ġmet Ã¡l
Ġmal os
ĠB ea
bo x
6 4
Ãºs ica
Ġcontr ad
tr ada
Ġabog ados
Ġ it
Ġdestac ado
Ġb eso
Ġest ima
ĠN ie
Ġc es
n ado
Ġhtt ps
An tes
Ġperman ecer
ĠFiscal ÃŃa
Ġas igna
Ġgaranti za
Ġv uestro
Ġfi el
Ġsu mar
i ti
ĠP OR
ĠseÃ± ales
Ġno c
Ġdes l
ĠMar tin
Ġv uelos
Ġli qu
Ġcar tel
ĠdifÃŃ ciles
Ġvic epres
Ġar gentina
Ġins er
ĠSem ana
Ġpor tu
ĠV as
Ġmag ist
Much as
Ġv inos
Ġinform ado
Ġse cu
Ġdepor tiva
es as
Ã©r ico
Ġbon ita
ĠS ho
ist os
Ġh ol
ĠC uer
Ġcul p
ĠCo o
ĠN osotros
Ġimp e
Ġcomba tir
Ġap orte
Ġen de
Ġpa ta
Ġcompeti ciÃ³n
Ġen se
ic ante
Ġanunci ado
Ġcre ando
Ġeta pas
Ġcor tes
Ġse t
Ġvir tud
Ġt in
Ġver emos
7 7
ĠN et
C ol
ĠTor res
Ġimag inar
ci tos
Ġsuje tos
Ġexpan siÃ³n
ĠA v
Ġpie dras
gar se
ĠprÃ³x imas
ĠB ri
Ġmus eo
tu be
ĠÃ ĵ
ĠEx per
Ġexig e
Ġde partam
Ġc aj
ĠE mple
Ġfuncion ario
Ġindic ado
Ġa ter
gu Ã©
te la
Ġban car
Ġsu yo
tar ias
Ġpar lam
Ġevalu ar
ĠU l
Ġespeci alizada
Ġmir ando
ĠVic ente
Ġhuev os
Ġpresiden ta
Ġneces itar
g ulo
Ã¡nd onos
e de
Ġestu vieron
A A
M O
Ġcon ducir
cis mo
Ġn ucle
ĠTen emos
Ġdel ic
Ġimp ro
Ġcub ierta
Ġproduc tor
te mp
Ġam able
So bre
ĠProvin cia
Ġac Ã¡
Ġcontribu ir
Ġgenera ciones
Ġtra tado
Ġpubl icaciones
Ġconoc en
ĠS r
Ãº p
Ġmos tra
Ġcar ro
Ġcomput adora
Ġesc enas
Ġnov io
ÃŃc ola
Ġacep ta
Ġconsigu iÃ³
Ġbara to
P a
Ġbol as
Ġdec ora
Ġaso ciaciones
ER O
ĠRob erto
Ġmues tras
Ġpo bla
ti to
Ġcor reg
O tra
Ñ Ģ
Ġdel incu
G U
Ġconform idad
i adas
Ġpo deres
Ġal ber
Ġprodu jo
Ġque m
4 3
Ġn ace
or ro
A ctu
abe tes
Ġ25 0
Ġver lo
iz adas
ĠaÃ± ade
E A
ĠCar ibe
Ġpriv ados
Ġglo b
Ġin mobil
Ġdepor tes
Ġje je
Ġmane jar
Ġin n
Ġm ach
Ġbra zo
Ġqu eso
Ġmin erales
Ġ12 0
ĠCan adÃ¡
ĠEs pero
Ġgestion ar
Ġmejor as
ĠA ri
Ġrecomend amos
Ġprob abilidad
ĠB on
Ġfal lo
Ġreg la
Ġadj ud
w ard
T u
ĠE X
b ie
ĠAl im
C re
ĠBlan ca
ĠenseÃ± ar
tu ro
ĠTen go
em b
Ġnie ve
Ġpa tio
Ġab riÃ³
Ġcampe onato
Ġas al
ĠbÃ¡s ica
Ġvac ÃŃo
ĠR ico
ĠÃ³r gano
Ġmecan ismo
Ġc ÃŃr
Ġmaravillos o
Ġred ac
Ġinf o
Ġconec tar
ĠA ragÃ³n
Ġtra ma
D i
av o
Ġqued aron
ĠcrÃ©di tos
Ġreemp la
Ġdestac an
ĠMer cado
om ina
ib lia
Ġpro pa
ĠperiÃ³ dico
ĠH or
Ġcomp et
ĠE v
TI V
Ġpudi eron
Ġacudi r
Ġenem igos
pu taciÃ³n
ĠespaÃ±ol as
Ġmem or
ĠclÃŃn ica
O b
ĠG lo
Ġver des
ĠCo ord
ĠS ar
N uestro
Ġde le
ĠP i
ĠO f
Ġpol ic
AR T
g ia
ĠAca demia
Ġdich as
Ġnoc tur
Ġfuer an
Ġpro voca
Ġsosten ible
ĠtelÃ©f onos
Ġfan s
Ġsitu ada
Ġem baj
Ġlabora torio
ens es
Ġidi omas
ĠGob ern
Ġapar iencia
Ġpot ente
U B
Ġreform as
ion a
Ġdes f
Ġap unta
Ġescrib e
Ġcerc ana
Ġselec cionar
Ġt orm
d icaciÃ³n
w ood
O s
201 5
Ġpendi entes
ĠAu to
Ġinter cambi
201 6
Ġcuid ar
ĠIn genierÃŃa
B o
ĠhÃ¡bi tos
ern am
r ÃŃan
Ġconsum idor
Ġdeb o
Ġbas ura
Ġdes cripciÃ³n
AD A
ĠW ashington
ĠfÃ¡b rica
f it
Ġes quina
Ġpubl ica
Ġigu ales
Ġb ille
i di
ita t
Ġal tamente
C reo
rec ciÃ³n
Ġsal as
a qu
Ã¡m ico
tr ina
Ġlo go
c olo
en co
Ġt ruc
ol la
ĠB iblio
Ġfran cesa
Ġregal os
ĠÃģ frica
Ġver se
ific ada
w ay
Ġdirig entes
tad ura
Ġmonta je
Ġemb ar
ÃŃn as
Ġrepro duc
ĠlÃŃqu ido
Ġsub s
Ã³ cra
Ġpermi tiÃ³
Ġadolesc ente
Ġlimp io
ala x
Ġviv iendo
rist o
Ġpermit an
lan tes
c Ã³mo
ĠR ica
Ġrevis ar
Ġobserv a
Ġh Ã©ro
Ġdeb ut
til idad
ĠS ue
N O
ĠS y
ĠPar lamento
ĠEsp ÃŃritu
Ġdistin ta
Ġform al
Ġreserv as
Ġdin Ã¡mica
ari ales
dad as
Ġimag inaciÃ³n
Ġfru to
k in
Ġalim ento
ĠAm or
Ġadquis iciÃ³n
Ġcon o
Ġexcel entes
M E
Ġve ÃŃa
ĠF eria
Ġso ci
ĠN unca
Ġnave gaciÃ³n
Ġob tuvo
Ġs at
Ġt asas
ĠJ ack
Ġcam pes
Ġinv ita
Ġasoci ados
Ġpropie tarios
Ġmu Ã±
gen o
Ġespec ÃŃficos
d in
Ġpon emos
Ġemo ciÃ³n
Ġf ach
en dar
pol it
Ġven de
ĠRec uer
Ġyo u
ĠApren de
Ġb endi
ĠfÃ³rm ula
Ġmal as
Ġacondi cionado
Ġprovin cial
Ġtonel adas
er amente
Ġre tos
Ġhor arios
ĠAu tor
Ġpro hib
Ġsatisf acer
T V
crip ciones
ĠacadÃ©m ico
Ġcor on
Ġmen cionar
ĠV ida
ĠgrÃ¡ fico
Ġexplic aciÃ³n
Ġconci ertos
Ġa ci
ox id
ĠMuch os
6 8
ER A
Ñ ģ
quilla je
Ġba Ã±
Ġfemen ino
ĠPa ul
ÃŃ metros
Ġprim aria
l ados
Ġderro ta
Ġexist ir
ĠPla y
ĠEmpres a
Ġde terior
Ġrum bo
Ġen tero
Ġpres taciÃ³n
Ġdist rito
Ġepiso dio
Ġpreci siÃ³n
ÃŃ ces
ĠseÃ±al ado
ti fica
Ġhab ia
Ġpropie tario
Ġeurope a
Ġcontin Ãº
Ġsir ven
ĠSebasti Ã¡n
Ġad vers
Ġam antes
Ġdiv ul
er ÃŃas
Ġest ilos
Ġde tener
Ġdeten ido
Ġsal sa
or den
udi ciales
Ġarro z
Ġor al
ual quier
Ġesca par
Ġpar ar
Ġdo y
Ġaut omo
D el
a der
Ġin oc
ĠRos ario
Ġauton omÃŃa
Ġllam an
h ab
Ġins piraciÃ³n
ĠOn line
Ġfuncion ar
Ġda Ã±
Ġelec tro
Ġdiscipl ina
Ġpo eta
Ġbor de
Ġpro lon
Ġre iv
Ġan tic
Ġemo cion
Ã©n ez
am ar
v ias
Ġa val
Ġex tin
Ġescen arios
Ġquis iera
Ġsign ific
Ġh ig
Ġejecu tivo
Ġra za
I CI
P D
Ġtrabaj ado
Ġacci dentes
Ġhab ilidad
Ġdic es
ĠL una
ĠGu atemala
Ġr onda
al la
Ġsust ancias
Ġvig or
Ġdiput ados
Ġahor rar
Ġdefini tivamente
Ġtrans ferencia
S I
re y
ĠaÃ±ad iÃ³
Ġgust os
ĠD om
Ġfi ja
Ġo lor
Ġr ica
Ġcal ent
ĠAust ral
Ġsol idaridad
Ġmar i
N A
las h
ĠGal icia
Ġautom Ã¡ticamente
m ol
Ġ4 4
Ġmes as
is e
ĠG uer
Ġcerv eza
Ġin gen
Ġsho w
Ġ 01
ĠP Ã¡g
Ġprovin cias
Ġporta voz
ĠEj Ã©rcito
Ġg ub
Ġca yÃ³
Ġanti cip
un cios
Ġt os
Fin almente
Ġh ilo
Ġfavor itos
Ġt rist
ĠJ orn
Ġren unci
ĠCon tac
g es
Ġinten so
Ġparticipar on
Ġlimp ia
ĠindÃŃgen as
Ġl istas
Ġlimp iar
ĠÃº tiles
Ġo ÃŃdo
ch os
Ġnave gador
Ġro ja
tu ario
udi o
ire mos
Ġbal Ã³n
Ġcre ciente
Ġan ci
ĠQ UE
Ġre iter
Ã³g ico
Ġpreci so
Ġrecib en
Ġans iedad
Ġcolum na
ĠActu almente
ĠPortu gal
z e
ĠÃºn icos
Ġpres taciones
Ġinform ar
Ġexclus ivo
ine te
as iÃ³n
ÃŃs imas
Ġhabl Ã³
ĠH en
Ġin tim
Ġacep taciÃ³n
Ġr aro
Ġsuf rido
Ġps ico
Ġorgul los
Ġcos tes
Ġvol v
Ġestable cimientos
Ġcap tur
Ġmanif esta
ĠSe x
iller mo
li x
Ġmad ri
ĠcÃ³mo da
Ã³n icas
R AN
Ġdra ma
Ġabra zo
Ġ4 3
Ġba ile
ĠCal le
Ġmexic anos
Ġ4 7
Ġdirig ir
Ġfem in
ĠÃ³r denes
Ġestadouniden ses
pe ta
Ġpre dic
ĠT im
Ġreg lam
ĠN orm
iemp o
Qu iÃ©n
Ġsi ga
ĠfÃŃs icas
M uy
Ġcontinu idad
ĠD ol
Ġmas aje
Ġescri ta
Ġtemp rano
Ġvalor aciÃ³n
Ġcom idas
Ġmaqu inaria
ĠAn gel
Ġrefer encias
ĠM ul
ĠMor eno
Ġsolu cionar
Ġab ri
Ġtrans cur
Ġoblig ado
Ġas omb
Ġfib ra
Ġpag ina
ing s
ĠsÃº per
ĠS p
Ġregres ar
Ġlide razgo
Ġcrim en
ti zar
Ġban dera
Ġrespon diÃ³
Ġcastel lano
Ãº rg
ĠEs pa
ap p
Ġhum edad
Ġcent en
Ġmedi ados
Ġfavor ito
6 7
ul aciones
ÃŃ v
Ġplan ificaciÃ³n
Ġele vado
Ġcerem onia
Ġs p
Ġtr Ã¡n
Ġobten ido
ĠCan arias
Ġbicic leta
ab o
Ġconoce mos
r ico
ĠCrist ina
Ġter ren
Ġmar cado
Ġdes eas
Ġo dio
ĠGuad al
tedr al
Ġcre ada
4 1
Ġcomenz aron
Ġayud arÃ¡
Ġpr endas
Ġcolombi ano
Ġpre de
ĠIn terior
Ġprob ado
Ġqu iso
Ġmedi r
uc ar
Ġpin tar
ĠS omos
Ġ9 5
ĠjurÃŃ dico
Ġapara to
Ġdiri ge
Ġintegr ado
s ung
Ġtera p
Ġju bil
Ġdef ine
Ġen tien
Est oy
Ġpos tura
ha el
Ġt Ã©
Ġul tra
Ġviv ido
Ġco ger
Ġlevan tar
Ġre duce
Ġman d
Ġpodr ÃŃamos
Ġmo tores
Ġser ÃŃan
Ġto p
id ra
ĠsÃŃmb olo
Ġplante a
B I
Ġafi cionados
ĠW il
Ġga to
Ġsu ple
ĠIs abel
l ig
t inos
ĠCas tillo
ĠEduc a
tro p
Ġinvesti gar
Ġmodi ficaciones
Ġdis put
Ġpro cl
ĠM ich
cri tos
c m
ĠG ust
Ġes pon
Ġcivil es
ĠÃ© stas
Ġt Ã¡c
Ġpanor ama
Ġcir ugÃŃa
ĠclÃ¡s icos
Ġpo quito
Ġesco g
ĠbÃ¡s icas
ient al
ĠPr incip
Ġres tr
Ġfru st
Ġin tu
ĠcÃ³ m
ĠLe on
Ġnegoci aciÃ³n
Ġ[ ...]
Ġatra ves
Ġo toÃ±o
ro car
Ġvigil ancia
Ġingres ar
Ġpis os
Ġsufici entes
ec on
uer ta
w ork
EN TE
Ġap o
con s
l l
uch o
! ,
di ciones
Ġpa tro
ĠAma zon
Ġcorpor al
Ġap la
Ġmin eral
Ġargu mento
ta ban
ĠF on
ĠJ ames
Ġs illa
Ġhab ido
Ġcrist ianos
v ida
Ġest ando
Ġdepen dencia
Ġasesina to
Ġindependi entes
Ġocur rir
m ano
Ġem ble
Ġrela tos
ĠDepor tes
Ġcom is
ĠportÃ¡ til
Ġesp i
Ġtro p
ter ales
r adores
Ġespec ÃŃfica
Ġesta ciones
Ġes enciales
Ġsol dados
Ġsal ario
ĠDes car
Ġre ino
Ġcu entos
Ġalcan za
Ġrel l
Ġbien venida
Ġn omin
Ġprev ent
Ġaconte cimientos
Ġincu mpl
ca p
Ġcaracter iza
Ġf es
Ġb en
gen a
Ġc ria
ĠC U
Ġest reno
Ġsur ge
Ġc ajas
Ġa tac
ĠC A
Ġag ro
ĠMedi cina
Ġcab all
Ġgr ues
Ġin yec
Ġfom entar
ol i
Ġdescub ierto
Ġcontra tar
Ġdesp ren
Ġagu an
Ġpareci Ã³
ĠM A
le do
jer as
a ger
ĠMor ales
Ġconf es
Ġb asta
ĠAn te
Ġd ucha
or os
Ġcol abora
ĠpÃ©r didas
iÃ©n dose
Ġde dica
O T
Ġpudi eran
Ġpreci sa
Ġsel lo
guar dia
tu mbre
ĠOs car
Ġeduca tivos
g Ã©n
Ġb y
Ġme tas
Ġde mon
Ġguitar ra
Ġperson almente
f ar
Ġor aciÃ³n
ĠEurope o
Ġsent ÃŃa
ent amente
ĠF rente
Ġun e
Ġ4 6
Ġlar gas
Ġconte mpl
Ġconviv encia
Ġfu imos
Ġgust Ã³
Ġpa ga
Ġg afas
Ġdisposi ciones
Ġpractic ar
eci endo
Ġsent irse
ĠCh rist
Ġn Âº
Ġfres co
Ġconstru ido
Ã¡ndo la
on das
Ġespec ÃŃficas
Ġindis pens
Ġneces ito
Ġpes ca
c r
Ġt ribunal
ĠP RI
Ġr icos
ĠseÃ±al ar
m l
Ġejec ut
ici dio
Ġtemp lo
Ġreca ud
Ġexpres ar
Ġa ves
ĠW orld
Ġdev olver
ĠHer man
ĠtrÃ¡n sito
Ġdormitor ios
Ġdesc enso
ĠM ana
ĠAl ta
Ġca e
Ġmadru gada
ĠLi bre
Ġllev ando
Ġenvi ado
, ...
Ġresul tar
Ġdes in
ĠIs la
Ġhogar es
Ġcons entimiento
Ġve a
Ġregist ros
Ġllev aron
Ġreg ulaciÃ³n
co p
Ġrepu bl
Ġvie ja
ĠB io
Ġobst Ã¡
Ġcuad rados
Ġcamis eta
ĠCu enta
ĠHab ana
Ġsusp ensiÃ³n
Ã© ramos
Ġre baj
Ġar co
Ġcontar Ã¡
Ġev olu
Ġher idas
Ġfisc ales
ĠR ol
ĠO ctubre
l im
9 8
Ġdescu entos
Ġmin im
Ġpres tar
ue z
G T
ĠO tra
on so
Ġlar gos
A m
Ġfas cin
ĠLib ro
Ġfo tÃ³
ĠSal udos
Ġar ru
Ġpas ta
Ã¡ vez
Ġsol id
ĠAl icante
ĠEmpres as
Ġintent ando
Ġcurios idad
ci encia
Ġapar eciÃ³
ĠT ro
ĠUsu ario
Ġrelacion ada
Ġirreg ular
es os
Ġtem or
da je
Ġempres ario
Ġacum ul
Ġequival ente
ĠG ir
Ġexcel encia
ĠS port
Ġcombust ible
Ġrealiz aron
Ġcolec tiva
d ÃŃan
Ġsufici entemente
ren a
us as
Ġdecre to
Ġimpul so
Ã¡m enes
ĠS ta
Ġestable cidos
Ġre ina
ĠRes pon
Ġdej aron
Ġe co
ĠAst urias
ĠM Ãºsica
Ġsig nos
Ġap p
vers iÃ³n
Ġveci no
ĠÃ¡ cido
An te
ĠA tenciÃ³n
i tiva
ĠVic toria
Ã³g ica
Ġt onos
ÃŃn cipe
Ð¾ Ð
Ġintro duci
C C
Ġdi ga
Ġcabal lo
con es
Ġech ar
Ġcuri oso
gar on
ĠG ro
Ġkil os
E E
Ġse co
Ġba u
Ġvuel tas
ĠCom ple
tu re
Ġcu ota
ĠD en
Ġcontin ente
id ado
Ġdetermin ados
ÃŃc tor
B ar
Ġesco ger
Ġs martph
Ġtur ÃŃstico
% )
ta b
Ġ 00
Ġreco ge
Ġsi go
Ġm ier
N uestra
Ġabor dar
cional mente
Ãºm ero
Ġdispon er
ĠAl to
ĠSen ado
Ġma quillaje
ĠGuar dia
Ġelabor ado
Ġcaus ar
Ġelec tor
g ica
ĠI S
Ġcontam inaciÃ³n
Ġllam ados
Ġbiblio teca
Ġdi abetes
Ġsem illas
Ġcre ciendo
Ġreci n
Ġileg al
Ġcoo pera
Ġimpuls ar
Ġf este
ĠAs ia
Ġfel ices
tÃº an
Ġelim inaciÃ³n
Ġpon go
ĠP A
Ġrefle ja
p lan
Ġle j
Ġimpor tar
g i
ĠMar keting
aj ara
Ġa mo
Ġcar tera
ĠAr tÃŃculo
Ġper cepciÃ³n
Ġfru tos
Ġpar ad
Ġale j
Ġrespal do
Ġconf irmÃ³
vi de
ĠAl fonso
Ġrenov aciÃ³n
Ġtu vimos
ĠAdminist ra
Ġh all
Ġ199 9
Ġrecha zo
Ġfracas o
ĠaÃ±ad ido
ĠL ea
in Ã³
Ġtra mo
Ġexplic ado
B us
ĠD ES
ĠA Ã±o
Ġtranspar encia
Ġrepro ducciÃ³n
ier tas
Ġcompe tir
en za
ĠO tro
Ġbrin da
ĠMar co
Ġpatro cin
Ġh ec
po t
Ġhaber se
Ġhab ita
ven ido
Ġtor re
ĠCap ital
Ġsal to
Ġan dal
Ġprovoc ar
Ġimp re
Ġcre emos
Ġrelev ante
al ista
ĠEx cel
Ġof ens
te ga
Ġfac tura
di ales
iz ando
Ġru tina
Ġespeci alizado
Ġcre Ã³
Ġlig a
Q uer
Ġ4 9
Ġlist ado
ĠMa es
ĠBil bao
Ġque do
Ġman dar
ĠcrÃŃt ico
ĠK e
gna cio
ĠPr omo
Ġra ÃŃces
Ġincl usiÃ³n
ra ba
Ġver duras
Ġviv a
in c
C as
Ġasesor amiento
Ġcos tumbre
e jo
Ġ: )
Ġgol pes
Ġpar ada
Ġcor tar
Ġin cent
Ġdes pre
Ġad h
ifica ciones
Ġceleb rarÃ¡
ĠSi tio
ĠAz ul
eci miento
z amiento
ĠÃ¡mbi tos
S omos
iz Ã³
Ġtras lado
ros a
Ġparticip ado
ĠL E
Ġsent idos
ĠN eces
gan cia
Ġch arla
Ġfr ÃŃa
u ido
ĠGu illermo
ĠAc ciÃ³n
ĠO p
Ġofre ciendo
ĠFin anci
Ġ4 1
Ġencan to
Ġamig as
ĠT ab
Ġide ales
Ġparticular mente
ÃŃs o
Ġpl aca
Ġmon to
z ones
Ġcon gel
Ġorganiz ada
bi mos
Ġelec tricidad
Ġm ÃŃo
Ġvid rio
. Â»
Ġno tar
ĠC in
Ġsub si
G B
Ġespi ritu
el d
ĠÃ¡ ra
Ġinm un
Ġpolic ÃŃas
ĠH i
uy endo
Ġpro greso
Ġpens aba
Ġprofun di
ent ados
Ġnega tivo
Ġla c
Ġhab lado
Ġprove edor
Ġna ciones
ĠReg iÃ³n
Ġviv imos
Ġfirm ado
Ġdign idad
ens or
tific ado
Ġrepres entar
ĠMic hael
Ġest amp
Ġsuminist ro
ĠWill iam
Ġpapel es
ÃŃ menes
Ġd ada
Ġamena zas
ĠG il
ĠLoc al
ĠB log
Ġpr Ã³
IN A
Ġargu mentos
ĠRu iz
re za
Ġcon ducciÃ³n
Ġfir mas
Ġten ÃŃamos
Ġdest inos
Ġseguir Ã¡
tion s
ĠNov iembre
ĠE van
tÃ¡n ea
Ġofici o
Ġrev istas
Ġdetec tar
Ġsos tuvo
Ġafron tar
ĠB lo
Ġe go
Ġabandon ar
Ġdetermin ada
terrÃ¡n eo
Ġproduc tividad
Ġincorpor aciÃ³n
Ġsepar aciÃ³n
on ces
Ġconside raciÃ³n
Ġgaran tÃŃas
Ġaudio vis
Ġcomple mentar
Ġmen cionado
Ġvent anas
Ġnega tiva
Ġdelan tero
Ġcu Ã¡ndo
g nos
Ġl una
or cio
ĠP ie
ĠG en
ĠSan tander
Ġbara tos
it adas
Ġorgul lo
ĠHum an
Ġdenomin ado
Ġc iencias
Ġcomp ara
Ġresul tÃ³
cl ar
ĠRa Ãºl
ĠON U
Ġh ielo
Ġceleb rado
ur sos
Ġoc ta
in cl
e j
Ġin cur
Ġpar t
ĠRe laciones
ĠPen al
Ġpan el
Ġper segu
Ġparticip an
Ġles iÃ³n
Ġex cur
ĠCh Ã¡vez
Ġcul tiv
de lo
S iempre
ad illa
Ã¡ z
Ġart ÃŃstica
fici t
Ġb omba
Ġcul min
P os
Ġmu tu
Ġcine mato
er ador
ol v
Ġlan zado
Ġf us
Ġlab ores
Ġdes esper
Ten emos
Ġemple ado
Ġposible mente
Ã³m icas
ĠTecn ologÃŃa
Ġapre ciar
ĠZ ona
ur s
ÃŃs imos
Ġinfl aciÃ³n
ĠF lores
Ġvay an
Ġper tin
Ġimple ment
y eron
Ġmanifesta ciones
ĠC H
Ġb uc
Ġprecios o
Ġpar ro
Ġlan zÃ³
ĠRev oluciÃ³n
Ġbo de
Ġtem Ã¡tica
th er
l ing
ĠT res
Ġfrecu ente
w in
ĠC iencia
ir Ã¡n
ĠSecre tario
Ġamar illo
Ã± e
P O
Ġsuf riÃ³
ĠLatino amÃ©rica
Ġneg ros
ĠG afas
rimon io
Ġm ante
Ġprote ÃŃnas
Ã©s ar
Ġquin ce
Ã¡ us
uel ve
Ġinmig rantes
ic ul
Ġenc uesta
Ġment ir
Ġpre vis
z can
Ġfutu ros
Ġdipl om
ie dades
E so
Ġem isiÃ³n
Ten go
cion ario
Ġpaci encia
ĠO ne
ĠhistÃ³r icos
Ġconvers aciones
Ġejecu tar
). -
Ġgal ard
a torio
Ġcan cha
Ġli tros
Ġvo tar
ĠDist rito
Ġincon ven
Ġo cio
Ġmon stru
D eb
ĠM ira
Ġcon lle
Ġllegar Ã¡
Ġexist ente
ĠHu go
ut h
ĠMer ce
Ġsens ibilidad
Ġdest inado
Ġdescrib e
201 4
C or
T S
ĠP ER
Ġgub ernam
Ġtermin al
O r
ĠCam po
Ġtera pia
Ġ8 5
ĠP sic
te a
e amente
Ġtal la
Ġespe jo
uel va
Ġt est
Ġen ve
Ġcar as
Ġsub ida
ĠOri ente
Ġavent uras
ac ciones
Ġade mas
Ġnaran ja
Ġsi enten
Ġla teral
Ġneces ariamente
ĠpÃ¡r ra
Ġtrata ba
Ġperfec ciÃ³n
Ġaut oma
Ġafec tar
.. ...
ĠN or
Ġdes igual
Ġsegu imos
Ġcon tienen
it amos
Ġautor a
ĠcuÃ¡n to
Ġvesti dos
Ġpa trÃ³n
a ta
h h
Ġutiliz ada
t ul
Ġpes cado
Ġan dar
ora ciones
Ġcu yas
! .
H emos
ĠJ ur
T C
ĠS ER
Ġsimp les
Ġtra je
Ġfran ces
AR IO
il an
ĠPro p
Ġd uelo
Ġa gencias
m y
Ġespos o
Ġconsi go
Ġm isterio
v ada
Ġ8 00
Ġgan ancias
Ġincre mentar
val uaciÃ³n
ĠRe ci
Ġten Ã©is
ĠmÃºs icos
Ġcuan tas
ĠDiv isiÃ³n
Ġus os
Ġserv idores
e ja
Ġtarif as
il er
a x
Ġa qu
ÃŃ es
Ġres pira
i anas
ĠDis pon
Ġfar mac
er se
Ġespeci alizados
Ġcontro les
Ġhac ÃŃan
Ġcos tumb
Ġcob rar
Ġ- -
Ġmostr ado
Ġrecor dÃ³
Ġblan cos
Ġentr Ã³
ĠmÃ¡ r
Ġap rue
Ġabier tas
te x
ĠV il
Ġsuf re
ÃŃt icas
Ġsecre tos
p ado
S oy
Ġcatal Ã¡n
Ġor d
Ġ199 8
Ġinf antiles
Ġvari ables
Ġpolici al
ĠPor no
Ġl anza
Ġreduci do
Ġver s
ĠPat ri
Ġs ana
Ġvia jeros
Ġdest rucciÃ³n
Ã¡n dal
Ġ6 4
Ġblog s
ti mas
Â ±
Ġri v
Ġpelo ta
ĠF oro
Ġsuper viv
at ch
Ġsorpren dente
Ġtit ulado
d amente
ĠGra tis
ID A
Ġta pa
Ġcon fec
ier tos
ad rid
grÃ¡ ficas
ĠEl los
In icio
Ġp istas
ĠI de
l id
Ġelabor ar
en zo
k es
Ġh arÃŃa
ĠRes oluciÃ³n
ĠNav arra
Ġten gamos
Ġsec undaria
6 9
ĠAl onso
Ġafec tan
Ġam an
Ġprior idad
Ã ¶
AD OR
Ġab on
Ġo este
ĠProfes ional
Ġev ent
Est Ã¡
Ġjue ces
ĠGab riel
Ġde ter
ĠMad uro
Ġarri es
Ġdi arios
Ġdisfru ta
Ġfemen ina
Ġfru ta
Ã³l ico
Ġsing ular
h tt
ti ta
ĠclÃ¡s ica
Ġin al
ible mente
Ġpele a
Ġco bre
ĠT re
ici osa
Ġhay as
ul iar
fic e
Ġne um
Ġacab Ã³
ĠH al
Ġdepor tivas
ĠPar ti
cu bre
Ġmonta Ã±as
qu ero
Ġsolici tudes
Ġcomun ica
ĠZapa tos
ĠOr g
ĠprÃ¡c tico
ĠF Ãºtbol
et h
h um
Ġva g
P rim
Ġd as
F i
ortun adamente
Ġte Ã³r
Ġap ell
an gel
ĠProduc tos
Ġvas o
Ġtes is
Ġmens ual
Ġdic tadura
Ġcub ano
c amos
Ġverdadera mente
Ġsal ga
Ġpel ic
L AN
ÃŃs ica
Ġn ub
8 9
Ġch ino
Ġceleb rÃ³
Ġenerg Ã©tica
Ġ ....
Ġr uso
ĠC ity
Ġconsul tas
Ġmon tar
F o
8 4
Ġencuent re
Ġpul gadas
Ġautob Ãºs
Ġis las
Ġlleg amos
Ġsab ido
Ġlo gro
ĠI gnacio
ĠGu ti
ĠSegu ro
und amente
ec k
Ġclar as
du ra
ÃŃ das
ĠRes erv
Ġman z
di gos
Ġata car
Ġb acter
Ġjuris dic
Ġrespons abilidades
ĠbritÃ¡n ico
Ġcolec tivos
Ġfavor ita
S us
ĠV ÃŃctor
ig ma
N a
Ġcarb ono
Ġmarc ador
ĠFin almente
ĠT anto
ay o
Ġquin to
Ġag rup
Ġprotes ta
Ġdesaf ÃŃo
Ġcons a
Pue de
ol as
tur adora
u u
ĠU til
Ġch ar
Ġcal cul
ĠCor ea
Ġantigu as
Ġdesarroll ando
Ġins crib
E X
Ġconoz co
Ġdim ensiÃ³n
Ġad quier
Ġrecog ida
in arios
Ġson idos
Ġindic an
dr ome
ĠparÃ¡ metros
ul t
Ġconstitu yen
201 3
Ġhi pÃ³
un cias
ĠEx tre
ĠB B
Ġaler ta
l ace
Ġrelev antes
ro v
Ġc ens
b ano
ber t
ĠFran co
T M
ĠR ock
Ġfuncion an
ĠP es
Publ icado
Ġtrans iciÃ³n
Ġtu viera
Ġprecios a
Ġvesti r
Ġdis cur
Ġocas ion
Ġcas co
ĠC alidad
ĠÃģngel es
Ġlim itado
ĠL AS
l s
Ã© ticas
Ġhu Ã©spe
Ġper pe
Ġgal erÃŃa
Ġem is
Ġsi mpl
Ġinter iores
Ġon ce
Ġconoci das
qu esta
enci ana
Ġvig encia
l ero
ĠAustral ia
Ġdefec to
Ġrepe ti
â Ĩ
Ã± Ã³n
Ġpresiden cial
Ġfund aciÃ³n
Ġpec uliar
ĠCur so
F A
Ġc lan
Ġescri torio
Ġlig eramente
u le
Ġintro ducciÃ³n
ĠA gua
Ġme dal
ĠW i
Ġsu ena
Ġcumpl en
et s
ad i
Ġincor pora
Ġmetodo logÃŃa
ĠM AR
Ġmanda to
Ġparticip Ã³
cu enta
es ter
Ġtom an
Ġdef ien
B ien
ĠestÃ¡ndar es
Ġresiden tes
to ck
ci sta
Ġtol er
comun icaciones
ĠL O
ĠB at
Ġescri tos
tu vieron
ĠOb ama
Ġtras cen
ĠH el
gÃ¼ edad
Ġextra Ã±a
endi Ã³
Ġpl Ã¡st
ev ita
ĠCampe onato
ol vid
Ġk g
ĠRe f
Ġfacil ita
ara gua
ĠMar cos
Ġlig ero
endo za
Ġcomple ment
Ġgrave dad
b uen
Ġsuf ren
Ġrom p
ribun ales
Ġab ord
Ġclar idad
Ġelim ina
b us
un tamente
Ġdismin uciÃ³n
Ġpresiden cia
Ġexcep to
ĠW h
Ġimple mentar
Ġfundam ent
ĠDo cu
Ġe cos
Ġpec ado
Ġcapit Ã¡n
Ġcoleg ios
rim as
Ġdesac tiv
Ġven ÃŃa
ĠEs co
ĠDomin icana
ĠAl go
Ġref res
Ġdiver tida
Ġcu ra
C N
ĠCan al
Ġbar rios
de la
le tÃŃn
Ġab uso
Ġmol esti
on y
d ing
Ġencontr Ã©
ĠV amos
cion ada
Ġmin i
Ġf ama
Ġsocial ista
Ġh un
gu era
ter ia
Ġtranquil a
Ġla vado
Ġconfir mar
Ġest er
gun a
V al
Ġe dades
ĠM y
Ġf lam
Ġfamos os
ĠJ ard
Ãº me
Ġre habilitaciÃ³n
id urÃŃa
Ġgener an
Ġasegu rado
Ġalgo dÃ³n
ĠprÃ©st amo
Ġm ueve
ĠU R
ĠXX I
ĠOc ci
ĠLeg isla
Ġcar o
Ġpol lo
Ġdismin uir
8 6
en ce
rac ciÃ³n
Ġgig ante
Ġhabitu ales
Ġley enda
ĠCon ce
Ġguar da
Ġsens aciones
es to
m ado
Ġte a
Ġexperim entar
ĠR aj
Ġjur ado
ĠPres u
Ġmanifes taciÃ³n
Ġtestimon io
ĠM adre
ĠfÃ¡ ciles
Ġinter nos
Ġextra c
Ġinter acciÃ³n
ĠtrÃ¡ mite
Ġabier tos
Ġdirig ente
Ġliber aciÃ³n
V D
Ġsorte o
Ġmus ul
Ġindic ar
u is
ac os
Ġapas ion
Ġl ento
ci dades
uy en
Ġin segu
f ia
Ġagr icultura
ĠIndust ria
J A
Ġvuel ven
I mp
di to
um er
ĠEnerg ÃŃa
Ġincorpor ar
Ġcon dena
Ġinstal ado
Ġse min
201 2
. :
Ġmaravillos a
ci ado
Ġens al
Ġre mon
8 7
ĠLu z
Ġle e
Ġco her
Ã¡n icos
Ġconsum ir
Ġdeclar ado
or gan
Ġtej idos
Ġsust an
ĠC Ã©sar
ĠP ac
oy a
Ġcon ferencias
Ġin genierÃŃa
ĠV ill
s or
Ġameric ano
ol ar
Ġv s
3 00
Ġalcan zado
Ġapren dido
em e
ez can
ĠPrim ero
ĠAlgun as
Ġreiv in
ec ÃŃan
gar Ã¡
ĠSupre mo
ĠAd ri
ĠdÃ© ficit
ĠB iblia
Ã¡ mb
Ġh isp
ĠCh ica
Ġllu vias
Ġpas aba
ĠPerson al
ort una
Ġinde mn
Ġpro vis
Ġac ar
Ġam bi
Ġcomb inar
Ġde presiÃ³n
Ġpre cip
Ġver te
p lica
, .
Ġcuar tos
ĠnÃºc leo
Ġva por
es en
di rec
ĠAr quitec
dr Ã¡s
se a
Ġal ianza
Ġdivers iÃ³n
Ġincl us
Ġespec ÃŃficamente
Ġco pa
Ġch e
ĠV o
and ante
T RA
Ġgastron omÃŃa
Ġpa pa
ter no
Ġestad ÃŃsticas
Ġclub es
Ġdesconoci do
Ġfun da
de st
Ġju venil
ĠEst ra
Ġhici mos
@ @
Ġindi rec
ĠVide o
ĠEsta tal
Ġde do
ĠT aller
Ġgrab aciÃ³n
ĠT rad
ĠB ay
Ġadv ir
Ġproces amiento
ĠdÃ³ lar
Ġin evita
Ġhec tÃ¡
Ġdetermin adas
Ġdis cul
Ġbol sas
Â Ķ
Ġconcl usiones
Ġvalor ar
Ġlin ea
Ġen ormes
ÃŃn sula
ĠN ada
Ġapara tos
Ġvari able
Ġin esper
Ġrela tivamente
enci ado
Ġpos esiÃ³n
ho p
Ġvideoj uegos
l era
Ġviv os
tor as
Ġdesper tar
Ġmor tal
C am
ĠI gual
g io
âĢ ĺ
ĠC L
ĠU b
Ġrep ente
Ġmadri le
ĠCÃ¡ diz
Ġap e
Ġob tiene
Ġex quis
ĠSam sung
Ġcul turas
ÃŃ e
Ġan uales
ĠR ich
Ġfron teras
te ar
Ġconce jal
ĠIndustri al
Ġcolabor adores
Ġweb s
Ġcap ÃŃtulos
Ġg iro
i ja
Ã©r rez
Ġimpe dir
Ġcompon ente
Ġpos teriores
Ġexcep cional
ig an
ĠAn uncios
Ġbeb er
ĠE P
Ġconoc ÃŃa
Por que
Ġfac ebook
Ġdep Ã³sito
Ġsig no
Ġenfer m
Ã¡z quez
ĠDi putaciÃ³n
Ġinclu ida
c lo
Ġampl iaciÃ³n
> <
Ġcon tado
Ġman tuvo
ĠEmple o
Ġe rÃ³
Ġterri torios
ĠautÃ©n tico
Ġmulti plic
n ia
Ġbril lo
ce lo
Ġtarif a
Ġvia j
Ġcostumb res
Ġtrans mi
Ġmanda tario
ub o
Ġvie jos
ĠM esa
ĠUS B
Ġhar ina
Ġexpe diente
Ġinv itaciÃ³n
Ġciudad ana
ĠTÃ©cn ico
ĠF an
Ġfinanci eras
Ġnove dad
ĠC AR
ol os
Ġrespe tar
ĠSal Ã³n
Ġclic k
Ġpres i
Ġviol aciÃ³n
Ġmal tra
Ġresta urar
Ġver Ã¡
Ġven cer
ĠSe lecciÃ³n
Ġescol ares
Ġcal ific
Ġbel la
ĠS ha
Ġvuel va
Ġaf uera
Ġterri ble
Ġambient ales
ĠH emos
Ġtrans forma
Ġacus ado
fic ar
ĠCh i
ĠJim Ã©nez
Ġla go
D os
Ġcomerci alizaciÃ³n
Ġm ales
gu as
du jo
Ġproyec ciÃ³n
Ġp use
Ġpudi endo
Ġger ente
t ano
ĠD em
Ġincon s
ent re
Ġp Ã¡
Ġensay o
g adores
ab ra
ĠFamil ia
Ġdescub rimiento
ĠGust avo
Ġin tr
Ġcolabor ar
Ġfrecu entes
Ġdescu bre
Ġnov elas
Ġperfil es
Ġser a
ÃŃ rez
Ġmotiv aciÃ³n
ĠUnivers itario
B O
cer tid
Ġcol onia
Ġgig antes
uc o
ĠFe der
f ol
Ġges to
Ġas ust
tique tas
Ġdeman das
Ġterren os
v Ã¡n
ĠC oci
Ġtesti gos
Ġ5 2
em bol
Ġven den
Ġre duc
c aba
Ġdi d
Ġvicepres idente
Ġgal le
g s
uch e
Ġprev Ã©
Ġad mir
Ġdesapar eci
Ġcent rales
Ġgra bar
ÃŃ timo
Ġhacer le
Ġbrin d
Ġ5 6
AS A
Ġca denas
Ġf la
ĠD in
Ġvenezol ano
Ġalre dedores
Ġestu viera
ch ar
P as
ĠL ar
Ġfi jo
z co
Ġqued ando
Ġllev amos
C ON
ĠT iempo
Ġperj ud
a par
Ġescuch a
ig e
C an
ĠC R
Ġpresent ada
Ġam ante
Ġpor tada
Ġbols illo
Ġle ve
Ġreg ionales
Ġll or
ĠK o
lo w
r icas
ĠÃ© tica
ĠS tre
ĠGuadal ajara
ĠMar ina
i riÃ³
Ġa venida
Ġautom Ã¡tica
Ġpien san
n ar
Ġpresu puestos
ĠMa uri
Ġencontr aron
Ġrecin to
Ġin g
Ġm ÃŃa
Ġdec enas
ĠG an
Ġh echas
ĠFran k
ĠvÃŃn culo
Ġdis puestos
if i
Ġdem ues
Ġtu bo
Ġmier da
Ġn ube
m ico
C D
Ġex ce
ĠJ udicial
Ġqu ir
Ġdepartam entos
ĠL ED
ĠelÃ©ctr icos
Ġesque ma
Ġexp uls
Ġalcan zÃ³
m Ã³s
J os
ĠPue blo
Ġcam ar
Ġjugue tes
ĠEs cri
4 00
Ġh ard
Ġjard ines
ĠTener ife
201 0
Ġen g
Ġme lo
Ġpens Ã©
Ġentreten imiento
Ġas iento
on ÃŃa
pres s
bo ok
Ġnota ble
uc risto
V E
tr ico
Ã¡nd ome
Ġinter rump
ĠP ens
ĠB ach
ĠJa ime
u ar
G ran
Ġin olvid
ĠS L
ĠTo ledo
Ġabs ur
7 6
Ġadministra tivo
ĠÃ į
Ã± ad
c ÃŃas
Ġhuel ga
ĠE gip
gra mas
es es
fa z
Ġv ieron
Ġgri e
Ġca za
an ti
ĠP ap
ĠMa x
pues tamente
Ġgener ado
Ġcer tificaciÃ³n
Ġjun tas
fec to
as ter
ĠM endoza
Ġmanten iendo
allado lid
Ġsens or
ac ruz
ĠV a
ĠF ron
Ġpresent aron
Ġresist ente
Ġpas aron
Ġv illa
m io
Ġdia gnos
Ġgl oria
Ġadministra tiva
tr ando
ĠðŁ ĺ
Ġdes cri
ĠMi ami
Ġfun dador
Ġp le
Ġinten sa
aman ca
Ġsal arios
Ġag ru
Ġpose en
lor ca
Ġcons cientes
on de
ĠCom paÃ±
am ora
Ġde tenciÃ³n
Ġposi tivos
Ġse mi
Ġch o
Ġencontr arse
Ġmu ro
Ġderiv ados
Ġpresenta ciones
Ġescri tores
Ġavan zado
ĠTam poco
Ġbor do
Ġqued arÃ¡
Ġpu ta
ti f
log ÃŃas
or ada
Ġacor de
ĠP ros
Ġsuf rimiento
le tos
tern idad
Ġher e
ĠJo aqu
ĠS tu
F ran
Ġaclar ar
Ġsu pera
UL O
e jas
Ġc itado
is s
Ġizquier do
Ġon da
Ġdormitor io
grÃ¡ ficos
ig ar
ĠDon ald
ĠcÃ¡l culo
ĠL l
ĠVer de
Ġcontinu o
m uy
Ġex hib
pi ro
ĠS igue
ĠC erv
h al
Ġperju icio
ĠO pera
Ġmus cular
ri z
Ġbeb Ã©s
Ġvo taciÃ³n
c era
Ġquin ta
ĠtÃŃp ico
Ġcompar tido
Ġx xx
Ġsal idas
Ġqu ie
ĠPat rimonio
Ġsuper mer
Ġexig ir
Ġcir cular
Ġ zo
Ġmedi as
Ġcomple mento
Ġdeci s
Ġespec tadores
Ġv os
ĠgrÃ¡ ficos
Ġdese an
Ġh Ãºme
Ġale mana
ĠCl ÃŃn
7 9
D D
Ġcual idades
Ġru rales
Ġb is
Ġac o
ĠGran de
gu Ã©s
Ġinst an
Ġcas tillo
Ġnego ciaciones
Ġcar gar
i Ã¡n
Ġcorri endo
ill ones
ĠNe go
ob o
Ġven gan
m s
Ġhuev o
Ġin certid
Ġap ete
Ġpens iones
Ġocul tar
Ġab us
Ġte tas
Ġcomien zan
Ġbol iv
Ġlo co
ĠW hats
ĠmÃºs culos
Ġin to
di sta
Ġtra tados
Ġencan tado
Ġ1 000
» ¿
ri les
Ġemp e
Ġresca te
Ġpo p
ĠGuti Ã©rrez
ĠÃģlvar ez
ĠG RA
Ġinter ro
te os
ĠA gust
Ġrelig iosa
h ola
ĠRom ero
por que
Ġestu pen
Ġlin k
Ġcomprom isos
Ġpais ajes
Ã³ ma
T al
Ġsent imos
o tas
l ana
G R
Ġplan os
ĠS A
Ġdes gas
Ġinci dencia
O P
Ġclim Ã¡tico
ig as
Ġasc enso
ĠÃ¡n gel
or aciÃ³n
Ġvis ible
Ġtom o
iv idad
tiv idades
Ġreconoci Ã³
f ac
ĠMe j
Ġcre ador
Ġval le
ÃŃ genes
T ube
Ġj udiciales
T OR
iz as
Ġper si
ĠRob ert
Ġun ir
ĠW a
Ã ²
Ġf le
ĠRec ursos
l Ã¡n
Ġbar ro
Ġpr in
Ġs ar
Ġsu po
Ġregist rar
Ġrepar to
ĠBiblio teca
y ente
Ġsigu iÃ³
m ia
Ġsan ciones
Ġdirec ciones
Ġcap as
Ġsos tiene
Ġem isiones
f ord
C U
an der
ĠdiseÃ± ar
Ġcal ma
Ġmin erÃŃa
Ġante cedentes
Ġcas ti
Ġpar ale
nes s
5 9
Ġvitam ina
ĠE p
qu eros
Ġconf ort
Ġres tric
Ġcre an
uel ta
Ġartifici al
j idad
Ġestu ve
k u
ten a
ĠS AN
e gr
tific ar
ĠRaj oy
A b
Ġgras as
ĠR esta
uer tos
ĠJef e
qu ita
ĠPue bla
ĠâĢ Ŀ
Ġat mÃ³s
Ġimp rimir
ĠT ama
Ġdeten idos
ĠAl b
ĠK en
Ġsus pen
ĠAl fre
ĠsÃ© pti
ĠacompaÃ± ar
gr ada
ĠCa pa
y u
Ġmoder nos
ĠBl ue
col as
Ġd anza
Ġcal ef
Ġvista zo
Ġadap tar
Ġt im
Ġsuper vis
omos ex
Ġhosp itales
Ġocci dental
ĠSe ptiembre
Ġjun ta
Ġpas tel
201 1
Ġcan tar
Ġtra mp
ĠS tor
ĠRam ÃŃrez
ĠL og
ĠEsc orts
Ġimag in
Ġdisfru te
Ġviv iÃ³
Ġbeb ida
Ġsi enta
ome tra
Ġpobla ciones
Ġvisit ante
ĠS ent
Ġfran qu
Ġgimnas io
Ġdiscrim inaciÃ³n
R o
m un
Ã©st icos
T AN
vil a
Ġrecib ieron
Ġurb ana
Ġindependi entemente
Ġtra tan
Ġejemp lares
ĠrÃ© cord
ma cia
Ġqued aba
ĠFu ente
Ġle v
Ġre vela
Ġrent abilidad
Ġesper ado
Ġre car
Ġmantener se
Ġbus cas
an ia
ec uciÃ³n
Ġpromo ciones
Ġre torno
ĠCat Ã³lica
Ġforma tos
Ġnar co
Ġsatisf ac
f u
Ġcomen zado
v ir
Ġactu alizar
Ġhi jas
Ġcompar te
Ġhab Ã©is
Ġcumpl ido
Ġac tÃºa
adÃ¡ ver
Ġcor tos
ĠDoc tor
ti zado
C al
Ġv uestros
Ġprepar ados
Ġsosp ech
Ġempie zan
ent Ã³
Ġ199 7
Ġcuch ar
ĠGre cia
Ġoscu ridad
Ġas imismo
Ġdeman d
Ġretir ar
P r
J O
Ġcercan os
Ġconvier ten
Ġart ÃŃstico
Ġinterpre tar
Ġurg ente
Ġsan gu
Ġpon ga
ĠpolÃ©m ica
ĠNic aragua
Ġlum inos
Ġlle ve
Ġal ine
Ġcoment ado
Ġrad ical
Ġdesgra cia
EN CIA
Ġesta tales
Ġcomp uesta
Ġpresent amos
Ġdesp la
Ġencan tan
Actu almente
Ġtra m
Ġpre ce
ĠfÃŃs icos
N I
Ġpin ta
F OR
E P
ĠLa ura
Ġse pa
Ġk e
Ġsu ya
Ġintelig entes
Ġmi el
ĠRev ista
Ġtar des
Ġpar ado
ĠDe moc
P e
ĠA par
Ġreconoci da
ion eros
Ġpe trol
i tis
Ġher idos
Ġtradi ciones
d ones
ri ta
ion istas
Ġconsider ada
Ġatra er
ĠâĢľ Â¿
ĠA po
Ġconven cer
Ġref rig
ach os
Ġah i
o f
Ġob viamente
Ġafec tado
Ġbotel la
oc ar
ĠPal ma
Ġsuce dido
Ġsuce diÃ³
t ti
Ġna tur
per son
Ġrealiz arse
ĠPÃºbl icas
Ġproce dentes
ch i
Ġenerg ÃŃas
Ġdul ces
Ġcambi ando
er es
Ġin tes
Ġen mar
Ġexter na
Ġtranspar ente
Ġpelig roso
h ay
ĠJes ucristo
id ro
tin es
Ġaf ric
Ġadap ta
Ġadop tar
Ġefec tivos
p ue
Ġre di
Ġan gust
Ġmanifies to
Ġmol de
ent ando
Ġsus pendi
Ġavan zada
Ġre ver
ĠC ub
ĠAgr icultura
lo gos
Ġpoder oso
iar ia
Ġestu p
Ġcom enta
Ġotor ga
Ġdue Ã±os
Ġvac a
Ġdev oluciÃ³n
ĠElec toral
Ġlig era
Ġrestau raciÃ³n
Ġemp ate
Ġex posiciones
Ġcre ce
ĠMar iano
Ġpas amos
Es paÃ±a
ĠP ra
Ġen gan
Ġprof undamente
Ġmin isterio
Ġdesp acho
Ġdesarrol lan
ec Ã©
ĠAl l
ĠM ara
Ġdi rÃŃa
Ġpe didos
Ġsa que
fici entes
Ġden uncias
Ġ9 9
ĠMerce des
gr ados
Ġexplor ar
Ġextrem adamente
Ġab uela
ĠE u
ĠJu z
ĠC ro
Ġnorm ales
m or
Ġdesaf ÃŃos
Ġefec tivamente
it co
Ġpresent arÃ¡
Ġman io
Ġbar es
u til
Ġ5 1
ex o
Ġment ira
d ora
u j
Ġir Ã¡
ĠMan cha
Ġnave gar
ia ciones
Ġlocal idades
ĠOb serv
Ġop tar
Ġconfirm ado
Ã±o z
Ġlin do
Ġre bo
En tonces
Ġencontr arÃ¡
Ġrefor zar
Ġa tro
t te
m Ã¡tico
Ġc adÃ¡ver
Ġcamis etas
Ġvertic al
c Ã©
Ġcap tura
Ġedi ciones
h ar
Ġdesapar iciÃ³n
ĠN A
Ġdepor tivos
ĠRe ina
Ġcontras eÃ±a
Ġmanif iesta
Ġprestig io
Ġalcan z
ĠMov imiento
ĠdÃ© ci
Ġtecn olÃ³gica
an im
fi gu
Ġdeleg aciÃ³n
hi bido
Ġsepar ado
Ġcambi Ã³
ras es
res a
Ġhab ÃŃamos
ĠVe ga
C L
Ġrela tiva
Ġpresu pues
ĠÃģ rea
ĠB ajo
Ġextre ma
ĠB i
ĠV enta
Ġnove dos
Ġmo ch
Ġrecom endar
Ġanim aciÃ³n
Ã¡c tica
an i
Ġsin cer
Ġauxil iar
Ġdirec tivos
Ġreg ula
ti pos
Ġcon tener
ĠRiv era
Ġ5 4
Ġpol la
Ġentrev istas
Ġrad i
gÃ¼ enza
Ġc Ã©
Ġmercan cÃŃas
Ġca z
Ġperten ecen
ĠS or
Ġcont un
Ġgas olina
Ġdescan sar
Ġadul to
Ġ199 6
Ġ18 0
ab ell
ĠN ar
ĠA Ãºn
ici embre
Ġga tos
es or
Ġre cal
Ġindispens able
Ġindic adores
Ġch ina
Ġexpres iones
. ).
cional idad
Ġocup aciÃ³n
To da
Ġdetermin aciÃ³n
Ġense Ã±a
iz os
Ġu Ã±as
Ġemp o
Ġrel len
ĠM E
ĠEgip to
Ġsab idurÃŃa
Ġextraord inaria
Ġpublic ados
J o
Ġac omo
ĠhectÃ¡ reas
Ġre t
ten s
Ġcomple jos
Ġmone das
onces to
5 7
l fo
ĠL ÃŃnea
Ġen tera
Ġpaque tes
Ġcin cuenta
ĠGuer rero
Ġtesti go
Ġas im
fon ÃŃa
ĠSe lec
Ġgan adores
r erÃŃa
Ġfron tal
ĠEncuent ra
P OR
ĠS tan
ĠPara guay
Ġesc Ã¡ndal
ĠLor enzo
Ġpens amos
r ent
Ġconsider Ã³
Ġlogr aron
Ġasoci ado
ĠH ombres
Ġo pos
ĠC ic
Ġras gos
ĠLe e
Ġl ici
Ġoper adores
Ã§ a
ĠestÃ¡ bamos
Ġc ro
Ġa ula
Ġcre encias
Ġinfec ciÃ³n
ĠacadÃ©m ica
Ġar oma
Ġinteg ridad
Ġinv itado
Ġ5 7
Ġescuch ado
ĠIn glÃ©s
ĠV alladolid
Ġincendi o
Ġsole dad
ad ar
Ġtrans fer
Ġeduca tivas
Ġcotidi ana
Ġver la
Ġe mitir
ĠR en
Ġacab o
ic ciones
Ġh omosex
ĠCon st
Ġpus ieron
as t
Ġinici os
Ġafec tadas
Ġepiso dios
Ġp iden
tu oso
Ġtempor adas
Ġi b
Ġ7 2
pu bl
Ġdoc trina
To das
Ġcont ando
jal Ã¡
Ġcompa tible
Ġ199 5
iden cial
m Ã³n
Ġprome te
Ġofici almente
Ġsorpren der
ad uras
Ġintegr ada
ĠgrÃ¡ fica
se lo
b ack
ĠN uestros
ĠX VI
Ġunivers itarios
m u
Ġin vi
Ġm g
Ġtro pas
Ġdes ierto
P R
Ġde biÃ³
Ġsupon go
Ġcol oca
Ġcrea tivo
Ġpor quÃ©
Ġh em
Ġtra te
ĠJun io
AN A
Ġban de
Ġev angel
M on
P I
Ġrecur rir
Ġal za
ĠMin istro
Ġsu puestamente
ĠÃ©x itos
Ġp p
dis cipl
Ġlim itada
ĠautÃ©n tica
Ġd ram
Ġ199 4
li que
Ã¡s ico
ĠCon ten
Ã¡m ites
Ġselec cionado
Ġhomb ro
Ġobserv aciÃ³n
ra miento
ĠE D
AR C
Ġf ortuna
Ġma tr
Ġnav idad
Ġtecn olÃ³gico
Ġs tan
ĠDirec tiva
Ġre tom
el los
ĠInf antil
Ġf ores
Ġta tu
Ġt ÃŃo
gres os
En cuent
Ġconcluy Ã³
Ġlla ve
ĠN ike
Ġev ita
ĠD ie
Ġbron ce
ĠC ort
ri e
ĠA F
Ġper dida
Ġcrist iana
se x
Ġsegu ÃŃa
Ġvoc aciÃ³n
Ġayudar te
ĠDepor tivo
ĠAc ces
re al
Ġar a
ĠIn nov
Cu Ã¡n
Ġsomb ras
el le
Ã± al
Ġden s
B RE
cios a
Ġl Ã¡g
Ġsobreviv ir
por aciÃ³n
ri mos
Ġblan cas
5 6
tr en
8 00
Ġbos ques
Ġp iz
ÃŃ colas
Ġs ano
N e
Ġco Ã±o
Ġsobres al
ĠAr gent
ĠprÃ©st amos
Ġposi cionamiento
Ġra yos
ĠcÃŃr culo
ce la
dic es
ĠR an
ros s
ti Ã©ndose
uer te
get ales
Ġsist em
Ġdestru ir
Ġc ep
vi deo
Ġenfr enta
am pa
Ġtex tura
Ġsi tÃºa
Ġdest inados
Ġo pon
ĠEn fer
f l
Ġo ut
Ġcu bre
Ġnum ero
Ġr ÃŃos
Ġexig encias
Ġna vide
Ġreal ice
Ġcon cer
ste in
ĠMo tor
Ġargent inos
ic ho
Ġv era
Ġcontemp la
ĠF igu
Ġinstitu to
Ġdecor ar
Ġlim itaciones
ĠS istemas
Ġtra ge
Ġnecesita ba
Ġpregun tÃ³
Ġaprob Ã³
aque ta
Ġprofes ora
Ġmas as
Ġgener ando
Ġfas es
ĠAb ril
Ġsent ado
re mo
Ġru p
ĠDe leg
Ġhum anas
Ġsuel do
Ġb er
ĠlÃ³g ico
Ġc il
h ÃŃa
Ġmaravil la
Ġofre ciÃ³
Ġpar ezca
a po
Ġencuent ras
s able
Ã¡m icas
Ġadecu ados
Ġtom e
Ġconform an
Ġacom paÃ±a
Ġhub ieran
Ġlog ros
Ġj ab
Ġetique ta
Ġconces iÃ³n
ĠBol sa
Ġmad u
Ġus ados
Ġperson alizado
us k
mple mente
Ġpar ques
Ġconv iene
ĠAl ianza
or di
ĠG eo
Ġsol os
Ġa is
Ġbon itas
Ġcarre teras
Ġtitular es
Ġp ist
Ġp ico
ĠGe orge
Ġmu r
ĠH ola
Ġen cer
Ġarreg lar
c Ãº
ir ch
ĠGu ÃŃa
Ġcuar enta
ĠC ualquier
ines s
ĠS I
ĠhuÃ©spe des
Ġcre di
gu i
Ġvolun tarios
T OS
Ġcom isiones
Ġacel er
L le
ĠPresiden cia
Ġrode a
ĠquÃŃm icos
Ġ5 9
Ġempres ariales
Ġper dÃ³n
ĠOr tega
Ġmanten ido
Ġcorreg ir
Ġs illas
ĠatmÃ³s fera
Ġinvestig ador
and ra
Ġcul to
Ġro ca
ĠlÃ¡ mp
Ġsem estre
el aciÃ³n
aliz an
Ġtras tornos
Ġcompar ten
Ġcome tido
Ġtras era
ĠEncuent ro
are la
Ġobten idos
Ġurg encia
ĠbÃ¡s icamente
ĠreÃºn e
Ġdesarroll Ã³
, "
Ġch av
m ens
Ġarre p
Ġcal ificaciÃ³n
Ġimp ide
B L
y an
ur g
Ġjud ÃŃos
F u
Cu Ã¡l
Ġ199 0
ik a
Ġsemej ante
Ġconex iones
Ġemple os
ĠLuc as
x a
Ġcre es
Ġenvi Ã³
je cimiento
Ġterri torial
ĠA quel
Ã³ tica
Ġaqu Ã©l
Ġinm ueble
ĠMu Ã±oz
Ġzapa tillas
ist ente
te za
Ġinaugu raciÃ³n
Ġcon taba
Ġdar te
ĠT orn
ĠCu ar
Ġelector ales
Ġreflex ionar
Ġco j
Ġamb ientes
Ġdescrib ir
Ġcr on
Ġsecund arios
Ġcabal los
Ġdestac ados
ĠPrim er
ĠCon ven
Ġcos m
d ul
Ġfundament almente
Ġha gas
Ġterror ismo
cor e
Ġcapital ismo
pro duc
Ġj ajaja
EN A
Algun os
ĠSi ria
Ġh Ã¡b
ĠL abor
ĠFlor ida
Ġsens ible
Ġjapon Ã©s
v ieran
Ġequip amiento
Ġsec ues
y ac
Ġarmon ÃŃa
ĠS ig
Ġdesapar ecer
Ġespecial idad
ĠMauri cio
ĠAn im
Ġdeter mina
Ġsal ieron
Ġcontras te
Ã©di to
ĠJoaqu ÃŃn
Ġplen amente
Ġpresent arse
Ġautom Ã¡tico
Ġnar iz
it ro
ĠAtl Ã©tico
Ġrelev ancia
Ġdiscu tir
P U
Ġargu ment
Ġconduc e
Ġper diendo
Ġtrist eza
Ġi ra
ĠR ay
Ġmol inos
ec t
aj ar
Ġdecir lo
Ġconqu ist
uev en
qu era
Ġrad ic
r Ã¡s
tr ica
Ġdecir le
Ġproce de
ĠR ES
Ġinvers ores
Ġhab iendo
ĠA T
Ġven ga
Ġp acto
Ġins ec
Ġpla zos
ion s
Ġsolu cion
ĠR amos
ĠFuer za
Ġco gn
Ġcorre os
Ġfi eles
ĠV el
dri go
Ġsust ancia
Ġanun cia
Ġpat ria
Ġdeci dieron
am arca
Ġentrev ist
Ġpatr ones
Ġque b
Ġred acciÃ³n
Ġconfigu rar
m el
Ġcal zado
Ã¡ndo los
Ġpi ra
Ġren uncia
d ro
Ġcu sto
tÃ¡n dose
aliz ando
J uan
gu almente
Ġal u
ĠTer ri
Ġbru tal
Ġsex y
Ġ5 3
Ġmasco tas
uev o
Ġpantal las
Ġdo bl
Ġfir mar
tur b
Ġex Ã¡menes
Ġmostr ando
Ġde gust
je mp
Ġmi x
** **
Ġemp a
Ã©r icas
res iÃ³n
ĠMed ina
Ġdirec tores
Ġpermi tiendo
Ġcompren de
ĠVas co
der s
pe cial
ĠW e
k ers
Ġsin ies
Ġrevel Ã³
ĠMar ia
Ġrap idez
Ġentre gÃ³
cep to
fit ri
ĠP ort
M Ã©
Ġinten ciones
Ġdios es
Ġclar os
Ġmascul ino
yec tos
Ġflex ibilidad
Ġdepor tistas
Ġcr Ã³nica
c usiÃ³n
ĠSec ciÃ³n
Ġve getales
Ġpar to
um as
Ġincertid umbre
Ġcomple jidad
m ita
un ya
ĠS ac
ĠPre cio
ĠPÃ¡g ina
Ġre cip
ĠR oc
Ġextre mos
ĠJ ac
Ġasegu ran
Ġir se
Ġabor to
IN G
Ġre medio
ĠConstitu cional
ĠG Ã©n
Ġsu puestos
ti za
Ġne gar
ĠCuer po
Ġreac ciones
Ġfantas ÃŃa
Ġmus ica
Ġcos tado
Ġensay os
Ġin ac
Ġo di
ĠMo der
ĠCon ferencia
Ġav iones
ĠP RE
ĠAb og
ĠF ol
Ġv imos
ĠC V
Ġgu iÃ³n
ier as
Ġ5 8
Ġex ista
Ġsome ter
Ġres eÃ±a
Ġempren dedores
ĠHon duras
Ġinter venciones
Ã¡ ut
Ġcru zar
Ġfor os
Ġcal orÃŃas
ul ados
Ġdisfru tando
f or
r adora
Ġital iana
Ġpilo tos
Ġfinanci amiento
Ġinforma ciones
Ġra mas
Ġ0 9
Ġub ica
Ġinter faz
Ġfortal eza
e Ã±as
Ġinf lam
Ġsindica tos
Ġencontra ban
Ġprop uesto
ĠD ia
ĠSE O
ĠYou Tube
Ġdo lores
Ġexter no
Ġhues os
Ġinform Ã¡tica
ĠOl ÃŃmp
Ġsem if
Ġconcep ciÃ³n
ĠCar acas
ik i
Ġrazon able
Ġmec Ã¡nica
Ġcon duci
cin g
Ġcu otas
Ġtir ar
ĠAmb os
Ġis rael
Ġrespec tivos
Ġconj unta
ly wood
ĠW ord
Ġform ada
por tes
Ġsub ra
Ġpoten ciales
Ġmad rid
Ġun idos
je tivo
ĠD iciembre
ĠMas ter
D entro
em ia
Ġqu ita
Ġes qu
ĠH ijo
Ġbloque o
ĠI z
om ento
Ġinv is
ĠquÃŃm ica
Ġlo cura
Ġvol ante
Ġlim ita
ĠClar o
Ġch oque
Ġproto colo
ĠD entro
Ġal b
ta bles
ĠS co
ac he
Ġcorrespon den
Ġac titudes
til los
5 8
Ġinici ado
Ġla p
ĠÂ ĵ
Ġconfir ma
Ġsec ciones
ĠPar ece
ĠTer esa
Ġgu i
Ġapar entemente
ric h
ĠF ra
t to
Ġres pir
ĠMac ri
Ġregist rÃ³
Ġsan ciÃ³n
Ġprev ista
ĠEx p
al iciÃ³n
Ġfu turas
Ġnerv ios
ĠB ill
Ġo v
Ġcome dia
Ġcomunic ar
Ġcub anos
Ġdifun dir
Ã©r pre
Ġver ificar
ĠG or
ĠF orma
Ġno ble
Ġconserv ar
m adura
al im
ĠE dad
ĠS ara
H o
Ġden omina
Ġcomp l
Ġar res
Ġay untamiento
Ġaplic able
C OM
Ġun ido
Ġ7 00
ĠacompaÃ± ada
Ġnutri entes
Ġhal lar
Ġneg ras
ĠPar k
v ista
ti t
ĠSal amanca
Ġdesemp leo
Ġest Ã©s
Ġliber ales
Ġcomp rado
ĠAcu erdo
Ġen vÃŃa
Ġh ech
Ġconec tado
ĠD VD
ĠC rea
Ġab ar
Ġm ama
ĠE le
Ġexten der
Ġentusias mo
Ġsum amente
Ġaut ent
Ġadecu adas
Ġconserv a
Ġmedi ciÃ³n
Ġconse jero
Ġconstitu ciÃ³n
Ġtr Ã¡mites
Ġlim Ã³n
Ġp eces
ĠDis ney
Ġsolici tado
ĠConse jerÃŃa
Ġado pciÃ³n
Ġ6 9
Ġaf iciÃ³n
z i
om en
per s
Ã©ndo le
5 4
Ġefectu ar
Ġhig iene
S T
ĠSer Ã¡
Ġre en
Ġpres ta
Ġempez aron
Ġde cep
Ġob tenciÃ³n
CI O
Ġperson alizada
Ġaver igu
Ġban ca
Ġcam ion
cul as
Ġextraord inario
Pue des
Ġhal laz
Ġesp ada
ĠdiseÃ± ada
ĠEvan gel
ĠincreÃŃ bles
Ġbo x
E B
ĠL eo
ion ista
Ġemb al
Ġol iva
Ġunif orme
inten do
it ch
C P
Ġcer rÃ³
ĠMar ta
Ġdo l
Ġquer idos
V amos
Ġ199 3
Ġconcre tamente
Rec uer
Ġp ÃŃ
Ġconcl uir
Ġsolici ta
ĠPla ya
Ġproce der
Ġgrad u
Ġcent ra
Qu ieres
Ġcier ra
Ġper don
Ġsab ores
ĠHab ÃŃa
T er
Ġal turas
Ġriv ales
Ã³m icos
ĠPer io
Ġpantal ones
Ġdefini tivo
Ġf oc
ĠAn Ã¡lisis
ĠfantÃ¡ stico
H A
Ġdes vi
g ol
Ġunivers itaria
Ġne ur
Ġdeci dÃŃ
Ġdeci mos
Ġenerg Ã©tico
ã Ģ
Ã© ano
ue ba
or ado
os ten
Ġguar dia
ĠpÃ¡rra fo
Ġde tecciÃ³n
Ġconduc tores
Ġex teriores
Ġdenomin ada
Ġblo ques
g Ãº
ĠseÃ± ores
Ġtur ÃŃstica
ĠRio ja
Ġedi tor
u za
ell i
f Ã³nica
Ġsignifica tivo
Ġp si
ic to
Ġafir mar
ĠCom pe
ĠI ra
Ġcul tivos
Ġfavor ecer
on i
Ġda ta
EN TA
ĠM ach
Ġherman as
uel to
Ġfach ada
Ġb ola
ĠB ale
Ġreconoci dos
ĠM ora
Ġsol itario
g ante
Ġanti gÃ¼edad
Ġsub e
Ġpudi mos
Ġinci dente
Ġgrab ado
ĠV illar
Ġca ÃŃdo
Ġoper ar
Ġap uestas
Ġterap Ã©ut
Ġfil tro
Ġconcre ta
us al
Ġ( âĢľ
Ġfi jar
Ġsopor tar
Ġac aso
Ġvol ar
Ġexpres amente
Ġse ca
ad al
Ġimagen es
V en
Ġprev al
Ġembara zada
J E
ĠA de
Ġatra vi
ĠO pen
Ġpropor ciÃ³n
ĠSu iza
des de
Ġco di
A pp
cu ando
Ġgust aba
Ġg am
l ara
âĨ ĳ
Ġb il
par se
D o
aron es
ĠUS A
ĠAp lic
Ġch u
ie te
Ġver Ã¡s
ĠRo ja
Ġhabl aba
ÃŃ var
e val
Ġcer rada
ĠQu iero
Ġcircunst ancia
Ġimp u
ĠRe la
Ġpap Ã¡
oc en
AD OS
Ġaument ando
v enta
Ġresul tan
Ġba tal
ĠL am
Ġas ent
Ġsust ent
em ento
200 7
Ġ6 6
Ġhici era
Ġeurope as
res tre
Ġfal so
Ġgo le
Ġejemp lar
Ġil ÃŃ
Ġconlle va
Ġform ando
Ġcorri entes
IEN TO
ĠMar zo
ĠIn tro
Ġexter nos
lan dia
Ġenten dido
Ġtrabaj amos
Ġfe der
ĠDip utados
Ġsalud ables
Ã©c tor
iÃ©n do
Ġenc uestas
Ġclas ific
Ġexpor taciones
ĠÃ©po cas
ĠVar gas
j ados
ĠdiÃ¡ metro
ĠA ten
Ġsobre todo
Ġperman ece
Ġt Ãºn
Ġar bi
ĠMal lorca
Much os
t ent
at ÃŃa
ĠVer acruz
ĠHer rera
ĠP ilar
Ġmejor ando
Ġfavor able
ĠB omb
at h
Ġ199 2
Ġtras pas
ĠComer cial
qu erÃŃa
le os
Ġcub ana
7 2
Ã©ndo lo
Ġma ÃŃz
Ġdin am
ĠmÃ³d ulo
Ġma il
Ġrealiz amos
Ġinclu idas
Ġsurg iÃ³
Ġo ch
Ġestable cidas
Ġsof ist
Ġtransform ar
Ġentre gado
ca den
Ġcontemp lar
ĠBer lÃŃn
ĠK ing
Ġf idel
Ġlle go
Ġaport an
Ġtal entos
ĠMunicip io
Ġpo emas
Ġproble mÃ¡tica
M adrid
ab uena
Ġse para
Ġreun ir
Ġpoten ciar
Ġempez ado
Ġdar Ã¡n
ĠU s
it ante
os idad
Ġapoy a
Ġfu ga
Ġrelo jes
ci ende
Ã± ones
x is
ĠDis fru
mit en
inar es
tÃ¡n eamente
Ġtab las
ĠQu in
ĠEqui po
Ġma pas
ĠJ al
Ġcan to
Ġempez ando
d re
Ġo ÃŃr
ĠCon diciones
CI AS
ĠRo jo
Ġan g
Ġne uro
In ter
Ġev itando
Ġpin turas
Ġcar dio
ĠS w
Ġor ÃŃgenes
Ġespecta culares
Ġenc am
Ġconven cional
ĠhipÃ³ tesis
Ġtur ÃŃsticos
un idad
ON A
ĠEl ena
h acer
ĠmÃŃn imos
Ġ6 8
Ġcompar ar
Ġcon cil
Ġpl us
Ġdesp lie
Ġsustitu ciÃ³n
Ġextra cciÃ³n
ing os
p ada
Ġsal udos
ĠTrans porte
ven a
ĠTo ur
Ġcam as
ĠC aja
Ġrecib irÃ¡
te z
Ġllam o
Ġmens aj
ik o
f r
Ġfoto graf
Ġconst antes
Ġgri ego
ĠEdi torial
Ġrecomend aciÃ³n
Ġchil eno
ĠCab all
e is
ĠPerson as
Ġaprovech ando
ÃŃgen o
ĠVal ent
Ġg oma
ĠEsta tu
ĠI VA
Ġ9 00
Ġf ina
Ġrelig ioso
ĠMar k
Ġnega tivos
F el
t adora
Ġpre ca
en io
ĠTÃ©cn ica
ĠM Ã¡r
ĠDe porte
y entes
Ġpo ema
ĠelÃ©ctr icas
ĠcÃ³ digos
Ġsat Ã©l
Ġinici almente
Ġrela tivo
ĠPe ter
tar iado
mit h
ĠÃºn icas
Ġnucle ar
Ġmig ra
Ġjust a
Ġimpon er
Ġseg mento
Ġex ager
Ġver gÃ¼enza
Ġmo bil
ĠG alax
ĠEx teriores
it z
ĠCon f
T ES
Ġan fitri
Ġcons ola
Ġpar al
ien se
Ġacercar se
Ġflex ible
Ġper egr
ĠR ural
Ġvolver Ã¡
Ġelev ada
Ġcop ias
ĠE U
Ġt ib
Ġpre domin
Ġpregun to
Ġmete or
L C
ĠCarta gena
Ġarm ado
Ġcocin ar
Ġpro cur
Ġsue los
Ġcor ona
Ġsu man
Ġsan to
Ġmaes tra
Ġh ero
Ġmedi ano
ie mb
uev as
ac en
ĠEx tra
Ġconf iar
estr ÃŃa
Ġsum erg
Ġac aban
Ġmen ciÃ³n
ru dencia
Ġvar iar
Buen as
Ġespec tador
polit ana
Ġg ala
Ġintent Ã³
irch ner
ĠJe an
s ec
Ġti ra
ti bilidad
Ġdro ga
man n
ĠVide os
ĠacadÃ©m icos
crip t
v ic
ĠS um
lo j
Ġit iner
Ġf icha
rech a
Ġexc usa
ĠB aja
Ġacces ible
Ġcomenz arÃ¡
5 3
cla je
A y
Ġmas ajes
Ġdesapar ecido
ĠSeÃ± ora
ill era
Ġoscu ra
ĠElec trÃ³n
Ġrefug io
Ġg ab
Ġsacerdo te
5 2
ke y
Ð »
ĠSan idad
Ġs ta
T iene
Ġfra ude
ĠcrÃŃt icos
iz ador
Ġvenezol anos
Ġencar gada
Ġcercan as
Ġbacter ias
Ġvitam inas
b en
Ġunivers itario
ĠA eropuerto
Ġc Ã³n
ĠTi po
ĠĠĠĠ ĠĠĠĠ
ĠfenÃ³m enos
ĠInte gr
ci entos
Ġllen ar
ĠT it
Ġhabitu almente
Ġre porte
ĠL im
Ġsuperviv encia
Ġsustitu ir
Ġcarb Ã³n
Ġexp uesto
Ġpa v
Ġde dicaciÃ³n
Ġme ga
I ON
ĠRe pres
k ia
ĠP ay
ĠOb ras
ĠAlfre do
Ġreserv ar
Ġaleg re
Ġperio dismo
Ġt ac
ĠGener ales
ĠON G
go b
P ER
Ġcol ch
oci miento
Ġabund ante
Ġre tor
Ġ3 60
Ġpi diendo
ĠC C
Ġman chas
Ġfarmac Ã©ut
Ġh umo
Ã¡ til
graf os
Ġr ara
Ġsal iendo
ĠPos t
Ġprom esa
Ġneces ite
l amos
Ġfac ultad
Ġespa cial
d ario
Ġmedic amento
gan da
Ġgra mos
S olo
Ġlengu as
Ġnomb rado
Ġagre ga
Ġidentific ado
ĠVal enciana
ĠmÃºs ico
Ġampl iamente
ĠCent ros
ĠQuiz Ã¡s
Ġcar peta
Ġconside ro
ĠFo tos
ĠInnov aciÃ³n
ĠA venida
Ġconm em
Ġso Ã±
esti ma
Ġfalle cido
ĠN adie
Ġgan ando
Ġadap tarse
Ġrequer imientos
Ã©n dez
Ġen o
ĠH y
Ġfalle ciÃ³
Ġpas arÃ¡
Ġhomb ros
Ġconoci Ã³
Ġdisc ÃŃp
ĠSu Ã¡rez
Ġhue co
ti gu
Ġch or
Ġbas ados
ĠIn genier
Ġfil as
Ġna tal
Ġmi to
Ġsac a
Ġsab iendo
Ġtu yo
Ġcomple mentos
ĠAn al
Ġinter v
Ġprim as
Ġconsigu iente
Ġpl acas
Ġl ingÃ¼
Ġconside rando
Ġse mb
Ġmon te
Ġcont ento
Ġcor rup
Ġaband ono
] ,
Ġcl Ã¡us
Ġdeb idamente
Ġsob r
Ġinfer iores
Ġnub es
Ġtama Ã±os
Ġcer tamen
Ġint entado
Ġreti ro
Ġse p
Ġpsic ologÃŃa
Ġan aliza
ik ipe
Ġnerv ioso
Ġest ÃŃm
Ġch i
Ġgas tar
Ġmi de
Ġcompet ente
Ġul timo
ĠIn di
Ġp df
Ġatrac tivos
Ġdesas tre
cion ista
Ġintegr ar
ĠCatal unya
Ġgas es
P C
na val
Ġmostra mos
P on
Ġdispon en
ĠJu ventud
Ġex poner
Ġpens iÃ³n
ie bre
Ġcer teza
Ġdar les
Ġcon greso
Ġprefer encias
ĠExtre madura
Ġten is
Ġre mi
gas e
f ri
pon es
Ġanunci ar
Ġcole gas
Ġlo ca
ĠRo drigo
Ġtar d
Ġalum nado
AR I
ĠobstÃ¡ culos
Ġmagn itud
Ġmuer tes
ĠEstudi o
Ġhistor i
Ġimper ial
Ġj ajaj
cil la
te gra
con tra
tab ria
Ġpe ores
di era
Ġcrim inal
ĠJos ep
Ġbrasile Ã±o
Ġenfer mos
ĠMe del
Ġmens uales
Ġve an
rue cos
Ġhab lo
Ġcomple ja
6 00
Ġtr on
?? ?
Ġc ement
ĠIs las
ĠXV III
P L
Ġtecn olÃ³gicos
Ġconst ancia
C abe
Ã¡ndo te
5 1
G RA
Ġre gen
ci tas
Ġdi al
Ġt rib
Ġcolombi ana
Ġexp licaciones
Ġrem un
Ġmoder nas
O O
Ġg em
ĠV ers
Ġsacri ficio
Ġh amb
Ġcalef acciÃ³n
ĠP ala
j unto
Ġde mo
Ġl entamente
Ġpl ac
Ġmar cÃ³
ĠCa teg
Ġcal ientes
Ġcom itÃ©
ĠTom Ã¡s
Ġprop ici
Ġpas tor
Ġf estiv
ur ado
ĠlÃ¡g rimas
Ġob s
ĠH uelva
ut ado
Ġt Ã³x
Ġpuer tos
Ġob ede
Le er
Ġpla y
te ur
ci c
ĠR oy
Ġfal tan
Ġencuent ren
ĠEx isten
Ġpres ion
Ġutiliz adas
Ġh ones
Ġjef es
Ġle ÃŃ
ĠCompaÃ± ÃŃa
ĠPsic ologÃŃa
Ġfuncional idad
Ġp ales
Ġfol lando
Ġperspec tivas
in oso
Ġhermos as
8 2
ta g
ĠPac ÃŃfico
ti emp
Ġenf a
am pl
Ġr usa
Ġsan itario
Ġfal la
Ġcan ta
c las
Ġter remo
ĠA ce
Ġrep ara
ĠCent er
Ġs eno
Ġest Ã³ma
Ġcab ec
Ġbo tas
Ġdefin ido
Ġp ido
ĠG rado
ĠSil va
8 3
Ġsalv aje
Ġ ida
Ġll orar
i tim
Ġsu biÃ³
ĠS ky
Ġdispon emos
Ġpier na
Ġaconse j
ÃŃs mo
ĠCam ino
Ã¡ndo les
Ġtrage dia
par aciÃ³n
Ġjust amente
x imo
Ġban c
Ġrepres iÃ³n
Ġdeterior o
Ġdens idad
Ġdirec tos
Ġestar emos
ikipe dia
Ġtrans curso
Ġbes os
Ġdirec tiva
Ġoblig ados
Ġsan itaria
ul siÃ³n
ĠÂ °
Ġjust ific
Ġcoordin ador
ĠAgust ÃŃn
M C
7 4
em en
lu ten
Ġran king
Ġle ma
t ona
v Ã¡
ĠAD N
s mo
Ġoper ador
ĀĀĀĀĀĀĀĀĀĀĀĀĀĀĀĀ ĀĀĀĀĀĀĀĀĀĀĀĀĀĀĀĀ
Ġsu poner
Ġcompon en
Ġcam iones
Ġpa tas
Ġalf omb
Ġbel lo
ĠDe bido
st al
E F
Ġmatem Ã¡ticas
Ġan ima
Ġjug Ã³
Ġcas ualidad
Ġadecu adamente
ĠperiÃ³ dicos
Ã© p
Ġmo tos
ĠPl us
tr ados
Ġpro hibido
Ġher encia
Fo to
Ġdi ariamente
7 3
Ġp ez
ĠB ig
Ġn or
Ġsig las
Ġ Ã©n
ĠCan aria
Ãºm enes
ĠAtl Ã¡n
Ġg ros
Ġinter medi
H er
Ġdeleg ado
Ġcompeti tividad
Ġprov iene
Ġarquitec tÃ³n
Ġdi arias
Ġprepar ando
Ġol vido
Ġserv ido
ĠI SO
ĠCh amp
ĠespectÃ¡ culos
Ġfal sa
Ġe ro
Ġbusc ador
ĠB ru
. ),
Ġimpro vis
Ġperteneci ente
Ġtec lado
fas is
ĠP ok
aa aa
Ġpro poner
ĠFuer zas
Ġrestr ing
Ġbusc amos
Ġconduc tas
Ġf usiÃ³n
Ġb onos
ĠGlo bal
Ġlog rando
Ġopera tivos
htt p
b s
Ġdeb il
Ġceb olla
Ġleg ado
ĠTo p
ĠG ri
200 9
Ġprocl am
ist Ã¡n
f ra
Ġtre m
Ġsuper ado
l icos
iv ar
ch ado
Ġcrea tiva
Ġsorpres as
Ġab uelo
Ġb eca
h asta
j ala
Ġcur va
Ġpa gan
Ġex tiende
om Ã©tr
Ġfres ca
% ),
Ġ0 8
ue ga
Ġin e
Ġres um
Ġp alacio
Ġace ites
ĠÃģlvar o
as es
Ġcomunic arse
6 1
ĠCas as
Ġc ad
Ġla terales
Ġadvir tiÃ³
Ġbo tones
Ġic ono
Ġinst a
Ġtemp rana
Ġbo das
Ġactu alizaciones
ill ado
Ġdes po
Ġcor tas
ĠC OR
Ġindustri as
ĠV ent
Ã¡ zar
Ġreci cl
Ġvar iedades
Ġmanip ulaciÃ³n
Ġse as
T RO
Ġrum ores
Ġrefle jo
Ġa zar
ĠA mar
Ġelec tr
Ġal iados
Ġjue gan
ĠR ib
Ġprovoc ado
Ġdi lig
Ġri sa
7 1
ton e
Ġs tock
Ġdese ado
Ġmu ral
Ġsac Ã³
Ġpe at
ĠCh an
Ġdirig idos
ĠMar celo
ĠHol lywood
Ġguer ras
Ġsos tener
ĠO tras
S C
Ġloc alizaciÃ³n
Ġprovoc Ã³
un os
Ġsen ador
Ġcr uel
Ġsorpren de
ĠPro ces
Ġcancel aciÃ³n
Ġdej es
ĠEst Ã¡n
ĠC I
Ġapren de
Ġt ribunales
Ġrelig iosas
ĠH os
ĠE c
ĠA hÃŃ
P lan
ĠMexic ana
al las
Ġinvesti ga
Ġcomp licaciones
Ġde udas
ta des
uen ca
Ġbol so
x ima
Ġrequis ito
os Ã³
Ġm io
ĠR ena
Ġem ig
Ġcab les
Ġir ri
iv al
un t
es idad
fi eld
Ġinvit amos
Ġinfec ciones
Ġint Ã©rpre
ĠH Ã©ctor
f an
l om
Ġproce dente
Ġrepar ar
di ta
R eci
ĠT O
ĠN Ãºmero
Ġafec tada
Ġhid ro
fici os
Ġcomprome te
ĠCap ÃŃtulo
Ġmedio dÃŃa
b log
ĠR og
Ġv uestras
Ġagr ÃŃcola
Ġarran que
Ġrefer entes
Ġsan ta
Ġdiscipl inas
Es c
6 2
Ġllev arse
ĠI glesias
Ġcam iÃ³n
ĠCor uÃ±a
d ula
Ġadminist rador
ĠStre et
ĠtÃŃp ica
enci ar
Ġca os
Ġdemocr Ã¡tica
rib e
N osotros
S ol
Ġd uros
tu ar
Ġas cen
Ġexten sa
eci eron
Ġco co
IN E
Ġmad uras
Ġr on
Ġll enos
Ġcor e
ĠmÃ¡g ico
ĠSegu ra
ĠA gosto
ĠP rin
qui cia
Ġazul es
Ġcorre dores
ĠT I
Ġas ientos
Ġe f
Ð º
Ġarm ario
Ã©c do
Ġgol f
Ã ¤
ten siÃ³n
Ġbar cos
Ġcandida tura
C iudad
Ġdisf ra
ĠEr nes
Ġbancar ia
6 3
Ġnoso tras
Ġcaus ado
ĠP ul
Ġpe ga
Ġemp ecÃ©
ĠF rases
Ġbus co
so bre
ĠMunicip alidad
Ġinal Ã¡mb
Ġjug ado
Ġcontinu amente
es is
ri das
v esti
Ġv il
Ġref uer
Ġentr an
ĠI rÃ¡n
m amente
Ġcam ina
ĠReserv a
Ġgra v
Ġhumil de
ĠAs untos
Ġro jos
Ġolvi des
Ġsu pl
Ġpros per
bur go
Ġpa to
E se
ĠcÃ³ mp
Ġfu tura
eb an
Ġautor izado
ac Ã¡n
Ġpas ados
Ġencar ga
Ġrode ado
el ia
ĠBur gos
Ġes pu
Ġdiagnos tic
Ġimper io
Ġestim ul
ĠHa z
ĠF inal
j Ã³n
us es
Ġpag inas
Ġimper me
Ġri gu
Ġescal eras
Ġsignifica tiva
Ġles ion
oo oo
In cl
hor abuena
Ġp ack
ĠB au
? âĢĿ
Ġcas tigo
Ġrestric ciones
ĠR ÃŃos
Ġincumpl imiento
Ġb oc
Ġindi gn
Ġpol ar
Ġquir Ãºrg
ĠOrg Ã¡nica
Ġmover se
Ġinfl uen
Ġconden ado
Ġgu apa
Ġsencil los
Ġterror istas
ÃŃt icos
Ġrin cÃ³n
Ġpon drÃ¡
Ġcr ÃŃmenes
Ġcomp one
Ã¡s er
Ġluc ro
c y
rÃ¡ ul
Ġminist ra
Ġcent ÃŃmetros
Ġin capa
Ġobliga torio
ĠestratÃ©g ica
u den
ĠbritÃ¡n ica
ĠH om
Ġpoder osa
Ġreg lamento
ĠSupre ma
Ġestable ciÃ³
Ġprotes tas
Ġanim e
Ġproduc tivo
Ġad her
Ġ ^
ba ciones
vis or
Ġadqui rido
Ġmol esta
ĠEn ero
ĠTrabaj adores
Ġcom arca
H O
Ġexpor taciÃ³n
ĠPrim aria
Ã¡st er
ĠF C
Ġvic torias
Ġcar gas
E O
lan os
Ġsal va
Ġactiv ar
ĠestÃ³ma go
lo ud
Ġti p
ĠS un
ĠgÃ©n eros
Ġsindic al
Ġdese e
e k
ï¿½ï¿½ ï¿½
Ġor to
t ch
li mp
Ġalm uerzo
us h
Ġa zo
Ġin da
Ġdese en
Ġter cio
i um
Ġcertific ados
Ġtra yecto
ĠdiseÃ± ador
ĠS Ã©
Ġmo dal
Ġapro bar
Ġrelig iosos
Ġseman al
Ġperteneci entes
ĠhÃ©ro e
Ġefec tividad
A g
Ġch an
Ġb ul
Ġob vio
Ġconsidera ble
Ġi glesias
ĠN intendo
Ġ6 3
Ġajust es
Ġpart ÃŃculas
Ġcoloc aciÃ³n
quil lo
Ġen tornos
Ġra ma
Ġflo ta
Ġ( ...)
Ġcomer cios
ĠMaes tro
ite d
ĠTo tal
t anos
Ġpier das
Ġselec cionados
Ġadv ierte
Ġexperim entado
r s
Ġsuper visiÃ³n
eb ra
Ġint entos
Ġagr icul
Ġinteg ran
Ã³n icos
cip aciÃ³n
ion ero
Ġregist rados
ĠBol ÃŃvar
T AS
Ġc ie
Ġdirig iÃ³
Ġinn eces
Ã³ tico
dad ores
Ġcontes tar
Ġcam inando
Ġatrac ciÃ³n
8 1
Ġdispu ta
Ġay ude
Ġfo co
Ġte orÃŃas
Ġproteg e
P F
ï ¼
Ġsab Ã©is
Ġal as
Ġcora zones
Ġsol v
Ġh s
Ġtorm enta
Ã³ so
ĠA ran
Ġespeci fic
g ÃŃa
v ÃŃo
ĠI den
I Z
it arse
Ñ ĥ
ĠPr ensa
Ġref iero
", "
Ġdest ro
Ġdig no
Ġaisl amiento
Ġinm ers
Ġ199 1
ĠÃ©n fasis
Ġenfrent arse
m x
Ġcub ierto
Ar t
it arÃ¡
Ġsuperfici es
I ÃĵN
Ġesp an
Ġiden tifica
ec os
Ġaden tro
Ġfin ca
ur t
ĠP ho
que ta
Ġfund ada
ĠInform e
re os
all y
Ġ6 2
Ġcur s
Ġconvers iÃ³n
Ġem er
cion Ã³
ĠSegu ir
Ġingenier o
Ġsu ici
m Ã¡ticas
Ġminist ros
Ġtom ate
he im
ĠenseÃ± anzas
ac ar
âĢĿ ;
Ġtras torno
CI AL
Ġjapon esa
Ġsug iere
A yer
Ġinm uebles
ĠmÃ³d ulos
segu ida
ĠcompaÃ± era
ĠSer ie
Ġverda deros
ten imiento
Ġsan itarios
Ġcre adores
f ono
ĠV in
Ġcre ÃŃa
Ġa ur
Ġacog ida
ĠV it
Ġdej aba
Ġetique tas
Ġimplan taciÃ³n
ĠS S
Q UE
Ġdeclar ar
vil le
ol or
Ġcomple tos
Ġhacer te
ĠCoci na
ĠAl merÃŃa
Ġgu ÃŃas
Ġgratu itos
Ġcruc e
un tu
ĠS uc
Ġhorm ig
Ġc emento
T ienes
ĠR uta
Ġde vo
pon go
Ġoptim izar
Ġale manes
Ġadminist rar
Ġrom pe
Ġliter aria
Ġp ad
Ġfrances es
ĠÃ¡ra be
Ġmanz ana
Ġnorte americano
Ġimp ec
Ġpor te
ug h
Ġtrans acciones
Ġe cu
ĠRo jas
Ġretras o
Ġro bar
Ġrey es
Ġexplos iÃ³n
Ġpi ano
ĠacompaÃ± ados
Ġtelef Ã³nica
m all
Ġdemues tran
Ġan da
V O
Ġapar camiento
Ġ 000
ĠP N
ĠFeder ico
Ġi OS
P la
k en
Ġvendi do
L es
di stas
Ġtri ple
Des cripciÃ³n
un ar
200 8
ier ro
Ġmatr ÃŃcula
v idad
d am
h ara
ä ¸
ĠM olina
Ġcin tura
N i
ĠCh a
ĠS AL
Ġb esti
Ġper d
Ġba terÃŃas
Ġameric ana
Ġu ruguay
ap as
Ġdirec torio
ĠcatÃ³ lica
Ġsal drÃ¡
Ġdes com
Ġto cado
Ġempren der
Ġma quina
Ġllam aba
ĠJuz gado
Ġsuce der
Ġcumpl iendo
cu al
ĠLiber tad
ĠBar rio
Ã© mon
P P
endi endo
pi Ã©
Ġven dedor
Ġher ida
ĠCa tedral
Ġrealizar Ã¡n
G o
Ġrecre a
Ġalim entar
å ¤
Ġarquitec to
Ġex ci
Ġprotagon ismo
IC AS
S erv
Ġcomien zos
Ġquer ÃŃan
ĠJer usal
Ġapartam entos
ril los
Ġan Ã©cdo
ĠSon y
ĠdiseÃ± adores
ĠGeneral itat
Ġconfirm aciÃ³n
ist ros
Ġl iv
ab y
crib ir
Ġproporcion an
ĠcontinÃº an
Ġinter nas
ĠAr turo
ĠG l
Ġrecor dado
ĠT ru
di ar
Ġmobil iario
g aba
o te
Ġinterpre ta
cer es
Ġsosten ibilidad
ĠS OL
Ġatrac tiva
Ġas amblea
ĠP ic
Ġcu mbre
ĠC ora
Ġpeda g
ĠCoord in
ĠPo wer
Ġlibre mente
Ġliber al
ĠMil itar
Ġorden adores
ĠCar olina
ĠJorn ada
Ġadelga zamiento
e u
Ġcrist iano
ra to
Ġpa gado
Ġsal do
Ġcer e
ĠNie to
Ġinspec ciÃ³n
ĠF ÃŃsica
Ġconf usiÃ³n
Ġpreocupa ciones
ch an
ĠPro ducciÃ³n
Ġsorpren diÃ³
Ġt ÃŃ
t ter
Ġestruc tur
Ġlleg aba
Ġro d
Ġmu ros
me dios
Ġescrib iendo
ĠB oy
ist ÃŃa
Ġconven cido
ĠpÃ¡ jar
Ġev olucion
Ġcent r
Ġnacional idad
e dades
Ġco ca
ĠF ebrero
ir re
Ġfal tar
Ġtrabaj Ã³
Ġpin tor
Ġhuel la
Ġpe di
ĠsÃŃmb olos
trimon ial
Ġtruc os
ĠC AM
Ġref iriÃ³
Ġsi gan
Ġh aremos
ĠInde pendi
Ġhacer nos
Ġexp lÃŃ
ĠCom entarios
h ist
Ġcin tur
Ġemp i
Ġinm ensa
z aba
Ġcon mo
Ex isten
j am
ver de
Ġsex to
Ġcap itales
Ġhorizon te
illera to
Ġcons enso
z ona
Ġn acer
Ã ¢
Ġinfraestruc turas
Ġestable cen
l amente
Ġmol ienda
tr ad
ĠO R
Ġviv ÃŃa
Ġavan za
Ġcer rados
Ġmas iva
Ġexist ÃŃa
idal go
ĠBo ca
Ġde ca
Ġmen cionados
ĠM U
Ġrefug iados
Ġexitos a
Ġcolec ciones
Ġid Ã³n
Ġreno var
ĠCar re
Ġsi entes
ĠJ en
Ġlin da
Ġdep Ã³sitos
Ġolvid ado
Ġv ientos
Ġbas tantes
og Ã©n
ĠImp erio
ĠT ribu
Ġprev ios
es c
Ġhi p
Qu iero
Ġarran car
ĠTel Ã©f
b ir
im amente
Es pero
Ã³g icas
Ġagres iÃ³n
Ġrecib iendo
tien da
ĠCh icas
ĠP IB
G E
ĠF OR
ĠMar gar
Com p
ĠvÃŃn culos
Ġsmartph one
or i
ĠJos e
Ã©l gica
we en
Ġmun diales
ĠRec om
ĠP U
Ġdar nos
ĠIncl uye
Res pecto
Ġm s
ĠGre en
Ġpre ju
Ġenfer mo
Ġproven ientes
9 2
res e
Ġentren amientos
Ġv am
j ales
p us
Ġmill on
ĠRich ard
Ġb ecas
ud al
N eces
ĠescÃ¡ndal o
g il
Ġles bi
Ġdest ina
Ġotor gar
Ġmodal idades
Ġconcl uye
Ġpolici ales
ĠMon t
an ca
gan ta
Ġba il
Ġintim idad
ĠPo co
ĠEst aba
ĠG B
ĠO fre
Ġsac o
Ġsuger encias
b ras
m us
Ġl Ãº
se t
ti cia
c aciÃ³n
ĠM ens
Ġcla us
or ias
Ġan illo
ĠJu Ã¡rez
Ġan to
Ġsober anÃŃa
m il
Ġ11 0
Ġf ur
Ġescas os
on s
Ġconcre tas
Ġaprue ba
E tiquetas
Ġvis ibilidad
Ġsalv aciÃ³n
ĠTur quÃŃa
ĠI D
ĠF iesta
Ġpers ecuciÃ³n
Ġfin anzas
Ġcontro vers
Ġprom ueve
que te
Ġmasco ta
Ġfac ultades
Ġ( âĢ¦)
Ġdesarroll ada
Ġsu pre
er e
Ġmedio amb
Ġa tras
Ġdesplaz amiento
Ġd uer
Ġconte x
. ;
uf ac
ĠLea gue
Ġre mar
ĠRe forma
Ġpos tre
ĠsÃŃn drome
g ri
Ġab arca
ĠPre venciÃ³n
Ġmig rantes
r mac
ĠF idel
ĠJo an
Ġme mb
ris as
min as
ĠR Ã©
is as
Ġnutri ciÃ³n
ĠV at
Ġpopular idad
Ġsof Ã¡
Ġsent ÃŃ
t ambiÃ©n
Ġc Ã©n
Ġtritur adoras
Ġmen ciona
Ġposib il
Ġfil osÃ³
am ing
Ġcre cido
cua tor
ĠMedel lÃŃn
ï »¿
Ġ198 0
Ġjurisdic ciÃ³n
st em
Ġide ologÃŃa
Ġreun iÃ³
ĠXX X
Ġmodi fica
Ġjoy as
Ġpres os
Ġinolvid able
Ġpre ferencia
Ġven ce
i ando
Ġsecre taria
ĠCom par
Ġdes mon
ĠEdi ciÃ³n
ĠGran des
ax aca
ĠInst al
ĠUnivers al
Ġlic encias
ĠestratÃ©g ico
ĠTex as
ĠC uenca
Ġsir viÃ³
Ġvig entes
as is
ĠAl ma
Ã¡st ica
tr Ã¡
Ġaudiovis ual
Ġfil tros
M u
ĠAl var
ER S
ĠP AR
Ġdi fici
m Ã¡ticos
Ġdel icioso
Ġcont ribuye
Ã³g icos
Ġsecu encia
ĠH acer
Ġmer ecen
Ġmus eos
IF A
Ġtab aco
Ġrup tura
Ġto cÃ³
Ġab aste
s ol
ĠLin ux
Ġhorizon tal
ĠMes si
c ad
Ã©r icos
eric or
Ġch inos
Ġexplor aciÃ³n
Ġal mas
ĠK im
Ġdistin ciÃ³n
Ġagrade cimiento
Ġcolombi anos
ĠcontemporÃ¡n eo
Ġtu ber
ĠL ec
Ġingles a
Ġtras ero
Ġaprob ada
ĠR onal
Ġculp able
Ġgl uc
Ġacum ulaciÃ³n
Ġcap tar
ĠE R
gu esa
ĠfÃ¡ rmac
us ion
ĠP unta
ĠF ord
ĠMar ruecos
u tor
Ġmul tina
mos a
ĠJ uego
Ġdu plic
Ġrev esti
Ġbeb e
Ġar rib
Âº C
Jos Ã©
al ia
Ġg lor
Ġpan eles
Ġinsegu ridad
el ar
que o
Ġhor ri
Ġentr ado
ĠT ol
Ġinst ancias
Ġjug ada
Ġr ar
m ante
Ġtermin an
ĠAgu as
ta ge
Ġsac ado
Ġarreg lo
Ġ20 20
Ġin tra
tar o
Ġocul ta
ĠMul ti
ĠIn telig
ĠB Ã¡s
d Ã©
Ġfutbol ista
pla y
Ġad mitir
A h
ĠacompaÃ± amiento
Ġp m
ĠR A
ed ora
Ġayud ado
Ġequip ada
ÃŃ tima
Ġhard ware
Ġinc Ã³mo
Ġasum e
Ġfran quicia
Ġcorre dor
ĠM P
Ġb inarias
Ġes paÃ±a
den tales
Ġdispar o
Ġdej arÃ¡
er ica
Ġdej en
Ġlu cir
ĠCon serv
ĠEm ilio
Ġapor tes
Ġcas ual
Ġm l
j i
un tamientos
Ġapor taciÃ³n
Ġcos tas
ĠQ U
n aciÃ³n
Ã¡n icas
ĠInterna tional
Ġin o
Ġhermos os
S Ã³lo
ens os
o th
Ġgri tos
Ġdeb ilidad
ĠA h
Ġaum entado
Ġsegu ida
uch as
Ġta za
ĠT IC
pen den
Ġaer ol
C er
Ġinfl uy
E Z
Ġdeci dimos
Ġest il
Ġab usos
Ġdemocr Ã¡tico
dez co
ci ble
udi a
Ġexp l
Ġtem bl
in k
Ġvan guardia
ĠCh ia
Ġin oxid
Ã³lo ga
Ġagrup aciÃ³n
ort h
ci stas
Ġtermin e
Ġque den
Ġdetal lada
Ġsur gen
E sa
Ġch al
Ġ6 7
Ġch arlas
ĠV ÃŃ
Ġnoti ficaciÃ³n
ĠR eb
Ġtien de
ĠL anto
Ġhab rÃŃan
Ġpr enda
Ġma tric
je je
s abilidad
ĠR ies
U sted
u ters
Ġtom aron
ĠTorn eo
Ġat entado
Ġcru do
Ġap res
itco in
ace te
Ġocup ado
ĠPor tal
Ġle al
Ġpl ana
Ġofre cido
Ġac oso
a z
Ġox ÃŃgeno
ĠI sa
Ġconsol id
Ġid Ã©n
g antes
Ġorden Ã³
ĠPu ente
Ġb ac
ĠHon or
Ġenga Ã±
Ġesf or
ĠÃºlti mamente
Ġde grad
ĠIN TER
Ġdo bles
Ġases orÃŃa
Ġsu yos
tr ales
ab ar
Ġcar n
Ġafil iados
Ġlec turas
Ġcu en
ta t
cho ol
Ġmis iones
an co
Ġcombina ciones
ĠPal mas
ĠPro cur
ord s
Ġrespec tivas
âĢĿ )
Ġconsider ados
dic amente
Ġcump la
Ġmin or
ĠA mpl
Ġbar ras
Ġfundam ento
ĠdiseÃ± ados
ĠT RA
Ġres piraciÃ³n
ĠNav arro
9 6
Ġasist ente
ĠB M
Ġson re
Ġdistingu ir
Ġp enas
Buen os
ĠGalax y
itor io
ĠfotÃ³ grafo
ĠZ o
Ġele gancia
Ã¡ logo
Ġob esidad
ĠU V
Ġro to
Ġtex til
ti ga
Ġp ur
Ġorient al
Ġrepu taciÃ³n
N unca
bi le
Ġinf ierno
Ġsindica to
ĠMo da
ĠM I
Ġle o
Ġcomp uestos
Ġrec ta
Ġsol ares
em oria
Ġcambi an
ĠCal der
Ġperm isos
ĠE va
ĠI vÃ¡n
Ġ198 9
Ġrell eno
Ġsencil las
Ġs ensa
Ġest abil
ĠSe p
gu iendo
Ġhor ror
Ġalim entaria
u k
ĠClÃŃn ica
Ġresal tar
P al
Ġbus que
ĠCan tabria
Ġpr ÃŃncipe
ĠMo delo
Ġdefec tos
Ġden tal
ĠsÃ³l ida
Ġri ego
Ġincendi os
ta Ã±as
ĠPrem ios
b ula
ĠCon strucciÃ³n
ĠX box
ic anos
Ġin Ãº
Ġdis per
Ġdedic ar
Ġreflex iones
Ġrecl amo
Ġconstru ida
Ġentren ar
ĠConven io
Ġbar b
Ġextran jera
ĠO rig
ĠC ient
ĠL is
Ġgust aria
Ġdest inada
Ġsolici tÃ³
Ġcal cular
Ġpreten den
Ġcump lan
ĠAr ro
Ġvar iaciones
Ġrecon stru
Ġtri turaciÃ³n
Ġve cin
pec u
t he
l ab
Ġbille tes
z ano
Ġrecomend ado
ĠsÃ³l ido
Ġc Ã¡p
ĠMos cÃº
Ġdemos trÃ³
Ġvege tal
Ġproteg ida
Ġcri p
la je
Ġfamos as
Ġtor os
Ġbal cÃ³n
Ġfavor itas
ĠEspe ci
Ġpal o
que tas
v ana
ĠEst rel
lan da
Ġcam isa
Ġcont ribuciÃ³n
ĠSi mplemente
ch er
ĠH un
ĠGonz alo
ĠG in
Ġcomb inado
---- ----
Ġprofundi zar
Ġsal tar
Ġve la
cri ta
Ġadministra tivos
Ġpar es
Ġimag ino
Ġbal oncesto
vi ese
Ġbomb as
ĠS pa
ca v
Ġsu puesta
No ta
D S
Ġp im
Ġfil a
Ġenfrent amiento
Ġses enta
ĠMedi terrÃ¡neo
Ġapren diendo
Ġju go
ĠCon cepciÃ³n
Ġexcl usiÃ³n
Ġa ulas
ĠN ivel
ĠT Ãº
Ġdesp leg
Ġsocial istas
Ġgo ogle
em in
c adores
Ġdenomin aciÃ³n
ie ta
Ġcereb ral
Ġma te
Ġmedi oc
Ġinv itar
Ġenfr entan
du re
Ġadminist raciones
Ġfal sas
Ġter n
Ġdi Ã³
Ġen te
ĠP AN
uc e
Ġresul te
ĠautomÃ³vil es
Ġdeci den
Ġa jo
Ġjust ificar
Ġfil Ã³so
Ġesc orts
Ġcob ra
Ġimp one
Ġac Ãº
Ġacab ados
ĠC ri
b ien
Ġinoxid able
Ġre ga
Ġpro xim
je tivos
Ġsacerdo tes
N uestros
Ġest re
ril l
E ra
ĠC F
âĢĶ ,
Ġrepro ducir
p ri
Ġtren es
Ġenf ri
ĠH ora
ier re
ĠCon venciÃ³n
am ba
Ġbar rera
Ġadelga zar
ĠB ienes
Ġen com
ĠMe tal
B a
O G
ĠI m
Ġco aliciÃ³n
Ġcomerci antes
te lo
Ġre af
ĠM Ã¡ster
C lar
p Ã³n
Ã³ f
Ġl ech
Ġat ento
ĠDe fin
Ġdist ancias
Ġelectro dom
Ġm entales
Ġalar ma
Ġposi tivas
ĠW est
ĠV Ã¡zquez
Ġrefer ido
ĠF A
Ġceleb rada
ĠCON S
Ġrevolucion ario
ĠAl ba
Ġob ses
it Ã¡n
u ga
ĠS el
ĠPro ce
ad y
con trar
Ġconsigu en
id ora
Ġo la
ĠMon ter
Ġhues o
vie do
ÃŃ bl
Ġprac tica
ĠMor e
ta Ã±o
PA Ãĳ
z ob
Ġbomb ar
ĠCh e
Ġru bia
Ġch a
Ġser p
Ġpresent ados
Ġvincul ados
Ġele var
Ġtien den
ĠRec on
Ġdescub riÃ³
Ġpol i
Ġauto estima
p uso
Ġprepar ada
Ġprop uso
Ġparti das
Ġconsidera mos
Ġ ï¿½
Ġsens ibles
cas o
Ġ6 1
Ġest ir
Ġderi va
200 6
Ġa vi
gust o
ĠPar te
Ġcuer da
Ġcel ulares
Ġbas adas
Ġinclus ive
ac ÃŃa
Ġdes cal
ic ada
tam ento
Ġextra er
Ġinevita ble
Ġpol it
ĠB et
Ġe terna
Ġrenunci ar
t ancia
Ġre ÃŃr
ĠJ ane
ĠC Ã¡r
B N
Ġmul ta
ĠRub Ã©n
u ci
Ġcumpl iÃ³
Ġcic los
ĠrÃ¡p idos
ĠLib ros
ĠUr ban
Â ²
Ġconf ron
Ġfac turaciÃ³n
ĠiP ad
9 7
Ġmuer e
Ġfac turas
ĠLi mp
ĠMa terial
ĠEu gen
us s
ĠA gro
Ġrecon oz
Ġretir ada
bi as
ĠCh at
Ġque jas
Ġmun dos
Ġj erar
Ġgan adora
ĠEst ad
ĠHar ry
Ġcam in
ĠAc tividades
Ġajust ar
T anto
Ġurb anos
ĠCon curso
Ġtri go
ĠA la
Ġconf idencial
Ġestable cida
Ã³ b
Ġproduc ciones
Ġabandon ado
Ġperman encia
Ġestrech a
Ġinform Ã¡ticos
ĠV all
Ġmejor ado
Ġpes ado
Ġsuav es
Ġofrecer Ã¡
Ġleg itim
Ġregres a
Ġenten dimiento
Ġpref iere
ĠG reg
acter ÃŃsticas
ĠprÃ¡c ticos
Ġinnov ador
Ġdes cen
Ġpin tores
ĠO este
ĠEst adio
tn am
Ġmedal la
g Ã³n
Ġla var
Ġintelec tuales
Ġempez amos
Ġadministra tivas
Ã¡c tico
ĠWhats App
": "
b ara
Ġmeta bol
tas e
Ġcub iertas
Ġadolesc encia
ĠPros titu
Ġimp uso
pa cio
ĠG PS
Ġrecor tes
Re g
Ġsin tÃ©
b ida
Ġextin ciÃ³n
ĠPro yectos
Ġk ilo
rig ht
Ġre ten
Ġrendi r
k ar
in idad
Ġfin o
Ġconst rucciones
Ġencar gados
Ġinforma cion
aliz amos
Ġincor rec
Ġpa Ã±
Ġjuz gar
Ġgen Ã©tica
ie ve
Ġcome ter
ĠPh il
ent ada
Ġindic ador
Ġdefien de
ĠCam bio
ĠseÃ±al an
Ġexplic an
Ġelig e
Ġdesper di
Ġencan tÃ³
Ġtrans mite
Ġvenezol ana
ĠDec lar
OR A
ĠE co
Ġle gen
Ġampl ias
Ġparale lo
ĠsÃŃn tesis
Ġpe gar
Ġsub ray
Ġel i
Ġro cas
Ġaplic ado
Ġgri to
di bu
Ġinv ad
Ġdismin uye
ĠCar rera
Ġlist os
Ġ9 8
ĠSue cia
ĠG aran
Ġpas adas
Ġgal letas
hu ana
p ensa
Ġpata tas
ĠL lam
Ġfich ero
Ġex ha
n idad
u ter
bi ta
ĠL leg
Ġacog edor
ÃŃn eas
Ġbril lantes
ĠðŁ Ļ
Ġenve jecimiento
Ġfeder ales
Ġcampes inos
Ġsatisf echo
ti er
Ġdu des
Ġinici ales
Ġl Ã¡ser
iz ante
ĠN ombre
ol lo
Ġrin cones
Ġinst ruc
Ġpersonal idades
Ġto pe
ut s
Ġl enta
Ġpor tero
Ġmis a
Ġ13 0
ca te
ap ro
ĠH idalgo
Ġre le
ĠT ig
ĠL ÃŃ
Ġsol teras
ĠpÃºbl icamente
CION AL
Ġdeb ÃŃan
Ġfuncion ando
Ġra cional
Ġdivis as
Ġa je
Ġactu alizado
ĠEst eban
Ġacep tado
Ġdu ras
iden cia
Ġesta cionamiento
Ġdig na
Ġtu torial
Ġaust ral
us elas
Ġfu Ã©
Ġubic ados
A le
Ġin esta
Ġe gip
Ġbur bu
Ġrode an
Ġtra tarse
Ġlog ran
no w
Ġej es
Ġfavor ece
âĢĿ :
Ġparcial mente
Ġdesgas te
ĠD ay
Ġpro hibiciÃ³n
Ġale gra
Ã©r g
y un
Ġayud arÃ¡n
Ġcolum nas
ĠM AN
fic aces
ĠAlcal de
A p
Ġh ura
Ġapun tÃ³
ĠConsul tado
Ġint entan
Ġinteg rante
ĠÃļ l
ĠE valuaciÃ³n
Ġcob ro
d amos
Ġasoci adas
Ġdirig idas
uc k
ps is
Ġtra tÃ³
ĠF echa
Ġperu ano
ĠcontemporÃ¡n ea
ĠC OL
don de
Ġse d
it amente
ven idos
Ġcatal ana
Ġsuces os
Ġfuerte mente
Ġdefens or
ĠAmb iental
Ġplante l
Ġob ispo
Ġlu jos
Ġsin tiÃ³
Ġmovil izaciÃ³n
ĠCol Ã³n
Ġreclam ar
Ġl ente
Ġv ice
ĠC AL
Ġdenunci ar
Ġaconte cimiento
ĠCon fe
Ġcol o
Ġvis itado
Ġir Ã¡n
ĠlÃŃqu idos
ĠMic ro
ĠArquitec tura
l adas
Ġprote ÃŃna
Ġsinc ron
Ġtele comunicaciones
Ġind icaciones
Ġapell ido
ĠS mith
ol encia
U A
ĠU so
ĠSegu ros
Ġcontinu Ã³
Ġes par
Ġpubl ico
Ġconqu ista
ĠM ill
Ġqued amos
ĠSo ftware
Ġtra igo
Ġespeci ficaciones
ĠRec or
w ell
Ġpa utas
Ġliter ario
ĠSec tor
ĠAb ra
h os
Ġj er
Ġpav im
Ġf irmÃ³
Ġd aban
Ġvisu alizar
ig ra
Ġbotel las
dor o
ĠNi Ã±o
dil la
c adas
ĠB Ã©lgica
Ġperio d
Ġinv as
Ġun en
Ġmante quilla
er Ã¡
Ġprim or
ĠJerusal Ã©n
ing er
ĠcÃ© le
ĠCas i
abell Ã³n
ĠCom is
Ġexac ta
iel os
gu er
Ġcomun a
Ġlla ves
ĠRecuer da
s car
Ġbode ga
Ġdesigual dad
Ġfol lar
ĠIntegr al
ĠT ech
Ġvir tuales
ĠGu z
Ġafirm aciÃ³n
Ġsus cep
Ġs tre
Ġvelo cidades
Ġmo tiva
Ġcompos itor
Ġproces ador
ĠImp uesto
Ġagru pa
Ġpref ieren
Ġases ino
ĠÃ¡n gulo
Ġlim itar
ĠMo to
vers a
Ġ9 1
Ġl Ã¡p
C ap
ĠSegun do
n ico
Ġenv ÃŃos
Ġfortal ecimiento
Ġcomport amientos
Ġliter almente
ĠNo che
icios os
Ġri d
A pro
âĢľ ,
Ġme tales
Ġfrecu entemente
Ġas fal
ĠO fer
Ġgar aje
Ġres ide
Ġexig encia
Ġdelan tera
Ġdis puesta
Ġne gÃ³
cil ler
Ġanti ci
Ġ3 50
Ġproto col
ĠErnes to
Ġdecir te
ometra je
Ġad s
Ġbor rar
k m
Ġconcur sos
Ġs c
Ġque ja
ĠPlan ta
ĠA ire
Ġpeti ciones
re am
Ġdelincu entes
t ha
P N
Ġdes vent
Ġan ces
b r
Ġma ta
Ġdesa grad
ĠV era
ĠIn ici
ĠO F
Est Ã¡s
Ġla zos
Ġlle guen
Ġul tima
âĢ¦ âĢĿ
Ġgener Ã³
Ġmac ro
Ġportu guÃ©s
Ġt witter
Ãģ N
ĠJur ÃŃ
Ġjard in
I ma
form e
ĠautÃ³n omos
Ġc ica
Ġhid rÃ¡ul
h el
ĠEst aciÃ³n
Ġprin cesa
Ġf lash
Ġar ren
Ã© ase
lo ween
Ġprom esas
ĠT ienen
ĠJ am
9 4
y l
EN D
Ġat letas
Ġprev istos
Ġsir va
Ġgubernam entales
Ġcorrec ciÃ³n
Ġhacer la
Ġcomprome tido
tu osa
Ġmu rieron
ad ra
ĠS t
ĠZapa tillas
Ġdenunci Ã³
Ġesca pe
Ġmane j
Ġluch as
Ġautob uses
ch u
Ġingenier os
Ġm ort
p rim
Ġcamp amento
Ġdesarroll ados
ĠCal i
Ã³ bal
Ġcomplic ada
Ġmencion Ã³
Ġc itada
ĠX D
ĠPe que
ĠG ay
Ġinform aron
Ã³r ica
Ġcompr ador
Ġj aja
Ġpercib ir
cer ÃŃa
Ġmad ura
Ġof f
Ġresta ble
Ġcur vas
Ġpier den
ian ismo
Ġc ima
Ġplante ar
ericor dia
ĠFin anzas
ĠChica go
Ġdi gan
Ġprostitu ciÃ³n
ĠArch ivo
h en
Ġal a
Ġe terno
Ġbande ja
Ġcol ap
ĠPer u
Ġauto p
ĠP y
Ġdi ab
Ġro j
ĠMan ual
Ġbicic letas
Ġ14 0
mo h
Ġagr ÃŃcolas
Ġcas ino
e to
Ġfalle cimiento
ĠB ran
ĠD C
Ġmolesti as
Ġasegu rarse
Ġcan ad
Qu iz
ĠV igo
Ġcan san
ĠVat icano
ĠJav a
Ġtecn olÃ³gicas
l erÃŃa
Ġsorpren dido
Ġserv irÃ¡
Ġrev Ã©s
rim ientos
tiz ada
Ġvir tudes
ĠF omento
% ).
ĠPos teriormente
Ġsan idad
ĠLi teratura
M in
Ġagreg ado
g g
Ġcompr adores
Ġindic ando
Ġd ren
Ġser lo
Ġson ora
ĠJ unto
ĠA G
9 3
Ġmarc ada
ĠViv ienda
Ġleg almente
Ġt inta
Ġartic ulo
Ġempren dimiento
Ġases inado
Ġob reros
ĠR iver
Ġbar reras
Ġlog ÃŃstica
ĠJ an
ĠB O
Ġd Ã¡ndole
ĠBus car
ces is
Ġ0 2
Ġbor ra
Ġpos tal
Ġpen ales
Ġconec ta
ĠF IFA
t Ã©n
Ã³cra ta
ĠAc ceso
ĠOr tiz
ad urÃŃa
Ġ8 4
if a
Ġapropi ado
Ġdespe dida
ĠB ob
Ġempren dedor
Ġcre encia
ĠCon ocer
Ġfal los
ĠT r
Ġasoci ada
ar ch
Ġher ido
Ġm ina
Ġres id
Ġsex ualidad
ĠB la
Ġmoch ila
Ġutiliz amos
Ġanti oxid
ĠO ut
Ħ ¢
ac ate
Ġtar dar
Ġtraslad ado
ĠK m
f lix
Ġsab ia
Ġch ef
Ġru idos
Ġluch ando
Ġdepen dencias
Ġpresent ando
Ġfa una
Ġ7 8
Ġfinanci ar
P RO
ĠV ig
ĠtÃŃp icos
Ġvie jas
Ġcivil izaciÃ³n
m icos
ĠS k
ĠA di
ĠGu an
Ġconces ion
p ados
Ġmar rÃ³n
Ġcompeti tivo
Ġneum Ã¡ticos
Ġval enci
Ġamp aro
? )
Ġnego ciar
MÃ© xico
ĠOb rador
ĠH am
Ġcari Ã±os
Ġcu ader
ĠN u
ches ter
E G
Ġb ach
Ġcab ezas
Ġv ial
Ġfestiv ales
Ġinter venir
Ġvis uales
Ġregist ra
Ġreco lec
Ġpas ear
Ġdar me
ĠT rin
Ġll enas
Ġpis cinas
Ġterror ista
Ġus ada
ĠPal abra
ĠP s
Ġ| --
Ġv ient
Ġapor taciones
Ġdifici l
Ġacer camiento
Ġcom andante
a go
Ġreal icen
Ġmostr aron
Ġdi la
Ġsimb ol
ĠZ amora
Ġpref iero
int ana
ĠfantÃ¡ stica
200 2
Ġrodil la
Ġri o
Ġ0 7
ĠPromo ciÃ³n
Ġdor ado
Ġinst rucciÃ³n
Ġinter n
ĠCh il
Ġincorpor ado
Ġchil ena
or ra
Ġotor gado
ista des
ĠCalder Ã³n
Ġcomp ac
Ġre e
Ġsob ra
Ġanci anos
ĠLe v
Ġcur r
Ser Ã¡
Ġconj untamente
ĠGobern ador
I s
Ġfabric ado
Ġtestimon ios
ĠBel las
Ġf Ã³s
Ġvas os
EL A
ex iÃ³n
Ġgran o
Ġmagn ÃŃfico
Ġtom ada
Ġdiver tir
ĠDeb e
ĠFu entes
ra je
Ġcre ciÃ³
Ġllam as
fer ente
Ġindemn izaciÃ³n
Ġhab le
Ġdesarroll adores
Ġan Ã³n
d ÃŃas
Ġvir gen
Ġnie ga
g am
Ġbel las
ies tas
Ġeleg idos
ĠQuiz Ã¡
ĠO S
F C
quier da
Ġpens Ã³
fer as
, âĢ¦
Ġase qu
Ġform Ã³
Ġnega tivas
Ġpu ri
Ġp ilares
con tin
Ġne ol
Ġdedic ados
Ġparro quia
Ġpe dimos
n ie
ÃŃ metro
IC OS
ĠSa int
TA M
Ġsec os
Ġgar ganta
ĠC le
rag ona
ĠC S
Ġfa cial
Ġaso cia
Ġdedic an
Ġro t
ĠJ ord
Ġmanifes tado
Ġtoler ancia
tic es
cion an
ĠJe ho
Ġf iebre
Ġri gor
Ġja zz
Ġab an
ĠH ome
tim amente
Ġescal era
Ġdec ÃŃan
Ġexha ust
ĠChia pas
am ina
ĠG R
Ġalter aciones
in go
Ġconsigu iendo
ĠO axaca
Ġesc asa
________ ________
Ġconcre tos
uc es
Ġdiv ina
Ġcen ar
ri as
il ado
Ġsub iendo
Ġa ve
ĠTen ÃŃa
den al
ĠJ ar
ĠEm baj
Ġperio dos
Ġrobo ts
ĠEstra teg
Ġex hibiciÃ³n
per tura
Ġinvoluc rados
vers idad
Ġder rib
ĠIn icio
Ġprotec tor
ci ano
ĠPa tr
Ġrem ol
lo t
ĠH P
ĠU C
Ġileg ales
f eo
Ġnorm alidad
ĠTri turadora
an ta
Ġtor o
Ġs tar
is on
Ġtr Ã¡g
ĠAmeric an
Ġestudi ando
Ġbon itos
ĠM ED
Ġacus aciones
Ġmari huana
Ġver Ã¡n
Ġemple a
ĠMonte video
ĠHol anda
cas a
à ¸
Ġb ono
ĠF l
Ġmir adas
Ġnarra tiva
ĠTo k
Ġdeber ÃŃamos
Ġcos echa
Ġconside re
Ġdescon oce
Ġemocion ante
al ta
cion istas
Ġcent rado
ĠBus iness
Ġ zar
il y
Ġ Î
endi entes
av ier
Ġtu b
ĠP ach
Ġmie dos
Ġen seguida
Ġdeba tes
Ġplante ado
Ġbusc aba
Ġsol teros
Ã ¬
Ġinde fin
9 1
ĠTh omas
De bido
ĠDic ho
ĠM O
Ġimpresion antes
Ġocup an
Ġespal das
do le
ĠV ista
Ġdes pi
ro vi
ĠPre gun
ĠCiudad anos
or al
Ġinsec tos
ĠAtlÃ¡n tico
Ã¡ ce
p las
ĠCoo peraciÃ³n
d rez
Ġtom amos
ĠAudi encia
Ġrecon strucciÃ³n
Ã± era
Ġtem Ã¡ticas
m Ã³
Ġsub venciones
Ġ; )
ĠJal isco
ĠMÃ¡r quez
F O
ĠUnivers itaria
ID O
aster io
Ġb ala
ĠXV II
ĠC ala
Ġk it
Ġdepen derÃ¡
Ġcer Ã¡mica
Ġm ero
ĠB ene
Ġreper torio
Ġv ist
ĠIn c
Ġdes vel
Ġafir man
Ġconf orta
Ġpas tillas
Ġasigna tura
Ġcria turas
Ã© tera
Ġme l
Ġhal la
Ġan trop
Ġdivi den
Ġu p
Ġprofun das
ĠS pi
ĠhÃŃ gado
ĠW in
ĠUn iverso
us ia
cion alizaciÃ³n
Ġest ro
Ġcar teles
Ãģ S
Ġdej arlo
Ġre ta
Ġescu do
Ġhormig Ã³n
Ġdescon ec
ĠNi Ã±os
Ġp Ã³l
ĠCo lec
Ġad mite
Ġtele fonÃŃa
om Ã©
ester ol
Ġperfec tas
Ġcar tÃ³n
se y
ol viÃ³
Ġlevan tÃ³
ul ario
Ġactu alizada
pi raciones
ĠUS D
Ġpuntu aciÃ³n
Ã³x ido
ĠMar c
Ġoblig ada
Ġprecis Ã³
ĠCu atro
ĠV II
Ġsu bido
Ġdeber Ã¡s
Ġproduci endo
Ġmales tar
X X
ĠE mb
Ġconj untos
Ġbr oma
Ġrecha zar
ĠPresu puesto
Ġ9 6
Ġval idez
id s
aj os
Ġocur ra
Ġcu rar
Ġmezcl ar
ti era
trÃ¡ fico
Ġdesf ile
ĠhÃ©ro es
dad ura
Ġfren ar
ĠL abora
ĠP aco
ĠBro wn
Ø §
ro ga
la go
Ġsobre pas
Ġevi den
Ġjuz gado
Ġfab rica
n ica
ĠCor poraciÃ³n
Per son
Ġc aca
Ġte Ã³rico
Ġe cuator
ĠEspa cio
Ġtra jo
oro este
Ġol ÃŃmp
ĠM ez
Es per
Ġins ign
Ġro ta
Ġpropa ganda
ĠCor pora
Ġras tre
Ġsome tido
bi to
Ġor questa
Ġcier tamente
Ġap las
Ġ7 6
Ġprev istas
Ġofrecer le
M T
b on
Ġco tizaciÃ³n
Ġcoloc ado
Ġartes an
Ġedi tar
M IN
R ed
ĠjurÃŃ dicas
gu r
cis amente
gr ÃŃa
om i
ĠPas eo
Ġdisf raz
ĠZ el
ĠInterna cionales
di jo
Ġsu ceso
Ġobserv aciones
Ġel og
Ġc iber
ĠTer min
ĠIr landa
ĠPlata forma
Ġcar dÃŃa
ril las
ĠTele visiÃ³n
ĠMon tes
Ġto ur
Ġveh ic
OR ES
ĠhÃŃ b
bo a
ĠRes ul
ĠÃŃn dices
Ġinspir ado
Ġher ed
ĠPatri cia
Ġmanten ga
i bre
Ġsus cripciÃ³n
Ġautomo vil
gu ero
ib u
tr icos
Ġe gres
Ġfuncion e
Ġloc alizar
Ġproduci da
ĠMar i
ĠCrist Ã³bal
Ġadquier e
tr y
Ġdeber es
Ġayud Ã³
Ġvari aciÃ³n
ĠJard ÃŃn
ĠAdministra tivo
a gro
ĠA QU
Ġpon ÃŃa
Ġinteres adas
st icas
Ãº b
iz arse
fi que
Ġrespec ta
Ġorganiz adores
Ġe ficaces
Ġoch enta
Ġexp uestos
qui tos
Ġcuer das
Ġconven ios
ĠUN A
Ġliber ar
Ġ16 0
âĢĵ ,
n ea
Ġ0 4
cl ip
ĠFil osofÃŃa
Ġliqu idaciÃ³n
ĠU p
Ġf Ã©r
ĠF Ã©
Ġelec to
Ġvulner ables
Ġangust ia
Ġer rad
gen os
g ina
Ġe man
Ġmin era
ĠR AM
Ġman dÃŃ
olog ia
Ġpres um
Ġconven cionales
Ġcon g
ĠL ucÃŃa
Ġasc ensor
ĠW all
ĠCE O
val o
ĠGuz mÃ¡n
utri ciÃ³n
2 000
Ġmil ag
âĢľ .
Ġcomple tas
RE C
Ġrep ite
Ġquer ida
g ers
Ġasign aciÃ³n
Ġprovoc ando
Ġterremo to
ĠA van
Ġcar nes
ĠTim es
Ġignor ancia
Ġcono ces
Ġque mar
Ġanal istas
Ġcer ra
Ġer rÃ³n
ĠD Ã©
Ġres tantes
ĠC orn
Ġcob ran
Ġesf era
ĠO viedo
Ġla tina
Ġperu ana
esti ona
Ġartes anal
Ġperson alizar
ĠT R
Ġpe g
ĠOl iv
ĠC rim
Ġmentir as
" )
Ġamb ul
ĠvÃ¡l v
Ġpreserv ar
Ġcar gado
Ġl entes
Ġv arones
st icos
Ġex pone
Ġfil me
Ġtes oro
Ġg estiones
Ġcontun dente
ĠPe pe
Ġhos pe
Ġemple ar
Ġclas ificados
Ġcont entos
Ġvengan za
A mb
Ġb uro
re d
Ġconsider arse
ĠR um
Ġcos ech
ĠVI H
gor it
Ã £
Ġpen ÃŃnsula
Ġcardio vas
D ios
Ġcol esterol
f oro
Ġfum ar
Ġestudi a
Ġrep as
Ġdiscur sos
Ġestim ular
ti zÃ³
Ġtom as
ĠAl len
Ġapos tar
H z
19 99
ĠE MP
Ġin capacidad
ĠO B
Ġestruc tural
Ġoc Ã©ano
Ġponer le
Ġexpe diciÃ³n
ĠBr uselas
Ġlevan ta
Ġdest inadas
Ġbus cado
Ġpara ÃŃso
Ġrenov ables
ĠBuen a
Ġ12 5
Ġejer ce
ĠR i
Ġpas aje
Ġos ci
ĠE TA
Ġexperim ento
Ġ7 7
Ġsex ta
Ġma triz
ĠF eb
Ġutiliz Ã³
ĠQu intana
Ġofens iva
Ġtra jes
ĠEcon Ã³mico
ĠCerv antes
ĠA V
ier ten
Ġcar di
Ġinvi to
Ġaplic ando
Ġemi tido
Ġmonum ento
ĠB ara
b all
Ġaccion istas
ĠF ire
Ġprop Ã³sitos
Ġpresiden tes
Ġfal sos
ian zas
ĠA re
Ġpre cedentes
Ġre embol
Ġsencil lamente
Ġenamor ado
ĠsÃ³l idos
ĠaÃ© rea
ĠvÃ¡l ido
Ã¡c ticas
Ġquer Ã©is
Ġus e
Ġ7 1
Ġocur ren
Ġarre ba
Ġbols illos
tic s
Ġpose er
ĠDemoc r
Ġpertin entes
bo ard
orm al
e amiento
Ġal iento
Ġdar ÃŃa
ĠPue den
Ġpelic ula
om er
Ġresca tar
ĠCor tes
ĠI ber
Ġampl ios
ĠNe ws
ĠBar ran
tan g
Ġ7 3
TE L
ĠCl iente
Ġalmacen ar
ĠR EC
Ġtriun f
t witter
ĠI R
P ol
ĠS osten
Ġab ren
Ġrol lo
Ġvay as
ĠE FE
Encuent ra
un e
ĠC amil
Ġlec ciÃ³n
Ġrespir ar
ĠhistÃ³r icas
Ġdomin ante
Ġcapital ista
Ġcercan ÃŃa
rid ge
Ġab uelos
Ġcorrespon da
T ri
n is
Ġinforma tivo
Ġcabec era
gra de
Ġimpec able
in eros
av a
Ġalcal desa
Ġcement erio
ĠF M
cin co
bit ro
Ġvient re
Ġequip ado
c ran
ĠMich el
ĠCam pos
Ġembaj ador
i tivos
Ġ7 4
tos a
Ġmulti media
ĠPro f
Ġenten demos
Ġca Ã±a
Ġdes em
inos a
Ġpoten ci
Ġavan zando
Ġre tenciÃ³n
Ġhacer me
Ġun irse
Ġespecial idades
AN O
Ġrepor taje
ĠQu ÃŃm
Ġapete ce
tec n
ĠC AS
Ġar terial
Ġay uden
ĠNego cios
Ġinver tido
ob ia
ĠA un
ĠA ren
ĠNa cionales
Ġhosp it
ĠMus ic
Ġal tar
Ġcontinu arÃ¡
Ġespec tro
ĠindÃŃgen a
Ġfa tal
ort ante
ĠautÃ³n oma
ĠMir anda
B C
ĠPol ÃŃticas
ĠP unto
C ES
Ġexter nas
on ado
Ġl lo
Ġbara tas
ĠH ues
Ġmer ca
iu da
ampl ona
Ġ( "
a h
Ġproduc tiva
es tes
Ġrema te
ĠL ab
ci no
ĠEstudi antes
Ġa tar
ĠR em
Ġaprovech amiento
Ġ9 3
i Ã©
Ġinmig raciÃ³n
D UC
ĠPu ig
Ġhuel las
Ġta xi
Ġo ve
Ġart ÃŃsticas
ones a
ĠDescar gar
or y
Ġen la
ĠInform Ã¡tica
Ġtri p
Ġagu jero
Ġenfr ente
dir se
tel erÃŃa
b ablemente
im ental
Ġetc Ã©tera
Ġvege taciÃ³n
ic ados
Ġabst rac
as tas
Ġeste mos
Ġaplic ables
Ġam as
Ġab o
ĠV ÃŃa
i w
ĠI MP
Ġrecuer dan
am ante
Ġdig amos
r encia
Ġpsic olÃ³gico
Ġconsol idaciÃ³n
Ġbara ta
Ġdiv orcio
M as
Ġdependi ente
Ġconm emor
Ġhu ir
Ġregal ar
Ġcens ura
Ġsens ibil
ic he
Ġdel iciosa
Ġrent able
Ġespu ma
Ġano che
Ġth is
AL L
Ġescrib o
ĠIntro ducciÃ³n
os amente
Ġeleg ida
ĠF Ã¡
Ġmedi eval
Ġcrim inales
Ġorg Ã¡nica
ĠN ob
Ġmascul ina
gu o
Ġpes etas
Ġat entos
ĠIma gen
Ġa ero
ĠEvangel io
Ġdue le
Ġcomenz ando
Ġgran os
ĠPar is
Ġcansan cio
pre cio
E FE
Ġayud ando
ĠaÃ© reo
Ġextra Ã±os
h idra
ic Ã³p
Ġr ÃŃg
buen o
ĠIde al
Ġexpres ado
ĠPres s
Ġman uales
Ġcontam in
Ġtempor ales
Ġconsidera blemente
Ġpre lim
ĠAs es
cie dad
vi ar
Ġcient ÃŃficas
Ġprivi legio
ĠLa guna
Ġ8 8
Ġestup endo
ht ml
ĠJa Ã©n
Ġaleg ro
Ġatravi esa
ĠR in
Ġcompar timos
Ġyo ga
tin al
res te
Ġdese ar
Ġcos tar
ores te
ĠmÃ© rito
Ġo las
Ġparticip ante
ĠFo x
ĠN Ãº
lo ad
Ġimpac tos
ĠCrist iano
Ġobliga toria
Ġmin as
ti tas
Ġbenefici arios
Ġdi eci
Ġdes es
Ġpreocup es
ĠOcci dente
rocar ril
g em
les s
Ġutil ice
ve lo
ĠAnd re
di tos
pti on
Ġcop iar
ĠMonter rey
Ġsustan cial
ĠJ ordi
Ġdom ingos
ĠIn tel
Ġilust raciones
Ġan gel
O tros
Ġcre ados
me lo
P ese
Ġdeci di
us ieron
IN O
Ġaplic an
Ġmagn ÃŃfica
Ġcompens aciÃ³n
ĠcÃ¡l culos
Ġno tific
tic e
Ġ8 2
Ġfin alizÃ³
ad ro
ee k
Po demos
Ġcal cio
ri ga
ĠAp p
ĠIn ten
Ġinten dente
Ġ: :
Ġ0 3
ĠperÃŃo dos
ĠcÃ³mo dos
Ġtra uma
Ġar e
Ġexpres idente
dr os
Ġincapa z
Ġc itar
Ġinfl uencias
Ġmencion ada
ĠDeleg aciÃ³n
Ġencar go
Ġnomb rar
Ġcocin as
Ġproteg ido
T AR
Ġvol vieron
Ġpa tri
ri tas
ĠR ad
ĠV iernes
Ġviol aciones
Ġor illa
Ġleg alidad
Ġmic rÃ³
Ġn u
Ġmedi taciÃ³n
gu iente
ĠG EN
rÃ¡ fico
ĠLin k
Ġch anc
i po
ĠdÃ©bil es
Ġpermitir Ã¡n
at Ã¡n
ĠmÃ¡x imos
Ġnar raciÃ³n
Par ece
7 00
Ġintro duce
Ġfich eros
ĠS itu
ĠC y
Ġam istades
Ġexig en
Ġmater na
pos a
Ġad orn
Ġros as
min ente
ĠEs pec
Ġagricul tores
Ġdiput ada
Ġmoto cic
ri ente
Ġsi entan
Ġcau tiv
Ġpoder osos
com paÃ±
M AS
te ado
Ġcolon ial
Ġinconven ientes
gra cias
Ġsal ÃŃa
Ġcompar tida
Ġsal arial
n an
ĠJeho vÃ¡
Ġanterior idad
ĠInvesti gaciones
Ġcontro la
Ġse ver
Ġgan ancia
Ġapo der
Ġec olÃ³gica
Ġaspir antes
Ġmonum entos
Ġ0 5
ĠT uc
Ġde pre
ĠSo fÃŃa
Ġges tos
Ã© stico
al i
Ġorigin almente
Ġbaj ada
ĠÃģ vila
Ġconsecu tivo
Ġsecund ario
Ġestupen da
Ġdi alo
ĠMa teo
Ġpre visiÃ³n
Ġar ra
ĠÃ³p tica
Ġsi erra
Ġposi cion
Ġcuad rado
Ãĳ O
ter ias
Ġmar x
Ġpres unto
Ġju gos
Ġtraduc e
man ente
Ġqued Ã©
p ur
TE C
Ġdur Ã³
Ġayudar le
âĤ¬ .
ĠProfes or
f rad
Ġatrac ciones
Ġinflam aciÃ³n
Ġpiel es
Ġgrues o
Ġval iente
200 3
di dades
ĠDes cripciÃ³n
Ã¡ frica
ib a
Ġrodil las
di versidad
ĠP RES
ĠL ara
T T
ĠT E
Ġesper anzas
Ġalter aciÃ³n
v s
Ġextran jeras
Ġg entes
ĠS ci
Ġdedic Ã³
ĠComun idades
ĠAn g
Ġadap tado
Ġsurg ir
er ta
Ġaprov echa
ĠArgent ino
Ġn et
Ġaverigu ar
Ġco pas
ĠS ir
ĠIn t
Ġvol Ãºmenes
Ġmadu rez
Ġtermin ales
a cion
Ġm uel
Ġameric anos
Ġvincul aciÃ³n
ĠTar je
Ġpre car
Ġescuch ando
ĠA qu
ĠG i
Ġar an
ĠAudi o
Ġsu d
ĠA so
Ġrefle jan
Ġ198 8
Ġcer do
ĠÃĵ scar
ĠBar Ã§a
ĠM ec
ila teral
fi anza
Ġdist ra
Ġsub mar
Ġal iado
ĠRe des
Ġpres iones
Ġcircu itos
ĠAlcal Ã¡
Ġ8 6
ĠÃ³pti mo
ĠrÃ¡p idas
Ġexces ivo
Ġaument Ã³
Ġvent il
Ġhistor ial
Ġm Ãĥ
ĠI B
Ġinde penden
Ġtra c
Ġset enta
Ġorden ado
Ġconstru ye
Ġpri mo
Ġfar macia
Ġcaracter es
Ġestim ado
Ġapun tan
ĠV idal
ĠE jemp
Ġprior idades
Ġpo table
ven iles
Ġdesarrollar Ã¡
del l
ĠTama Ã±o
ome trÃŃa
Ġsepar ados
Tra baj
Ġrela tivos
Ġtre men
A F
z aron
Ġest ip
Ġtur b
ĠÂ¡ Â¡
m ada
Ġtu ya
ĠquiÃ©n es
cel ente
ir ma
Ġo le
Ġdes orden
Ġcar is
Ġfabric ar
it aron
ens ible
Ġpromo cionar
as i
Ġcor t
Ġpresent adas
Ġdepen den
Ġse amos
Ġreal idades
ĠSol ici
Ġpon gan
ge la
Ġ198 5
Ġna ves
Ġinn umer
th an
Ġder rum
U til
Ġnomb ramiento
Ġabsor ciÃ³n
Ġresist ir
Ġescas ez
i amos
Ġel enco
Ġvari antes
R a
ĠT oy
Ġaliv iar
Ġimp i
Ġpro li
ĠMar y
ĠGro up
ĠB ase
ĠromÃ¡n tica
ĠIb ero
ĠhÃ¡b iles
CI OS
Ġch aqueta
Ġdist or
ĠProduc to
Ġconqu istar
Ã³cra tas
ĠTri p
Con tin
Ġoscu ros
ĠEsper amos
Ġpu entes
ĠI gualmente
Ġinter rup
Ġreci bo
ĠMar x
Ġcre aciones
ĠT ienda
gre gaciÃ³n
Ġos t
Ġimp unidad
s ab
Ġque j
ĠC Ã¡n
Ġestudi ado
ĠChamp ions
Ġde can
Ġdin Ã¡mico
C asa
Ġan tel
Ġsub je
Ġrad iaciÃ³n
Ġalmac Ã©n
V is
M en
Ġexitos o
ĠChar les
Ġch is
Ġconv icciÃ³n
H ome
s olo
cop io
ĠD ur
ĠDe ja
AR D
ĠYou tube
Ġsu til
Ġmanif est
Ġperpe tu
al do
Ġp ra
Ġvincul ado
D a
Ġp ala
Ġcompar tiendo
t ta
Ġgo tas
Ġmor e
Ġrec tor
Ġarm ados
Prim ero
Ġb ÃŃbl
Ġg el
iz e
ga z
Ġtar ta
Ã³l icos
Ġp ilas
Ġac tÃºan
ĠsatÃ©l ite
om ar
pe dia
' '
S h
ĠU U
Ġapoy os
ĠTelÃ©f ono
Ġdibu jar
Ġcent rar
ĠDeclar aciÃ³n
Ġn Ã³m
ĠSe a
Ġpeligros os
am en
ĠcÃ¡l ido
Ġemerg entes
al os
Ġad ic
ĠAl icia
ĠPa ulo
quil er
ĠAcces orios
ĠsÃ©pti mo
ĠT in
ĠJ ones
Ġdom Ã©st
ĠSE G
ĠðŁĻ Ĥ
Ġinv asiÃ³n
Ġ0 6
Ġprevent iva
Ġmusul manes
Ġsu cur
I E
Ġme tido
Ġmil las
Ġesencial mente
ĠCl in
Ġinform Ã¡tico
ĠProp iedad
al go
Ġal gorit
Ġvar ÃŃa
Ġver ificaciÃ³n
ĠF ri
Ġdese amos
ab ras
ur recciÃ³n
ĠCora zÃ³n
ĠC AP
Ġgust ar
Ġne vera
ĠB ul
ĠHo use
er na
Ġtermin o
ti tis
ĠCl ara
Ġmuch acho
Ġacus aciÃ³n
Ġresiden cial
id an
Ġacer cÃ³
Ġllev ada
Ġal moh
Ġinquie tudes
TI L
ĠclÃŃn icas
ĠL on
Ġmil agro
Ġpodr ÃŃas
Ġc ielos
p ica
Ġcaball ero
Ġin unda
Ġretra to
Ġescri tora
Ġconsist ente
ĠT em
ro p
ĠP uerta
ĠMar ca
Ġfidel idad
P an
Ġsu bl
Ġbomb eros
ĠTer cera
Ġsu dor
ĠG am
Ġrit mos
Ã± ada
ĠHo gar
Ġna cidos
itu des
j adas
Ġaca demia
Ġreci claje
Ġcos tÃ³
Ġpag ando
Ġper dieron
Ġon das
rim ido
Ġsubra yÃ³
un ning
st ro
Ġtrans port
Ġpas es
ach ing
blo que
ĠHist Ã³rico
ĠProstitu tas
Ġinconven iente
Ġen cu
Ġne o
ivers idad
tu m
Ġglob ales
b ust
Ġves tuario
ces iÃ³n
Ġinstitu cionales
Ġprecios as
ĠCo p
ĠIn forma
Ġfal da
ĠÃ¡ cidos
Ġf reno
Ġcin tas
Ġjugue te
Ġ9 2
Ġcom an
ĠR O
Ġfre e
P M
uer tas
ĠNet flix
Ġab er
Ġseguir Ã¡n
Ġlabora torios
Ġra bia
ĠAm igos
Ġaj eno
lu encia
Ã¡b ado
ĠQu ien
Ġhaber lo
Ġal erg
Ġceleb raciones
Ġprovis ional
ĠPol onia
Ġoportun o
Ġar bol
Ġtradu cir
Ġma tan
Ġlec ciones
D Ã³nde
Ġdesp ierta
Ġtorn eos
â Ħ¢
ĠS Ã¡
Ġcor ro
Ġdi es
Ġc aba
ĠP ese
la h
ib eral
Ġcal cula
it enci
ĠAs i
teri ales
ĠbÃºsque das
ĠUsu arios
n s
Ã³l icas
ĠE ric
diÃ³ s
Ġ198 6
Ġtitular idad
V ER
Ġdemon ios
Ġfron ter
Ġred onda
Ġdese quilib
Ġaci erto
ĠP is
Ġcorpora tiva
Ġinfin ito
Ġep ide
g ara
ien a
Ġrad ica
Ġconvir tiÃ©ndose
a hora
ĠAy uda
Ġrecip iente
ĠInde pendencia
Pres s
Ġtom arse
ĠSin dica
Ġperju icios
Ġcur ric
Ġinv ent
Ġdefens ores
Ġven dedores
Ġexcur siÃ³n
Ġdetal lÃ³
Ġs om
ĠR el
ti tos
Ġp ones
ĠT y
Ġsocial ismo
ta te
terrÃ¡n ea
Ġt ÃŃa
= "
Ġgab inete
Ġw hats
Ġperfec tos
ĠCiudad ana
Ġlim itaciÃ³n
Ġt acto
Ġestan dar
ĠN orma
cas t
Ġprefer ido
Ġresul taron
ĠÃŃn dole
Ġpresiden ciales
ĠRo d
Ġpes ada
z u
Ġval ioso
ĠS chool
ĠV ER
Ġpres a
S L
Ġaplic ada
ĠP V
Ġapoy ado
Ġpublic adas
Ġantel aciÃ³n
Ġcrist ales
Ġneu tr
Ġo ÃŃdos
Ġlegisl adores
cent r
ĠS ob
ĠR ece
Ġlej ano
Ġimpor taciÃ³n
h is
one das
Ġpl uma
Ġd ama
Ġ" Â¿
ĠRe ad
Ġb ord
Ġab domin
ĠCor rea
ĠJorn adas
qu ir
ut in
Ġaum entan
Ġme lan
rol l
ĠD NI
ĠBre taÃ±a
Ġdes ar
jer ci
Ġeconom ÃŃas
ri ve
Ġ9 7
Ġdescar gas
Ġtro zos
Ġres oluciones
Ġsur tido
Ġacostumb rados
Ġvia ja
Ġtendr ÃŃan
bl aciÃ³n
Ġpes a
I ZA
Ġleer lo
tiemp o
Ġcam bie
Ã³st icos
Ġgan an
Ġvolun taria
Ġdon aciÃ³n
Ġsan tos
Ġfres cos
iv ir
Ġsignifica tivamente
Ġc igar
Ġaut Ã³
Ġresuel to
dal ias
Ġcoinci de
Ġmejor amiento
ĠJo ven
ul an
Dis fru
Ġcuidados amente
ĠDes cubre
ĠGran d
Ġhel icÃ³p
Ġafec to
Ġin us
Ġcer rad
Ġdesp ido
et ti
ma te
Ġso is
ĠdiscÃŃp ulos
ĠUn os
qu ista
per ci
ja te
is Ã©s
to oth
ĠÃ³pti ma
Ġcatal anes
Ġg all
Ġan ar
Ġlib ras
Ġinto ler
S a
Ġau ge
Ġrecu b
Ġcomput adoras
te xto
Ġactiv amente
ĠCol ombi
Ġdesactiv ados
c le
ver dad
Ġincons ciente
Ġman ufac
Ġdivi de
Ġil im
Ġro jas
ĠM IN
Ġmor ales
ĠSo le
pan y
Ġpel u
ĠJun ior
Ġnarco trÃ¡fico
Ġter restre
Ġgu iar
st ar
Ġapre cia
Ġapar ente
ĠC ob
Ġllev arlo
Ġcamion eta
Ġrel ieve
Ġsemif inales
ĠEn seÃ±
Ġtrabaj adora
Ġexclus ivos
Ġtra mos
ĠM emoria
200 5
Ġl ana
Ġv elas
Ġrecom pensa
Ġdig it
Ġ197 0
Ġevidente mente
r r
Ġhar Ã©
Ġescon de
Ġsuspen der
Ġrecom ien
Ġacord ado
Ġve cina
Ġec olÃ³gico
Ġdel im
ada jo
ĠfÃŃs icamente
Ġ( +
Ġdi era
Ġac ta
s iempre
ĠP ad
Ġesc ar
Ġmi tos
Ġentien den
oc al
C l
Ġa ir
Ġsel va
s ÃŃ
ĠT ec
Ġensal ada
go via
Ġcoinci den
Ġnorte americana
Ġtra emos
âĢĶ .
ĠIl ust
ĠacompaÃ± an
TIV O
ĠCam b
ĠCur sos
Ġl on
Ġn ubl
Ġbille te
Ġpro l
Ġfal l
Ġd ados
Ġto x
Ġgen u
pa tÃŃa
Ġresal tÃ³
Ġconvoc ado
ĠFamil iar
m undo
ĠT ienes
Ġmaravil las
Ġllan tas
Ġes quÃŃ
Ġri tual
ĠBo letÃŃn
Ġ198 7
Ġhier bas
Ġgeo grÃ¡fica
Ġr icas
ÃŃn guez
Ġlle guÃ©
ĠâĢľ Â¡
Ġcas ero
Ġoper an
ĠC ru
lic e
Ġsp am
Ġpin cel
Ġmol Ã©
Ġvulner abilidad
S M
200 4
Me di
Ġj es
Ġprov echo
ĠÃį n
ĠP L
ec emos
Ġprofesor ado
cion e
di e
Ġcintur Ã³n
Ġpec ados
Ġatro pel
Des car
Ġins cripciones
P AR
Ġrepresent ado
Ġrad icales
Ġcontra tado
Ġdig es
Ġhel ado
Ġob tienen
ari ana
Ġliber tades
ĠEst u
Ġrecep tor
ĠPri va
Ġconsum e
Ġaten diendo
ĠLu gar
Ġtrans vers
Ġdu dar
p m
ĠAnd rea
Ġin und
c ab
Ġsol as
ti ficaciones
alu pe
Ġvari ados
Ġrobo t
Ġdivul gaciÃ³n
Ġdeber ÃŃas
ĠZ e
Ġproce dencia
Ġc ÃŃ
dente mente
Ġconec tividad
uc ciÃ³n
ĠG U
Ġmas ivo
ha i
Ġespeci alizadas
ci erto
hua hua
ĠA vis
zz i
Ġalco h
Ġfom ento
Ġmane ja
dal ena
ĠDispon ible
Ġaf Ã¡n
Ġpar rilla
Ġtir os
Ġelim inado
Ġsem illa
Ġca tedral
Ġesc and
Ġequ ivo
Ġtranspor tar
Ġb iz
ĠMor ena
Ġdesh acer
Ġsangu ÃŃn
ĠbaÃ± era
ĠI M
at an
ĠIntelig encia
b ado
Ġrecibir Ã¡n
ĠE usk
Ġcompr Ã©
Ñ ı
Ġinnumer ables
io terapia
ĠRo ca
c ano
Ġpin tado
ens as
Ġexplo tar
me t
Ġac ent
Ġra zas
V e
Ġpa tron
Ġlament ablemente
ĠV ene
Ġllam amos
Ġreempla zar
adajo z
Ġavan zados
Ġcampe ona
Ġaport ando
Ġcusto dia
ĠsÃ¡b ados
Ġdiv ino
ĠSim Ã³n
ĠPas o
ion e
ĠF iestas
d ada
Ġam ado
Ġsens ores
Ġaguan tar
Ġ197 8
Ġvincul adas
Ġbatal las
Ġreivin dic
Ġhab rÃ¡n
Ġadmi raciÃ³n
Ġme tÃ¡
Ġcomun iÃ³n
mal te
ĠConfe deraciÃ³n
Ġ {
Ġacce de
ar Ã©
Ġfi jado
Ġfil ial
Ġcar ece
Ġexten so
Ġin ca
Ġindic ada
Ġun ico
u ado
Ġcans ado
ĠBale ares
ĠBan da
Ġestamp ado
ÃŃ qu
Ġsum ado
Ġelabor ados
Ġconec tados
Ġorient ado
ĠT ÃŃtulo
Ġus amos
am par
C AR
Ġnov enta
ĠEstatu to
Ġso Ã±ar
gra ciÃ³n
Ġgeo grafÃŃa
Ġdesplie gue
Ġus arlo
fec tos
Ġcompeti dores
Ġdi etas
Ġdi e
Ġabsur do
Ġr usos
Ġvari ada
Ġdesen caden
Ġe cha
Ġapun tar
Ġpeligros a
Ġmanten drÃ¡
Ġestric tamente
Ġespiritu ales
Ġmicro ondas
Ġsol dado
d Ã©is
Ġcre ÃŃ
Ġtable t
ĠCom pr
Ġcomple jas
t x
Ġ8 3
ĠromÃ¡n tico
Algun as
Ġcom ando
Ġsum Ã³
art Ã©n
Ġsupon en
ĠIn fo
Ġdomin ar
g ros
Ġvisit Ã³
Ġgen io
ade cu
Ġreduci da
Ġdirec tivo
I TA
Ġmil ÃŃmetros
Ġprodu zca
Ġentre gas
Ġama teur
Ġtrabaj aba
at Ã³
Ġen m
Ġdeba tir
tÃ¡n eo
Ġaj ena
Ġv ina
ĠBel la
ĠGobern aciÃ³n
Ġimpar tir
Ġan ualmente
Ġplan ificar
Ġvol viendo
Ġconoc ÃŃ
ĠMargar ita
Ġla van
ĠAl bert
Ãº o
ĠmuÃ± eca
ĠPro gram
Ġ ~
Ġconsol idar
f el
iz amos
Ġaf ortun
ĠDe partam
Ġconten ida
Ġrom ano
ĠS mart
Ġar mar
Ġfib ras
Ġimpres iones
ec tor
ĠIgual dad
Ġinvis ible
Ġproduc tora
B LE
g mail
Ġsin te
Ġplan cha
ĠAc adÃ©m
fer os
Ġhon gos
Ġimag ina
ĠEl Ã©ctr
C T
Ġconmem ora
ĠO limp
ba te
Ġap ps
ĠautÃ³n omo
ĠFab ric
p eso
M er
ĠP ep
and Ã©s
ĠRÃ© gimen
Ġpregun tado
ĠOlÃŃmp icos
ĠA Ã±ad
Ġmig raciÃ³n
ĠMÃ© rida
ĠChrist ian
Ġllam e
Ġcenten ar
Ġenvi dia
Ġe ficientes
ell er
ĠBe ach
N ueva
Ġrepar tir
Ġcontrol ado
ĠPat ria
Ġcomp re
ĠHuman idad
Ġso vi
Ġ197 6
Ġfan Ã¡ticos
Ġreclam aciÃ³n
ĠD IS
Ġelectrodom Ã©sticos
Ġgratu itas
Ġri sas
Ġma tices
Ġju icios
ĠaÃ±ad iendo
ĠaÃ±ad imos
ĠFÃ© lix
Ġpris a
Ġpod ria
ĠY uc
Ġinoc ente
Ġestu vimos
Ġsepar ar
Ġimp rim
Ġal dea
Ġasi Ã¡tico
z amos
am ent
Ġmin ister
ĠCoord inaciÃ³n
Ġponer te
Ġal berg
v it
ĠMol ino
R ef
Ġregist rada
Ġpo etas
u i
Ġneces ites
Ġrep ent
ĠLeon ardo
Ġp y
Ġsome tidos
Ġ8 7
Ġse pan
Ġconoz ca
Ġnatur almente
D ÃŃa
ec erÃŃa
ĠL y
Ġ8 1
Ġg ent
Ġrecu pera
Ġacar ici
la y
Ġejecu tivos
c ador
Ġmar ino
Ġlig ar
T rans
aliz as
Ġarru gas
ĠmÃ© dicas
ĠcÃ³m ic
Ġregist raron
Ġcuch illo
Ġreal ista
Ġcere ales
Ġdemos traciÃ³n
Ġin como
Ġvis ibles
Ġjuris p
Ġex tras
Ġcomun itaria
ĠCla udia
u tar
w ar
Ġde tuvo
Ġalquil ar
AD R
Ġanim ados
Ġconta bilidad
eno v
Ġ198 4
ĠAust ria
ĠAlim entaciÃ³n
Ġca en
ĠEcon Ã³mica
ĠComun icaciones
Ġp ru
Ġtruc o
Ġï Ĥ
on ales
if ique
Ġsuf riendo
Ġbar celona
Ġvin ilo
Ġrefer irse
Ġmar ina
do c
ĠWar s
Ġest ancias
ĠF lo
Ġvuel vo
Ġavan zadas
Ġe cho
Ġdestac ando
te dra
ĠA didas
la ve
Ġop uesto
Ġemo cionales
Ġ198 2
Ġs artÃ©n
Ġmar g
Ġcaus Ã³
ĠAgu ilar
Ġpot entes
Ġrecib idos
Ġa ires
Ġprofesion alidad
Ã¡ndo las
i h
Ġaloj amientos
Ġdes b
Ġver sos
Ġmil itantes
Ġexces iva
v oc
ĠHal loween
ĠSo to
ICA CIÃĵN
ĠContac tos
Ġdisc usiones
ĠO x
Ġdispar os
in ero
Ġley endas
americ anas
Ġorden ar
ĠPer e
ĠBen ito
Ġvideoj uego
ĠB eb
ĠMa tem
g encia
T IS
Ġadop tado
Ġro daje
Ġfigu ran
en g
ue ta
ĠC abe
Ġentr ando
ĠDo wn
b ella
tra c
ill Ã³n
Ñ ĭ
ĠC AN
ĠA k
ĠAb r
ĠPon te
A Y
Ġfundam entos
ĠDe ci
Ġca ta
ĠMa gn
ĠAp rov
Ġexcur siones
Ġc ueva
ĠmÃ¡g ica
Ġinst ala
ĠÃ© tn
Ġtraslad ar
tal gia
mi ra
Ġllev as
Ġperf um
Ġfutbol istas
Ġpos ter
Ġplante amiento
Ġasal to
Ġpat ente
al th
Ġpsic olÃ³gica
Ġsac udi
itor al
Ġac lara
Ð° Ð
Ġproteg idos
Ġinnov adoras
Ġtor tura
Ġrela tivas
ĠCastel lÃ³n
Ġdi j
Ġex port
Ġcompar tiÃ³
Ġreun irse
ĠNob el
cion arios
co pia
ĠCons ulta
Ġw ifi
Ġfis i
Ġbaj Ã³
dr en
Ġregres Ã³
Ġpl ug
Ġcompar ti
ĠCoo pera
ĠvÃ¡l ida
Ġirregular idades
Ġasesina tos
Ġtab lero
Ġremo to
ĠIndependi ente
Ġ7 9
Ġabrir Ã¡
Ġexcep ciones
Ġdel icado
ig en
Ġbo te
ĠPre mi
era ciones
V EN
Ġven go
ĠQu ito
ĠCla udio
Ġv ÃŃs
Ġtener lo
qui al
Ġca tas
Ġdetal lado
Ġdesa perci
Ġsent arse
ĠMetro politana
A Ãºn
Clar o
ue bl
L leg
Ġsen de
ĠGol d
di g
Ġsemin ario
Ġinf rac
qui Ã©n
ĠIra k
Ġs Ã¡
Ġaf ro
Ġacog e
ich os
Ġal ba
Ġpel i
ĠNÃº Ã±ez
Ġrecib ida
Ġ8 9
Ġperman entes
ĠEsper anza
ĠPl eno
H ist
ĠCh o
ĠVal ores
Ġacel erar
tr aron
Ġinter f
ĠCÃ¡ ceres
ru pos
Ġester eo
cu ito
Ġlici taciÃ³n
Ġten siones
Ġmercan cÃŃa
ho o
H an
Ġconce jales
Ġven drÃ¡
Des cubre
Ġconstru yendo
Ġap to
Ġpor ciÃ³n
Ġjef a
Ġpelic ulas
Ġenc aj
Ġtu tela
Ġinnov adora
ĠJack son
ab ric
Ġrecog ido
ĠAbog ados
Ġmis eria
Ġacus ados
in amente
Ġecos istema
Ġpien sas
Ġlac tancia
Ġrepara ciones
ing ue
Ġrelaj aciÃ³n
Ġmul tic
qu Ã©s
Ġprimor dial
ol s
ul la
f ÃŃn
Ġcomo didades
Ġ( Â¿
Ġm p
D ec
bl as
Ã©spe d
Ġt ru
Ġllev aban
Ġprevis iones
Ġt Ã³p
Ġclan dest
Ġdisfru tado
ENT ES
iz antes
Ġartifici ales
T EN
Ġfantas ma
G EN
Ġencar cel
Ã£ o
ÃŃ sta
Ġra tÃ³n
ĠLic encia
Ġsupermer cados
ps ia
Ġcab ina
ĠVal or
ĠES PAÃĳ
or ros
imen ea
ti ro
Ġex acto
ĠM AS
Ġescul tura
ĠDon de
is pos
tra ciones
ren da
Ġutiliz arse
ĠJ U
ecre tario
Ġconoci endo
dil lo
olÃ³g icamente
ĠT ran
Ġre h
cran ia
ras e
ĠAy er
Ġreivin dica
ĠNatural eza
S ta
Ġfascin ante
Ġbu que
Ġe mite
Ġrom anos
Ġmul tas
Ġterra zas
... "
Ġoscu ras
Ġpreocup ado
Ġprofun dos
Ġesp ir
Ġan cha
Ġextra Ã±
ce d
Ġtribu taria
ĠArm ada
Ġcomprob ado
e Ã±os
x eles
Ġconvier ta
Ġreco lecciÃ³n
Ġaproxim ada
Ġcolon ias
Ġtu bos
Ġpo zo
res tres
? "
Ġca ÃŃdas
@@ @@
qu in
ĠPol it
u taciÃ³n
Ġpier da
Ġabund ancia
Ġacces os
Ġmencion adas
L OS
j ect
ĠCer ro
ĠK an
ĠIS BN
ĠP ir
ĠH as
Ġemb arca
Ġalm end
ie w
Ġtan que
Ġaur ic
Ġpres tado
ĠY an
Ġinyec ciÃ³n
ĠV esti
Ġaban ico
Ġinfin idad
Ġtra ÃŃdo
Ġale jado
Ġtit ulada
M is
Ġmec Ã¡nico
g able
Ġal ianzas
Ġpro hÃŃ
ĠK at
Ġpar adas
Ġmercan til
Ġlimp ias
Ġprogra mar
C S
Ġso ja
Ġfal las
Ġcu ente
ĠestÃ¡ is
ĠM S
Bar celona
cios as
Ġapar ecido
Ġespeci alizaciÃ³n
Ġgubernam ental
Ġb recha
Ġment alidad
ir ÃŃa
Ġpos turas
erop uertos
Ġtum ba
s us
Ġf ic
Le y
Ġdisfru tan
g ement
Ġfal tas
ros os
Ġsuel ta
t ana
Ġjeje je
Ġdes ech
ĠP amplona
Ġcandida ta
fici al
ENT OS
Ġedi tado
ĠDa ta
Ġperson alizados
ĠS ra
Ġce der
Ġcontribuy en
Ġsuper Ã³
Ġdedic adas
Ġtra zado
Ġante mano
Ġlegisl ador
Ġfi le
Ġgran ito
ue ces
si der
Ġafi cionado
Ġlu b
ĠGÃ©n ero
Ġt ÃŃm
Ġ1 01
Ġdesconoci dos
ram ento
Ġdesn udo
Ġwhats app
Ġh erv
ban as
Ġdesn uda
ĠP ino
Ġra tific
Ġyou tube
Ġenvi ados
ĠTer ra
B S
Ġestruc turales
B ajo
Ġreno vado
ĠP rado
ĠS EC
us se
Ġimpuls ado
Ġlle ven
Ġrecon cil
Ġdese ando
Ġpreju icios
Ġ ]
Ġlo bo
Ġvar ÃŃan
Ġenc endido
Ġtrabaj adoras
ĠH it
Ġproduc tivos
ĠDom ÃŃnguez
Ġcria tura
Ã Ĥ
Ġcruc ero
ĠTra tado
ix a
Ġrevel aciÃ³n
ĠLa go
TM L
Ġcor ren
Ġex al
ĠStor e
Ġceleb ran
ĠS he
Ġpre ma
Ġrelig iones
T res
Ġchil enos
Ġg alax
Ġco h
po ol
O h
ĠV AL
Ġjugar Ã¡
uer as
Ġme d
Ġt v
Ġacces ibles
Ġartic ulaciÃ³n
ĠO pin
Ġdibu j
fic ado
Ġcompa tibles
Ġmort ales
k el
Ġbrasile Ã±a
ul osa
Ġeleg antes
Ġconcre tar
Ġcompet entes
ĠG ris
ĠX III
Ġdenunci ado
I ER
ist es
Ġsal ones
irÃ¡ mi
Ã©nd um
Ġsmartph ones
P V
Ġsur f
Ġres on
Ġdest ruc
Ġp c
Ġcal ificado
Ġqu im
ij Ã³n
ĠMen or
ic ket
Ġr Ãº
ac al
ĠMic ho
ĠB rig
Ġtor res
Ġconseguir lo
Ġpele ar
Ġgo zar
ĠAlb acete
ĠDol ores
Ġretro ce
ri ba
Ġre util
Ġb uf
te le
ĠCo lecciÃ³n
u tos
Ġre an
Ġacep tan
Ġro les
ĠPres entaciÃ³n
J a
H E
Ġda Ã±ar
Ġv ano
ĠAl co
Ġinser ciÃ³n
ĠR as
Ġtrop ical
ie la
Ã¡st ima
Ġcaptur ar
Ġlo te
Ġpas illo
qu im
Ġay untamientos
Ġprev ias
ĠEduca tiva
Ġdirig irse
Ġpresent aba
Ġconfi able
ĠVir gin
! )
ĠJust o
Ġconvir tiendo
Ġlar g
Ġinterac tuar
Ġc una
ĠMo isÃ©s
ĠAn des
ĠP ien
Ġavent ur
ramient as
om an
Ġsignifica tivos
ĠSte ph
Ġrecaud aciÃ³n
Ġhom icidio
r ome
Ġcru cial
Ġcicl ismo
Ġta x
ĠHen ry
Ġ9 4
ma y
Ġcal do
dor as
Ġdeleg ados
ĠDirec tora
Ġor ejas
Ġlib rerÃŃa
tique tado
Ġmodific ado
Ġla va
Ġimpres o
Ġacep tÃ³
ĠfÃ³rm ulas
Ġfun cionales
Ġaer ona
Ġtap as
as ÃŃ
er idad
Ġrecop il
Ġmonstru o
Ġexperim entos
Quer emos
Ġdi ablo
ĠDel gado
ĠSud Ã¡frica
ĠE M
Ġtea tral
org es
F orm
ĠLe gal
Ġpropon emos
Ġcomun itario
Ġm ueven
J es
Ġofre cidos
Ġmetabol ismo
ĠMar vel
Ġparticip ando
ĠUr b
ĠhÃ¡bi to
man os
Ġreserv ado
aliz ador
ĠMis s
Ġresist entes
ĠGer ardo
Ġasist ieron
Ġm ueble
Ġdistribu ir
Ġve as
Ġmira ba
Ġpim ienta
ĠD or
Ġ( Â«
Ġdiver tidos
Ġhabil itado
u idos
ĠGuad alupe
Ġimplic ados
ar to
Ġper ca
Ġcol gar
Ġpasa porte
ic an
ĠOp ciones
ĠSecre taria
ĠmÃºs culo
Ġaprovech Ã³
Ġestar ÃŃan
Ġrellen ar
f ran
Ġcamp us
Ġprotocol os
Ġagra dezco
Ġcombust ibles
ĠSer rano
ĠProfes ionales
Ġtram itaciÃ³n
Ġdefin en
ĠCol onia
Ġin do
Ġadh es
Ġapoy an
Ġan at
ĠMin i
Ġab riendo
Ġinterpre taciones
Ġurban as
ĠEsc rib
ĠI U
Ġ oraciones
Ġexpecta tiva
Ġsupermer cado
Ġvina gre
uy a
Ġmater nidad
Ġalber ga
Ġser ios
Ġtit ulo
Ġcontrar ia
Ġsu pe
ten cias
Ġinm enso
Ġquer ia
ĠB all
Ġinmobil iario
Ġinter medio
Ġval ent
Ġjoy a
ambi os
ĠNa turales
Ġlesbi anas
m ad
Ġmuer ta
tien den
ĠArm adas
Ġcredi bilidad
ĠWi Fi
Ġsu l
ĠmÃ¡s cara
Ġesta tus
l us
ci en
me jor
m icas
ĠN er
ĠK irchner
ĠConce jo
vi tud
Ġtr ono
Ġital ianos
n ada
Ġsec uestro
ĠS ust
ÃŃ l
ĠEmp ren
Ġru inas
us co
ĠÂ ´
Ġdemos trando
Ġacab e
ĠUl tra
ĠIN D
h oy
Ġto ques
l ac
Ġin hib
ĠCon oce
Ġagrade ciÃ³
Ġsosp echa
is imo
Ġfl ora
Ġp h
Ġp Ã¡nico
Ġadminist radores
ĠkilÃ³ metro
Ġd rÃ¡
ĠcatÃ³ licos
Ġ ).
ĠBa hÃŃa
ĠclÃ¡s icas
se gÃºn
Ġjab Ã³n
ĠSus ana
Ġlo cos
Ġobserv ado
ĠJul iÃ¡n
mo vil
pe tas
Ġson ar
Ġamar illa
Ġto cando
Ġma Ã±
Ġnoctur na
Ġn ad
ĠLabor al
Ġsing le
ES TI
Ġjust ificaciÃ³n
ient ales
Ġexig ente
Ġres idente
ĠV oy
Ġembara zadas
Ġbiblio tecas
ĠX II
ram ientos
ĠPr ÃŃncipe
un cio
Ġalu cin
Ġacep table
Ġven ciÃ³
ĠEqui pos
Ġase ver
Ġmortal idad
Ã¡r qu
T RE
ĠD al
Ġaliv io
F ac
Ġ !!
âĢ¦ ..
Ġus adas
Ġexp ulsiÃ³n
Ġol la
Ġal titud
Ġllam ando
Ġque ma
ma cias
Ġacces ibilidad
Ġmues tre
crib e
Ġrespon den
Ġhorri ble
S AN
Ġch ic
mer ce
Ġam en
Ġcoord inar
Ġcampe ones
ĠM ap
p x
Ġdes crito
Ġpas en
Ã©nd onos
ĠVe gas
Ġcancel ar
Ġtom adas
Ġy endo
Ġf ec
cul tural
Ġincon di
capa ci
Ġsent encias
ĠMÃ© dico
Ġmaltra to
Ġnoti ficaciones
Ġpantal Ã³n
Ġacostumb rado
ĠAutor idad
h on
ĠEn c
Ġsuper aciÃ³n
Ġmanip ular
ob s
Ġevi dencias
res as
ĠEn ter
Ġprove er
Ġest Ãºp
ĠRe almente
Ġcalent amiento
Ġsa grado
Ġperman ecen
tan to
ĠMil Ã¡n
Ġjubil aciÃ³n
ĠSig lo
Ġhallaz go
Ġmanio bra
Ġrecon ocen
C arlos
Ġcaracter ÃŃstico
ĠEn e
Ġrepresenta ciones
Ġedi l
ĠPa ula
Ġtel as
Ġm acho
Ġdiver tidas
ĠlÃ¡mp ara
Ġcar tu
Ġarrep ent
Ġdemas iada
ĠG es
olog y
Ġv itales
Ġpodr Ã©is
rig or
Ġadelan tÃ³
ĠC es
ĠdiÃ¡ logos
Ġexac titud
ĠÃ¡ngel es
ĠAgu irre
tu almente
... ,
ĠAl guien
Ġemp erador
Ġreac cionar
mos o
Ġcan ciller
Ġvas co
ĠMe didas
Ġvari adas
Ġequivoc ado
Ġv Ã©r
ĠT ac
ĠR on
Ġcom iendo
ĠSem inario
Ġapar ezca
ĠConse jos
ĠI T
Ġorgullos o
s ica
ĠA segu
Ġestad ÃŃstica
u o
pir os
Ġtro zo
Ġderro tar
Ġdivi dir
ĠAlcal dÃŃa
Ġmir Ã³
Ġcap illa
Ġpas eos
g ente
Ġaman ecer
Ġper cep
ï¼ Į
ul ador
Ġve j
?? ??
Ġpres encial
ĠCaball ero
Ġtrav es
ĠWh ite
h s
ĠHues ca
ĠLegisla tivo
ĠE leg
Ġ198 3
ĠBus ca
ri entes
Ġvol cÃ¡n
reg Ã³
ĠMana ger
v ero
Ġfrag mentos
Ġcor rea
Ġpron Ã³stico
Ġinci dentes
enci ada
00 1
Ġca yendo
Ġescon der
Ġsopor tes
ĠA rena
Ġdific ul
Ġsincer amente
ĠB ell
ĠM Ã³vil
ĠmÃŃn imas
t rio
Ġp ig
Ġtra en
Ġtelevis or
Ġescla vos
er ry
Ġdi lu
tiz ados
ĠAdo lesc
Ġb ando
Ġsol ÃŃa
ĠJ uez
iz aron
Ġdej arse
ĠP un
ici smo
Ġman gas
Me jor
Ġdiv or
Ġh ilos
cil lo
rar i
U CA
Ex celente
ti entes
Ġmas ac
ĠSy stem
Ġn in
Ġin minente
ĠPas tor
ĠU crania
Ġpes ados
ĠRonal do
Ġmir as
Ġinnov adores
vo ces
ĠOb ra
ĠBel Ã©n
ĠSho w
du zca
ill on
Ġri g
Ġbor des
Ã³st oles
Ġsab ÃŃan
Ġjam Ã³n
Ġinquie tud
Ġb ack
ĠH ill
Ġmedi cin
Ġdesapar ece
ĠGal le
Ġhier ba
ĠAmeric ana
Ġhisp ano
ĠB ir
ĠO C
ĠEx terior
Ġch ip
ĠJer ez
ĠBra vo
Ġfi jos
Ġrepor ta
Ġgra baciones
Ġfer rovi
Ġarquitec tos
Ġs ales
Ã¡m icos
N E
Ġto tales
Ġex pos
ol l
Ġpromo cional
Ġsen dero
Ġserie dad
Ġimprescindi bles
Ġapren diz
iden tes
v ÃŃ
Ġcub iertos
n io
Ġcotidi ano
ĠfÃ¡rmac os
Ġpas ajes
ĠSocial ista
Ġru bro
El la
n ab
Ġacum ula
Ġab a
s ales
ĠSe de
vi dencia
Ġenc ender
Ġimpor taciones
ĠP ers
Ġcont enta
Ġatra e
Ġprov ienen
Ġtra i
Ġdoc tora
Ġreduci endo
ĠGl oria
Ġenc ues
Ġafirm ado
ol d
ĠU d
s ub
ĠLe tras
Ġtex turas
ĠCab o
e ado
- )
Ġgre mio
Ġnos talgia
Ġorden amiento
ĠC av
Ð ĵ
Ġprovin ciales
Ġfund Ã³
Ġvia jero
Ġemp eÃ±o
Ġad misiÃ³n
Ġemi tiÃ³
Ġdesign ado
ĠZapa tero
ĠA Ã©
Ġpi dieron
.... ..
Ġref ieren
Ġpe dal
Ġrecop ilaciÃ³n
oc as
Ġfrac ciÃ³n
n Ã©
Ġmo le
Ġob se
Ġvo tantes
g Ã¡is
ĠCar ab
ĠT ay
t ente
V ID
ĠE C
ĠInstitu ciÃ³n
da f
if t
Ġexp lico
no va
ĠTar ragona
! âĢĿ
Ġfin alizado
Ġpes taÃ±as
ca piÃ©
Ġvac un
os e
Ġsuple mento
Ġre ad
ĠT Ã©r
Ġmuch ÃŃsimas
Ġref uerzo
Ġs Ã³
Ġcir uj
ĠðŁĺ ī
Ġrecur rente
Ġcau te
qu ias
Ġdic cionario
ĠVie jo
Ca teg
de x
Ġindis cu
Ġacum ulado
Ġimpres ora
Ġmanifest antes
amb ien
Ġperson alizadas
ĠObserv atorio
go gÃŃa
ĠMan chester
Ġcanad iense
Ġmis ericordia
M or
Ġcomun ista
Ġsigu ieron
Ġb eta
Ġadelan tado
ĠB A
ĠCr Ã©dito
Ġma xim
fol io
ĠC abil
Ġreci ba
c ante
Ġcomprome tidos
Ġast uri
Ġcre mas
Ġic onos
Ġaclar Ã³
Ġabor da
Ġel abora
pec ciÃ³n
ĠRa cing
Ġnov ios
oc aciÃ³n
ĠCh ap
ĠeconÃ³m icamente
ĠVie tnam
Ġrep Ãºblica
ĠProcur adurÃŃa
zob ispo
Ġni Ã±ez
Ġh ur
Ã©s imo
H H
Ġinst ru
Ġadi v
lo cu
ĠjurÃŃ dicos
Ġ19 60
ĠAm Ã©ricas
Ġter mo
ĠCh ris
r ona
Ġb lin
ĠTra tamiento
ĠIs idro
âĢ¦âĢ¦ âĢ¦âĢ¦
D ES
N ada
ĠBM W
Ġhumil dad
Ġtramp a
Ġorient ada
Ġm era
ĠB las
or s
ul lo
Ġru b
dom en
Ġprovoc an
mall era
ĠclÃ¡us ula
Ġsin ton
ch ada
Ġsencil lez
Ġiden ti
ĠResta u
Ġprem isa
Ġinmobil iaria
Ġinteres ada
Ġfalta ba
Ġsomb rero
Ġsil ic
Ġmensaj erÃŃa
. (
Ġman dÃ³
Ġstan d
Ġt echos
Ġtrans acciÃ³n
Ġimpos iciÃ³n
Ġesc aso
Ġaran cel
ĠS IN
c rim
Ġhamb ur
ĠJ ud
Ġequ idad
Ġcr Ã³nicas
Ġprim arias
w ich
Ġrom ana
ĠAl f
Se Ã±
Ġexp uso
ĠPÃºbl icos
Ġcorpor aciÃ³n
Ġjud ÃŃo
Ġa tes
TI TU
ER C
L AS
Ġrequer ido
ĠS oria
Ġpobl ado
es tÃ¡
Ġexig entes
ĠEst able
aliz arse
Ġcre cen
Ġcoher ente
y es
Ġllev arÃ¡n
Ġtar da
ĠTecn ologÃŃas
p ie
Ġi dio
Ġ197 9
ĠÃ¡r bitro
ĠM Ã©ndez
ĠUn ited
Ġinter min
Ġcaracter izan
fici encias
ĠRe publ
ĠmandÃŃ bula
Ġcon de
Ġhom olog
Ġregular mente
Ġvolun tario
Ġexperim ental
Ġderi vado
um an
abor aciÃ³n
Ġvac una
Ġinform al
ĠPe tro
ĠplÃ¡st icos
Ġahor ros
Ġrecor re
Ġponer me
ĠC ra
Ġdis para
ĠPar ro
Ġperman entemente
Ġper on
Ġdin Ã¡micas
Ġtre ce
r ing
ici dades
Ġpres ento
Ġbancar ias
vi al
ur ada
ĠT era
Ġviol enta
Ġsimul tÃ¡neamente
Ġpues tas
Ġve amos
par able
âĢĶ âĢĶ
d d
ĠL ive
Ġrep lic
Ġprogram ado
Ġcontra ctu
Ġlimp i
Ġelev ados
ĠCa fÃ©
Ġinstal ada
Ġproduci dos
cion adas
Ġrevel ado
r enta
Ġgo ta
Ġen ju
Ġ' '
Ġdemon io
can es
ĠVer ano
Ġobten iendo
ĠF emen
Ġaf ueras
Ġinvit Ã³
Ġrepor tes
Ġsup uso
Ġfich as
ĠPok Ã©mon
ĠinÃº til
in ea
Ġagres iones
Ġasign ado
Ġ197 3
Ġagrade cido
ĠMag dalena
Ġdivi dido
Ġemer gencias
Ġforma ciones
ud or
Ġju veniles
ho t
Ġcuan tÃŃa
ion era
Ġdipl oma
ĠRe un
de f
Ġatribu tos
ĠAdminist raciones
Ġplan etas
Ġban deras
te mos
Ġconf ies
Ġperten ecer
Ġg in
Ġconten edores
ĠAdo lfo
Ġocul to
ĠWord Press
AN TE
ĠPriva cidad
Ġases ores
ĠSco tt
ĠU ribe
ĠSec undaria
ue Ã±o
Ġrela ta
Ġex cav
L ib
ĠS omb
aj ada
a den
ĠDes ign
Ġder ra
B R
Ġcomp acto
Ġcar ros
Ġasegu ro
Ġdepen der
ĠM et
ĠSte ve
cion ando
z arse
Ġgrie ga
ĠO mar
Ġanti biÃ³
Ġvin tage
ĠMov istar
Ġsu icidio
Ġvisu alizaciÃ³n
ĠcÃŃr culos
Ġprob abilidades
ĠA lan
ĠO P
ĠmÃ¡ ster
lan ueva
Ġconstru yÃ³
Ġ \
Ġesp len
Ġconform ado
Ġsuger encia
Ġprotagon izada
ĠdiseÃ± adas
ĠMas s
Ġhin capiÃ©
Ġedi toriales
ĠnÃºc leos
ĠhÃºme do
Ġplan tillas
Ġleal tad
Ġol vida
Ġparad igma
Ġl ien
ur so
Ġcuri osa
Ġ197 7
ĠEn trada
Ġtor tu
Ġin adecu
Ġs pa
ĠÃ©l ite
Ġinter ven
Ġor gas
Ġlament able
w eb
Ġorganiz ados
Ġetique tada
l ista
Ġch imenea
A quel
Ġcons ign
Ġdej Ã©
ĠPie dra
ĠP O
ĠCons ide
Ġh im
en ario
OL U
Ġdesign aciÃ³n
ĠL unes
ĠAB C
Ġec les
Ġabri go
d ome
Ġro taciÃ³n
Ġfi able
Ġjust ifica
el Ã©ctr
Est udi
ĠFoto grafÃŃa
ĠHerman dad
y le
Ġesp l
Ġdis im
re la
ER N
Ġbendi ciÃ³n
ĠportÃ¡ tiles
D er
Ġpre fi
Ġgir ar
ĠOr questa
ĠTra vel
Ġrefer Ã©ndum
ĠAra bia
de cer
Ġfacil idades
Ġsurg ido
Ġarbi trar
ĠWilliam s
ĠD J
Ġselec ciones
Ġmic ros
ĠmÃ© ritos
ĠV III
Ġasigna turas
A pren
ĠEmpres arial
Ġse da
Ġapro x
Ġactu aliza
ilan dia
Ġater ri
Ġaudiovis uales
Ġocci dentales
ĠTele fÃ³nica
Ġpro cu
Ġpar ecÃŃan
ĠM iemb
ens ores
Ã©is bol
ĠOr lando
Ġmone taria
ell y
Ġval ora
ĠH ip
Ġexam inar
Ġadqui ridos
ol f
ĠT ren
Ġubic adas
ÃŃ feros
Ġdura bilidad
Ġtuber ÃŃas
Ġest all
der ÃŃas
ĠF la
Ġpareci da
Ġsalv ador
ĠestÃ© tico
Ġsuje ta
Ġin Ã©di
Ġalcan zan
tor iamente
Ġfr Ã¡g
ĠVir tual
Ġacor dar
m ones
ĠA hor
Ġras tro
Ex iste
Ã Ĺ
Ġtr om
c ro
Ġrecl ama
Ġanim ado
ĠL ac
Ġcons ciencia
ace tas
Ġ^ ^
Ġch ile
ĠPro ceso
Ġven ÃŃan
Ġvolv emos
Ġaf ines
Ġcrist ianismo
ĠÃŃn tegra
Ġ197 5
Ġcom icios
Ġmas car
Su per
Ġintro duc
ĠY u
ĠNo ta
se mos
ĠMon um
Ġsus ci
Ġrecha zÃ³
Ġtel es
Ġparticipar Ã¡n
FOR MA
ĠÃ¡ gil
Ġver bal
B ol
Ġps ÃŃqu
ĠPro to
cu rio
ĠSe govia
Ġfrust raciÃ³n
Ġcin es
Ġexten dido
Ġsi em
dibu jos
ĠT oro
in ch
Ġinici aron
val os
ud ar
Ġenorme mente
ĠautÃ³n omas
Ġp leg
Ġdi rÃ©
Ġmemor ias
Ġapoy ando
h Ã©ro
Ġconven iencia
Ġdur ar
ES CO
Ġrecord amos
ĠComp ra
Ġpar king
Ġre estruc
ĠintÃ©rpre te
Ġdic tamen
Ġc ÃŃv
Ġpref ieres
Ġdespren de
Ġrelacion a
duc to
ĠTe am
Ġev al
Ġingles es
Ġtra cciÃ³n
Ġdu de
Ġhorm onas
ĠcÃ³mo das
Ġc Ãºp
AR IA
d arios
et c
Ġgobern antes
ĠcatÃ¡ stro
Ġvendi dos
eci dos
Ġco pi
Ġpobl adores
Ġquis e
Ġhura cÃ¡n
Ã¡r selo
Ġrep aso
cip es
Ġesc ort
Ġcompeti tiva
Ġpropon en
Ġma quil
In formaciÃ³n
ol in
Ġfach adas
cu er
ĠSol ar
Des arrol
Ġtom en
Ġimpul sa
r adoras
endi da
Ġrecl amos
Ġmi ro
Ġponer lo
Ġprogres iva
Ġfuncional idades
Ġinv entario
Ġderiv adas
o cup
Ġalim enta
gu ila
ron to
ĠVia jes
ĠestratÃ©g icos
Ġc ese
ĠL U
Ġat enta
rac k
le tismo
ĠSindica to
Ġreun ieron
Ġpermit ÃŃa
an ista
Ġrecom pens
Ġescog ido
ic om
f onos
d Ã©s
Ġinflu ir
ĠH il
ĠS aba
ĠN ingun
Ġcas eros
ĠEsc olar
ĠSam uel
ĠV oz
Ġver an
Ġen z
Ġsol tar
ĠTÃ©cn icas
ĠGuar di
ĠG T
Ġsin Ã³nimo
Ġrefle jar
Ġcaball eros
V IS
Ġdo g
Ġmu d
ĠES O
ĠclÃŃn icos
ud ÃŃ
Ġp echos
ĠA cos
Ġemp eÃ±
Ġing esta
A f
p ic
Ġpresent en
Ġescri tas
ĠMin istros
ĠPri ma
dr Ã©
Ġdesarroll adas
Ġfal s
Ġcompar to
p io
pro ducciÃ³n
Ġan imo
A G
Ġmister ioso
ĠS pe
Ġdetermin ante
ĠE mer
ment al
ub er
Ġimpu gn
ĠGol f
Ġor illas
ĠCamp us
Ġpun tas
ĠC asta
poner se
Ġalterna tivo
Ġinunda ciones
Ġretir ado
Ġnoctur no
Ġrode ada
ier nos
Ġcan tera
ĠJu venil
Ġoptim izaciÃ³n
j ug
Ġreper cusiÃ³n
mon t
ĠI tal
Ġmono pol
ci adamente
ÃŃ en
tar iamente
co g
Ġinaugu rÃ³
Ġparticipa ciones
ĠS D
ob os
Ġprecios os
Ġsegu ras
Ġsindic ales
ĠAd am
ĠBol so
Ġrequer ida
? ...
ĠOcci dental
di mens
Ġvent ilaciÃ³n
los a
C R
Ġesplen dor
ĠD im
Ġglo bo
Ġen cub
Ġsuces iÃ³n
al da
Ġas pira
Ġinf racciÃ³n
cion ismo
Ġhay amos
Ġestar Ã¡s
Ġcri tica
Ðµ Ð
Ġsub ord
Ġpo pul
v ados
qu io
ĠIn m
Ġingre diente
Mu jer
ĠD OM
ĠYuc atÃ¡n
D AD
Ġin tac
Ġobserv ando
Ãį N
ĠH igh
Ġurban izaciÃ³n
g ulos
ĠCo un
Ġenfoc ado
Ġcer ro
tr arse
ĠVic tor
Ġc Ã©sped
di st
Ġgen es
ĠG ram
gun as
Ġc i
Ġi remos
ĠO h
gu ra
ĠT OD
ĠA ur
Ġir res
em on
Ġme xico
her e
da te
edi encia
ĠQuer emos
Ġcoron el
j illo
ĠB Ã¡r
Ġrom ance
ĠCin co
Ġcalific Ã³
ĠTrin idad
Ġfrecu encias
Ġconvertir Ã¡
Ġfa tiga
ĠL G
Ġmoles to
ĠMe xico
ĠF IN
ĠÂ ©
Ġ/ /
ĠBen jam
Ġconta g
ĠcomÃºn mente
M arÃŃa
re dedor
Ġpost res
ĠOc t
Ġsub asta
Ġunif orm
TI VA
Ġlatino americanos
ib o
ĠM uebles
Ġlleg ara
ĠCabil do
Ġpun tual
Ġl Ã¡c
Ġcas arse
Ġdepor tista
alu dos
t l
Ġvertic ales
Ġquedar Ã¡n
Ġreconoci das
ĠS erÃŃa
Ġcinemato grÃ¡fica
Ġautop ista
ĠT os
ĠAut om
Ġluminos idad
ĠIN S
Ġobten ida
mb res
Ġintegr ales
ĠC ara
tor ce
Ġcont ing
ĠOf fice
Ġmister ios
don ado
Ġreun ido
Ġesque mas
ĠComp rar
Ġreci bimos
Ġapar tados
ol las
Ġrevolucion aria
Ġmodern idad
ĠSil via
b aciÃ³n
ĠEx iste
ul ip
ĠÃī ste
Ġimplic aciÃ³n
ĠDeb emos
T om
mon d
Ġenga Ã±o
ĠPresiden ta
Ġrecor ridos
Ġp ana
Ġperci be
Ġfer ias
Ġlogr arlo
Ġcontrol ada
ic on
S ON
Ġb ea
Ġactu ando
........ ........
Ġsinies tro
ï¿½ï¿½ ï¿½ï¿½
al lo
dos o
Ġcar bo
on el
Ġautor izados
Ġco yun
Ãĥ Âº
Ġmolesti a
ĠRepres ent
ĠPremi um
Ġdes crip
Ġpregun tan
Ġelabor ada
Ġeduc ar
Ġrecuper ado
ĠRE G
Ġbusc adores
Ġrecord ando
Ġdor ada
Ġcrea tivos
ĠAn tio
Ã³rm ula
c ala
e duc
ĠM UN
Ġsitu ados
ĠPes ca
ĠpÃ¡jar os
Ġpel os
blog s
ĠCon de
Ġfr om
Ġpreocu parse
Ġcon table
Ġall i
Ġso pa
Ad visor
Ġfal se
Ġsen da
Ġdefin ida
Ġpoten cias
Ġcre aron
so cia
Ġdiscul pas
Ġesper aban
Ġencan tados
ĠDis eÃ±
Ġaparecer Ã¡
ĠMer can
Ġproli fer
ĠMicho acÃ¡n
Ġdesp ro
de za
Ġse pul
Ġpre dio
h as
Ġsuel dos
Ġre za
Ġrequier a
Ġpene traciÃ³n
Ġg la
ĠâĢ ĭ
Ġsuave mente
ĠJ as
Ġdu reza
Ġencan tarÃŃa
Ġco ch
Ġagr ado
ĠM Ã³nica
Ġproducir se
Ġle a
Ġanal ista
i antes
Ġromp iÃ³
Ex per
ĠAQU Ãį
Ġresuel ve
Ġmon tado
ĠGra cia
ĠSER VI
J unto
Ġse vil
Ġdef ra
Ġp izar
Ġpa tologÃŃa
Ġrepos o
ĠEl lo
Ġcar os
Ġtrem endo
Ġan exo
D on
Ġca yeron
Ġdi ente
Ġ4 50
Ġte mpl
ĠAu xil
Ġuruguay o
Ġsens ual
Ġexper ta
Ġpeda zo
Ġcas ado
Ġca udal
ĠLo ve
ĠAd ul
ĠH TML
U P
Ġab domen
ĠFil ip
Ġsuperfici al
ĠIb iza
c ero
Al go
Ġmonstru os
vent ura
Ġexten s
ĠUR L
Ġvar iado
Ġis l
d onos
Ġdesn udas
Ġins a
Ġrespons abil
ĠB ron
do lfo
Ġsil ves
Ġmaravillos as
ĠP ed
ĠM B
Ġbar bar
ĠBo ok
Ġha gamos
Ġ2 20
Ġequilib rada
Ġestren Ã³
Ġad u
ĠA du
Ġincluy Ã³
Ġcatal og
Ġrob ust
dr ÃŃan
Ġgobern ar
ĠbritÃ¡n icos
ĠToda vÃŃa
Ġin cul
Ġmar is
Ġdom Ã©stico
form ance
A utor
c ales
Ġcar pin
ĠAs istencia
O n
Ġvisit ando
Ġjapon eses
U RA
Ġviol ento
ĠMar te
lar on
ĠCab rera
Ġrevel ar
ĠÃ³p era
ward s
Ġdeb ida
Ġreclam aciones
Ġsc orts
ĠAl um
Ġa eropuertos
Ġentren adores
Ġedi ficaciÃ³n
ĠExp lor
Ġna z
V ol
Ġneol iberal
Ġpre co
ĠExcel ente
rer ÃŃas
de pendi
Ġclas ificar
L u
ĠF ru
Ġdo Ã±a
ĠRo pa
Ġquedar ÃŃa
ific ador
ĠF uego
r ÃŃas
Ġma trimon
Ġilust raciÃ³n
ĠUnivers idades
ĠclÃŃn ico
Ġactiv aciÃ³n
bur g
Ġcor o
Ġ umb
Ġline al
Ġmi re
AL A
Ġdomici l
ĠM am
pe uta
ĠtÃºn el
Est im
Ġe h
ĠfÃ¡b ricas
Ġord inario
ac emos
ĠA cep
ĠAn na
Ġorg Ã¡nico
c amente
Ġma estrÃŃa
pen as
Ġche que
ĠM r
i us
Ġacudi eron
gon al
ĠP AS
Ġcontribuy entes
m ios
Ġhab itan
Ġdependi entes
Ġcoti za
Ġalcal des
Ġsemej antes
Ġpade cen
Ġpod ÃŃamos
n ic
Ġtir as
Ġmis er
Ġg luten
Ġpre cep
ĠRo o
ĠMar tÃŃ
Ġtermin aron
aco a
Apro v
Ġcomenz amos
B l
Ġdoc encia
Ġsuce diendo
Ġminim izar
Ã© lica
ri era
anim idad
ĠValent ÃŃn
ĠÃ¡ra bes
ĠWal ter
Ġpo dio
Ġexist an
Ġadver tencia
re f
Ġacab aba
av ent
Ġelig iÃ³
ĠH ard
f ort
Ġpa ul
Ġano tÃ³
ĠM ala
Ġp ila
Ġ198 1
Ġimpos ibilidad
Ġcuen ca
m ne
idad os
Ġsatisf echos
ĠTecn olÃ³gico
ĠH isp
ĠCo leg
ĠCar l
Ġlo gre
Ġrep i
Ġdelic ada
Ġluc e
Ġmanifes tar
Ġins iste
Ġhe gem
ĠA go
Ġpos te
Ġsent imental
Ġor ina
ĠPen ÃŃnsula
di ble
Ġrelaj arse
Ġca tedr
Ġm entes
Ġat entados
Ġaproxim aciÃ³n
iden ta
ĠcompaÃ± eras
Ġa tiende
Ġas piraciones
Ġenv ÃŃan
Ġra m
uy Ã³
No ticias
Ġfij aciÃ³n
c us
Ġdes alo
Ġmostr arÃ¡
Ġformul arios
ÃŃ lica
Ġin her
Ġcorpora ciones
p lo
ĠES T
Ġparlam entario
ĠMon e
Ġarreg los
x s
Ġn ÃŃ
ĠExper iencia
ĠÃŃ bamos
Ġmin eros
Ġmonitor eo
Or gan
Ġinforma tiva
Ġgrie gos
9 00
Ġb all
L uis
ac ol
Ġdi le
Ġsal imos
ĠVol un
Ġno ciÃ³n
Ġpal ma
Ġros tros
P G
ĠF UN
Ġviv encias
Ġviol entos
Ġrec tificaciÃ³n
ĠAnti guo
ĠcÃ©le bre
Ġincom pa
F or
ĠMan tenimiento
ĠFre e
ĠZ a
Ġhipo teca
ADR ID
Ġconsigu ieron
Ġintercambi ar
Ġi mb
Ġsa tur
Ġinme jor
ĠBau tista
ver y
Ġvis itan
Ġinvers ionistas
ĠI C
Ġfon tan
Ġdes bloque
Ġred ondo
ĠJul ia
Ġrecomien dan
Ġse car
fa to
Ġper didas
ĠLu go
Ġdes gar
Ġorganiz Ã³
ĠJ on
ĠreÃºn en
Ġgran ja
Ġdestac adas
ĠPre cios
Ġdelincu encia
Ġprepar an
Ġlogo tipo
Ġdesapareci dos
Ġdist ingue
Ġconce de
T an
Ġalter n
Ġadelan tar
direc tor
Com par
Ġpl ural
R ep
Ġcon gres
Ġconoz can
wa gen
ĠBomb eros
ĠD ibu
ĠNorm almente
ar quÃŃa
Ġseman ales
se ver
Ġpato logÃŃas
Ġsolid aria
z go
ĠLabora torio
Ġfi abilidad
Ġpertin ente
ĠmetÃ¡ f
ĠPo p
ĠG ib
Ġdem ora
ĠB itcoin
ĠN el
Ġn as
Ġisrael ÃŃ
Ġbuscar Ã¡
min os
l ib
ĠB ull
Ġconcent ra
Ġd amas
ĠA lar
Ġele va
Ġper didos
m ÃŃn
Ġn ul
Ġdomin ios
Ġcan on
Ġcole ga
ĠEl im
Ġfores tal
Ġmedi aciÃ³n
Ġlegisla tura
Ġcuad ras
Ġcontrovers ia
ab eth
Ġmulti discipl
Ġor n
k g
Ġins critos
ĠobstÃ¡ culo
ĠCom pos
Ġcas illa
Ġretom ar
ad s
Ġcontrad ic
Ġes clar
Ġase gÃº
seÃ± or
Ġincre menta
ch et
ĠN E
ĠNet work
lic k
am on
Ġcoher encia
Ġe ri
ĠM aya
Ġdo tar
Ġequip aje
f amil
ĠCe cil
Ġampl itud
Ġescla vitud
EN TO
ate ar
Ġse des
Ġequiv ale
ed icto
Ġh omo
Ġsac ando
ar s
ĠInf raestruc
Ġfores tales
Ġmuch achos
ĠAp ro
il d
ĠUnivers ity
ĠRom Ã¡n
Ġdetermin Ã³
Ġencontr ados
Ġver dades
Ġ% .
ĠSab emos
Ġamor tigu
Ġbrin dan
rocar b
ĠCap itÃ¡n
ĠP H
Â ¨
M X
Ġinoc encia
Ġal ien
Ġorg Ã¡nicos
Ġ( Â¡
Ġencar gar
ĠM ike
ĠN um
Ġtr ÃŃo
ph one
Ġestren a
Ġz ana
Ġsegu idos
ĠB y
Ġagu jeros
y y
Ġsuple mentos
ies e
per as
ĠTrip Advisor
F F
ĠEs cu
Ġenga Ã±ar
ad ita
Ġflam enco
ĠM it
Ġtran sex
j un
Ġcar ril
Ġat ribuy
ĠMuch o
Ġsignifica tivas
Ġvoc al
Ġe d
in dust
de as
Ġcompar ado
Ġre medios
iz ca
Ġin ces
esti dad
Ã©nd ome
B an
Ġad ulta
Ġval iosa
Ġper if
Ġdesconoci da
â ĸ
tel la
Ġcicl istas
ĠB es
ĠEnfer me
Ġesca pa
Ġse cas
Ġsal gan
Ġmedioamb iental
M AN
Ġcompren dido
ĠMedi ante
Ġcompeti ciones
ĠEstrel la
G ener
[ âĢ¦]
ĠA th
Ġbaj ando
tr icas
Ġtradicional mente
ta in
Ġan dan
na p
Ġselec ciona
Ġcal entar
mo der
ĠDu que
s che
Ġenfrent amientos
w o
icios as
Ġacus a
Ġinsul ina
ĠPr ueba
Ġgri tar
we et
Ġform ulaciÃ³n
Ġpist ola
Ġdeses peraciÃ³n
Ġgen iales
le a
ĠAlex ander
T Ãº
Ġtom arÃ¡
Ġa fer
ĠDi ana
ĠAlim entos
ĠEd gar
xto tal
ĠBern ardo
Ġb illones
Ġesper as
Ġcafe terÃŃa
Ġver los
Ġpes cadores
Ġexclus ivas
Ġpun tuales
tr adas
Ġaudi torÃŃa
ci an
Ġproyec ciones
Ġpele as
Ġfavor ables
ĠdÃ©ci mo
Ġgu antes
M al
Ġemp atÃŃa
ĠCon temp
Ġvoc ab
Ġt umb
Ġfin alizaciÃ³n
ty le
Ġ rib
Ġpeligros as
Ġinsist iÃ³
ĠLen gua
ĠHit ler
com p
ver tido
ve dra
Ġbu ques
ve da
Ġevent ual
Ġquer amos
Ġglob alizaciÃ³n
i tivas
Ġ ÃŃdo
Ġdestac ada
Ġtraduc tor
ĠParti cipaciÃ³n
Ġdef orm
ĠEm il
Ġinstan tÃ¡nea
ĠnÃ³m ina
Ġcoca ÃŃna
Ġproxim idad
Ġvent an
ĠSi mp
ĠtÃŃp icas
Ġcomp rando
Ġcaus ando
OL A
Ġmadrile Ã±o
Ġactiv istas
ĠCons um
C ualquier
ir os
ran as
ĠquÃŃm ico
Ġdren aje
Ġtur nos
ĠJo e
ed y
Ġpade cer
ĠJ oy
Ġdistribu idores
Ġpul so
Ġinfl uye
Ġdocument ales
Ġintegr ados
Ãį C
Ġarran ca
Ã³n imos
Ġacudi Ã³
it ness
Ã©s ima
Ġverda deras
Ġcil in
Ġprivileg ios
Ġbiz co
ĠMe dios
ĠBos ton
Ġdispu tar
r entes
ĠDes ta
ĠG ijÃ³n
Ġch amp
Ġde tiene
an Ã¡
ĠChi huahua
1 50
ĠC umbre
Ġmedal las
ĠA pertura
Ġano tar
Ġrecha za
ĠNe u
Ġpedir le
Ġorganiz an
ig encia
rel aciÃ³n
U EL
Ġbre ves
J u
ad illas
Ġende ud
ĠL il
Ġcoopera tivas
ĠtÃ©r mica
Ġdesarrollar se
l la
Ġestrech o
ĠC i
Ġdes emb
Ġencontrar emos
Ġord inaria
Ġhipo tec
Ġres eÃ±
Ġabier tamente
om al
ĠDu ran
Ġtri logÃŃa
ĠCOM P
Ġform ales
Ġsecre ta
Ġdist ribuy
Ġreempla zo
Ġreper cu
Ġins pira
ĠAm erica
ab amos
Ġtri pul
Ġfund ado
ĠAri as
Ġdesem bar
Ġfirm eza
Ġrepeti ciÃ³n
ĠK it
ĠEmp ez
Ġcompa trio
ĠAr ti
Ġsim il
Ãº r
ĠO cho
Ġmar can
Ġaj enos
Ġconfun dir
Ġver ific
ĠquÃŃm icas
ĠestÃŃm ulo
Ġch am
ĠGer mÃ¡n
ĠR ue
por tivo
Ġag il
Ġat mos
Ġapell idos
Ġex ilio
Ġco cciÃ³n
Ġindi os
Ġpers igue
Ġdistribu idor
ĠA mp
Ġar til
ĠmetÃ¡l ico
EM A
Ġar ticular
Ġdon aciones
Ġartic ulaciones
ĠâĤ¬ .
Ġagro pecu
ĠP E
CuÃ¡n to
ĠH O
Ġmar ÃŃtimo
ĠPu tas
Ġcompr Ã³
u des
Ġvis ite
ĠAut on
Ġape tito
ĠMa ta
Ġconstitu ido
Ġconsidera ciones
Cu Ã¡les
Ġcuad ra
Ġgo za
T am
Ġsum ando
Ġrecog idos
? -
Ġas ciende
ĠRoy al
Ġc enta
Ġproces ar
IC E
Ġidentific ados
ĠEsc uelas
Ġcomprome ter
ĠMexic ano
Ġasfal to
n el
ĠQuÃŃm ica
Ġlo cu
Ġinf il
Ġextrac to
Ġten iente
Ġen re
Ġol ores
Ġal t
Ġ17 0
Ġconcl u
Ġ196 8
Ġbio grafÃŃa
Ġdisput ado
hidra tos
Ġitiner ario
Ġalfomb ra
ĠO ce
Ġagrad ables
Ġmeter se
ti es
ĠEx press
ĠPol o
Ġz umo
Ġsaber lo
Ġver sion
Ġhom ogÃ©n
ĠTok io
Ġres eÃ±as
Ġdieci s
tÃ¡ r
Ġvin ieron
Ġinsu mos
ĠP ales
Ġlle gas
Ġconsul torÃŃa
Ġimperme abil
Ġguar dias
Ġcomp res
so cial
po le
200 1
ĠCrist ian
Ġaje drez
Ġen unci
Ġpas Ã©
Ġasist ido
Ġfer rocarril
ĠperiÃ³ dicamente
in fl
ĠVil lanueva
ad ir
Ġpas arÃŃa
ĠÃŃn timo
Ġlum inoso
ĠlÃ¡mp aras
Ġprostitu ta
ĠEdi ciones
ĠMar bella
esti m
Ġvalor ado
Ġreco gen
ĠD A
cos a
wit ch
Ġadver tir
Ġh ort
ist ra
qu ismo
Ġoptim ismo
Ġhor ne
ĠCic lo
Ġa tor
ĠT oma
Ġdiv xtotal
Ġre mitir
Ġan ex
ĠCo ca
Ġnave gando
Ġartes anos
ĠT S
Ġor iente
Rec or
Ġlegisla tivo
Ġna taciÃ³n
Ġbio diversidad
Di rec
Ġvein ti
ĠR enta
Ġadj un
ici dios
ĠR ap
IV ERS
Ġm ajes
ĠMo de
ur nal
ĠG ame
Ġase o
ĠsÃ©pti ma
Ġrespe tando
ĠEx po
ga ta
ĠmÃ¡x imas
Ġam uebl
Ġadh esiÃ³n
Ġt entaciÃ³n
Ġcolabor ador
ĠN BA
ĠF L
Ġar bit
Ġsuper ando
lo ck
Ġcome tidos
Ġar du
Ġmedi ana
AC E
Ġprosper idad
ĠEs cal
Ġgros or
Ġcomen cÃ©
ĠN ik
Ġpar cela
ĠRob in
Ġsuper an
ĠNe gra
ÃŃ b
Ġsel los
ĠCar naval
Ġdefens as
Ġcom a
Ġconta bil
Ġdist ritos
Ġcomprome tida
ĠVill al
Ġconstitu ir
Ġconcl uido
Ġandal uz
Ġno ci
ĠI X
Ġindi cios
B B
Ġantic on
Ġest res
Ġsu ite
Ġcre yentes
ĠBan g
Ġprim ario
ĠRub io
à ¤
ĠSon ora
erv o
Ġinclu irÃ¡
D an
Ġmal eta
ĠL lo
Ġr entas
Ġorigin alidad
Ġconden s
In s
Res puesta
Ġproven iente
Ġadmi ra
Ã² n
ent er
ig er
Ġver sa
ĠfilÃ³so fo
Ġinm or
ĠFuer on
Ã© taro
ks wagen
Ġconstitu cionales
vis a
Ġpl omo
Ġclas ificado
ĠSe at
Ġesca pada
eci da
Ġconcent rado
Ãī l
Ġvib ra
Ġhistori ador
ĠImp er
ĠB is
Ġrela x
Ġabandon Ã³
en ciÃ³n
Ġinjust icia
inos au
ĠEl iz
Ġconsegu imos
s el
ĠCar acterÃŃsticas
ĠcuÃ¡n tos
ĠEx posiciÃ³n
er ie
tiv ismo
ĠVi olencia
Ġagrupa ciones
Ġlad rones
heim er
l Ã©
Ġcaracter izado
Ġloc alizado
Ġvincul ada
Ġsende rismo
Ġtremen da
Ġvera cidad
Ġpor tales
ĠLiber tadores
pe da
Ġpa trimonial
ist entes
ĠF lash
Ġsinc ero
Ġconforta ble
uer do
al ina
Ġn oroeste
quil las
es co
x ia
Ġtrans f
ĠFan tas
Ġre habil
Ñ Į
Ġvari ante
Ġrespec tivo
p to
car as
Ġdesapar eciÃ³
Ġfer til
ĠKe vin
ger ir
Ġregular es
es io
ien za
Ġrepubl icano
g ras
m Ã¡
ĠDis co
ĠPlan ificaciÃ³n
Ġadj unto
Ġde ro
Ġdes centr
ĠArm ando
Ġcal ifica
Ġat ribuye
pol is
ĠC aj
Ġprom ul
Ġdo tado
ĠcÃ©l ula
ĠVirgin ia
Ġvolv ÃŃ
Ġparti endo
Ġmodern izaciÃ³n
ĠP av
Ġma p
Ã³ metro
Ġres ign
Ġtur ÃŃsticas
ĠV Ã©
Ġmal la
Ġmuch acha
Ã¡ tiles
gu esÃŃa
Ġestren ar
ĠH all
Ġterap ias
Ġconvir tieron
aj ust
Ġcre adas
Ġlook s
Ġinv ir
Ġpeque Ã±
Ġinmedi aciones
Ġsu ba
uel tos
Ġescal ada
Ġapla udi
ti me
ĠNa tional
Ġrev olu
Ġobserv Ã³
ĠAmb as
Ġesc Ã©n
Ġ !!!
ent amos
enta ciones
ĠV entas
Ġprome tido
bl an
G ar
Ġfacil itan
ĠS tra
Ġpro le
Ġmuer en
ĠBus h
ta bilidad
Ġopera tiva
U b
Ġcom ento
Qu ien
Ġconce der
ĠCom en
ques a
Ġna tivos
Ġdesb ord
Ġpermi ti
Ġmilag ros
ist ir
Ġbas an
Ġs anos
C os
in illa
Ġplante an
Ġexpe dientes
te to
Ġob rero
Ġcumpl im
Ġpade ce
Ġbloque ar
ĠÃī sta
Ġreemp laz
k ins
we i
h l
Ġ Ã©s
ur go
ĠtrÃ¡ iler
Ġmar cos
ĠAngel es
Ġrob os
Ġorgullos os
p ÃŃ
Est ados
Ġmi ti
ona er
Ġagrade ce
ĠN is
ĠBat man
Ġres uci
es col
Ġmo ciÃ³n
ĠJ ueves
Ġdu do
Ġtron co
ven idas
ĠD ice
Ġm y
Ġbene f
Ġcompeti tivos
Ġperf ume
ĠmÃ¡r mol
Ġvendi endo
po ca
Ġacu den
Ġven imos
Ġadjud icaciÃ³n
Ġpo Ã©tica
Ġbanc ario
ti ciÃ³n
rim idos
Ġpetrol era
b oy
ĠEst ruc
V ide
Ġmara tÃ³n
Ġap el
Ġconsidera ba
Ġgaranti zado
Ġinteres an
s ent
Ġcaca o
Ġdemoc ra
ĠmaÃ± anas
ĠGEN ER
Sta tion
ĠM X
Ġdeci da
Ġsosten ido
Ġcontex tos
Ġqued aban
Ġabur rido
Ġm ts
Ġdest itu
Ġhidra taciÃ³n
e lec
ĠF ores
Ġplante Ã³
ante mente
Ġpas iones
Ġges tor
Ġcar idad
Ġh emor
Ġmexic anas
Ġacor des
ĠPaÃŃs es
ĠPro gramas
Ġdes fil
Ġconf ÃŃa
ĠFel iz
Ġno va
ĠCor ona
Ġpre dis
Ġenga Ã±os
ĠCol o
ĠLuis a
Ġadelan to
ĠMa Ã±ana
Ġenc aje
Ġingres Ã³
ĠD un
ĠVer dad
ĠMal donado
ĠsÃŃnt oma
Ġdi mos
itar iamente
Ġpres untamente
ĠBo x
ĠGir ona
Ġantioxid antes
ĠIz quierda
> >
a cia
Ġt as
Ġpa pas
Ġac cionar
ĠBea triz
Ġtu vieran
Po co
Ġopos itores
Ã©st or
Ġplac ent
Ġil usiones
Ġcontamin antes
ĠElectrÃ³n ica
F L
Ġsus crip
par ar
Ġentreten ido
ĠFinanci era
ĠN UE
Ġarm ada
Ġestren os
it ÃŃ
Ġregist radas
Ġblan que
ĠSal to
Ġgalle go
qu ien
ĠJa zz
Ġver b
cios os
Ġajust a
Ġac ome
Ġus arse
Ġtranquil os
Ġrec to
e dia
Ġd adas
Ġven as
ĠI ES
Ġp aja
Ġactu alizados
M ira
i Ãĥ
ĠInstitu ciones
ĠVic epres
Ġtraslad Ã³
ĠHu a
ay uno
ti embre
Ġinten sos
Ġapar ecieron
Ġpres o
Ġfoto grÃ¡fica
Ġla tÃŃn
ĠSent encia
ros iÃ³n
Ġpal p
Ġverte b
Ġcompl icidad
ĠB adajoz
Ġmar ro
Ġmen stru
ach as
es tra
Ġcal aba
lar se
Ġar omas
Ġis lam
Ġvege tar
Ġinver na
ĠPel ÃŃculas
Q L
Ġso cor
ĠAs unciÃ³n
quis itos
UD AD
Ġsen adores
l um
Ġmeta f
Ġmaravillos os
ĠN ASA
Ġman us
ĠR D
Ġaf ian
lan ta
ĠS as
ĠSuper inten
Ġimp lÃŃ
Ġincent ivos
Ġemp laz
ĠF O
Ġdej as
ĠEs os
Ġra y
Ġtemp los
Ġinterpre tado
tÃ³ rica
Ġc esiÃ³n
Ġv istos
tal les
Ġcir co
Ġdisfra ces
ĠP it
Ġbaj ado
" ...
dr omo
Ġjerar quÃŃa
Ġpes taÃ±a
Ġtrascen dencia
Ġs uela
Ġdecir se
ĠDic ha
ĠS af
oc os
Ġcol ombia
Ġnota blemente
Ġnecesit arÃ¡
Ġbode gas
Ġor eja
Ġpais es
Ġfelici tar
Ġnucle ares
qui dez
m isiones
ĠT ony
ĠBo de
ci ados
Ġasum iÃ³
Ġ( -
ĠF uen
ĠlÃ¡p iz
Ġast ro
ĠGal erÃŃa
Ġremo del
b is
Ġf eo
Ġmin ia
ir as
Ġrum or
ĠCapa cidad
I OS
ĠJ ona
ĠJ Ã³venes
Ġflu jos
land Ã©s
ter es
Ġsinc era
ruc e
Ġde di
Ġv est
Ġtu tor
Ġacord Ã³
ĠP OL
Ġ36 5
å ½
Ġconcep tual
Ġinesper ado
ĠFer rari
ĠTarje ta
Ġpal os
Ġgluc osa
ul es
Ġan illos
Ġast ron
Ġrebel des
Ġsu ciedad
Ġser iamente
Ġas amble
ĠF Ã³rmula
ĠPer manente
Ġestar Ã©
ĠC M
Ġdar emos
Ġpe ques
å¤ ©
ĠDepor tiva
Ġemis ora
ĠDisfru ta
Ġpreten dÃŃa
ment s
Ġconsul te
Ġbl ack
ĠV ino
Ġconsecu tivos
Ġcol lar
Ġagra v
sen al
Ġf ide
ĠM isiÃ³n
Ġentra Ã±
Ġsan itarias
ĠFran ces
Ġpost ul
ĠV ila
Ġasegu rando
Ġejecu tiva
Ġelev aciÃ³n
figu raciÃ³n
Ġnul idad
T ar
Ġcomb inan
Ġdescan s
Ġcar encia
Ġenfer merÃŃa
Ġinnov aciones
Ġg us
Ġpat rio
Ġac h
Ġmor ena
Ġcompos iciones
al ismo
v ich
Ġcer radas
ĠDra gon
ĠE vo
ĠF MI
ton io
ĠProfes ores
ĠLo uis
Ġimag inario
in aron
Ġmay ormente
Ġvol vÃŃa
Ġcual ita
Ġflu ido
Ġadap te
Ġge omÃ©tr
p ez
ĠIm Ã¡genes
an ces
ĠDin amarca
il s
Ġperder se
Ġconvers ar
Ġf ero
Ġdesemp le
v or
Ġenv ases
ĠacadÃ©m icas
ĠT U
Ġdecis ivo
ĠIn versiÃ³n
Ġempi ece
ĠL ife
Ġro dar
Ġincon stitu
Ġdis puso
Ġmas ter
Ġefec tivas
Ġvac ÃŃa
ĠBar b
Ġreduc en
P ens
g amiento
Ġcal ibre
) ...
Ġfin aliza
fec ciÃ³n
C entro
Ã³ ticos
Ġo ye
Ġton to
ĠJane iro
Ġto caba
ĠFal ta
Ã¡n eo
Ġbo letos
ĠCla us
Ġpas as
ĠBlue tooth
ĠR ecu
ĠG ig
Ġam e
Ġab rum
Ġlav adora
Ġdesas tres
bl ar
Ġgri pe
j amos
Ġlap so
Ġcarbo hidratos
un dan
Ġconsist encia
Ġestatu a
Ġconsider adas
Ġconvoc ar
Ġinsu ficiente
is es
ĠD ÃŃas
ĠSer ies
ĠHab rÃ¡
Ġmostra ba
Ġg ro
Ġcri anza
Ġam ino
Ġ197 4
Ġgalard Ã³n
igh ts
Ġmar inos
Ġal lan
Ġsolid ario
da y
Ġestudi antil
Ġcolor ido
aliz arÃ¡
Ġcor tinas
ĠK ong
ĠgrÃ¡ ficas
Ġgal erÃŃas
ĠVene cia
ĠD anza
le ar
Ġman dos
Ġcritic ar
ĠLu x
ĠOri ental
< /
Ġimp edi
Ġdispar ar
Ġindi ferente
Ġj ar
Ġ10 5
ĠNor uega
ĠM ON
ĠV ac
Ġpreocup ante
Ġplen itud
Ġexp uestas
Ġbon dad
TU RA
Ġdesf avor
um Ã¡n
Ġpresentar Ã¡n
Ġest al
ĠH onda
Ġlevan tamiento
Ġhomosex uales
Ġtu rista
ĠCo ch
s Ã³lo
ol is
ĠEn car
Ġpos es
Ġplan ea
ĠComun ista
cer ca
Ġur nas
ĠBar ra
ĠG ana
ĠM emor
Ġrecor te
Ġfar macias
Ġtribu to
Ġacer c
Se gun
Ġexist ido
ster dam
: :
Ġca torce
ĠMa h
Ġhiper tensiÃ³n
Ġentregar on
Ġsi te
Ġind ud
Ġmutu o
Ã©ndo la
ch en
ĠAs h
Ġcan tando
Ġen ca
ĠP eso
Ġra mo
s ulas
ĠcÃ³ c
Ġcerv ezas
Ġalum b
pu ra
ĠTrans par
ĠGab ri
R ob
Ġad icciÃ³n
ĠAr que
tor y
Ġdesagrad able
Ġfantas mas
Ġtorm entas
Ġcolch Ã³n
Ġbesti a
Ġman go
Ġmagist rados
Ġnie tos
ĠApo yo
Ã¡s quez
Ġprece dente
Ġvi able
ĠCir cuito
Ġgarantiz an
ĠÃ ĥ
Ġllama tivo
Ġcorrespon dencia
M Ã¡
Ã³st ol
ĠmicrÃ³ fono
ĠG RAN
ĠC RE
Ġpro gen
Ġexpres o
Ġur gencias
fo x
Ġbusc Ã³
Ġconces iones
Ġreflex ion
p ing
Ġrespec tiva
ĠOc ta
Ġse pas
Ã¨ s
vers iones
Ġacer can
ĠteÃ³r icos
la va
Ġbur guesÃŃa
Ġn acen
ĠP om
ĠEstrateg ia
Ġf rigor
ĠC ual
va tar
Ġindi que
Ġdedic arse
Ġdemas iados
ÃŃr culo
Ġespl Ã©n
Ġintroduci do
ĠX I
es pecial
Ġtermin ando
Ġcoo per
ĠT us
ĠV lad
duci do
Ġcaus an
Ġcompens ar
Ġllam aron
Ġpreocu par
Ġpas ivo
! "
Ġcre mallera
Ġajust ado
Ġnota bles
ĠOpera ciones
Ġres tante
Ġaplic arÃ¡
Ġand ando
ĠB s
Ġcel os
ĠJohn son
Ġc itados
Ġre ba
Ġdifer encial
ĠTele comunicaciones
ĠResta urante
ĠP M
Ġcent rada
ĠNuev as
Ġn ic
vi dentemente
2 50
Ġreiter Ã³
T P
ĀĀĀĀĀĀĀĀĀĀĀĀĀĀĀĀĀĀĀĀĀĀĀĀĀĀĀĀĀĀĀĀ ĀĀĀĀĀĀĀĀĀĀĀĀĀĀĀĀĀĀĀĀĀĀĀĀĀĀĀĀĀĀĀĀ
Ġpiz za
Ġsol tera
Ġcu enten
Ġencan tador
Ã©cn ica
Ġreac tiv
Ġvac unas
Ġm ÃŃtico
Ġconfidencial idad
Ġpac ÃŃfica
ĠanÃ©cdo tas
G P
Ġtri tura
lam o
ble mas
Ġdefin idos
Ġimp a
Ġcomien ce
temp orada
Ġf ro
ĠS ÃŃn
ĠEcon om
Ġdespe dir
ĠV iena
Ġbar ran
Ġextra Ã±as
Ġmagist rado
Ġcoopera tiva
Ġcan tantes
Ġac op
ĠCort Ã©s
ĠMat ÃŃas
Ġdegust ar
ul ce
IDAD ES
Ġa diÃ³s
es tu
Ġun animidad
ĠR ivas
Ġtrans ferencias
Ġclaus ura
Ġn ut
Ġin can
ĠAl z
Ġsos tienen
Ġoportun a
ĠPubl icidad
Ġecos istemas
Ã¡n gulo
Ġcerem on
Ġauxiliar es
Ã¡c ticos
i arse
Ġrela jar
ĠprÃ³x imamente
J ER
Go ogle
Ġderro tas
ĠSala zar
Ġestro pe
x el
Ġsiem bra
dos a
Ġpreca uciÃ³n
ib ar
Ġocup Ã³
Ġrecha zado
ĠFigu ra
ĠEv entos
Ġalmacen es
ĠN aran
Ġyo gur
Ġvar Ã³n
ĠEnseÃ± anza
ĠRespon sabilidad
Ġmayor ia
ĠSan dra
Ġfabric ados
âĢĿ ).
ĠCer tificado
. Â°
Ġemb ri
ti dor
ĠV elas
Ġalo jar
r ara
ci aciÃ³n
Ġven cimiento
ver tir
ĠA se
ĠJo han
u dad
Ġcrea tivas
Ġstre aming
Ġdesarrol los
Ar gentina
Ġs am
Ġcoloc Ã³
Ġregist rarse
ĠacompaÃ± antes
ĠCÃ¡r denas
in da
is i
gra ph
Ġclas ifica
Ġases inados
u mos
Ġ19 36
Ġfol k
ĠImp res
n on
Ġactiv as
Ġder ram
Ġdetec tado
Ġl itro
ĠUN ESCO
F I
Ġcon fer
tr Ã©
Ġestric to
Ġgratu itamente
Ġreproduc tor
Ġevangel io
Ġvice versa
Ġdetal la
Ġnovedos o
Ġvi abilidad
Ġra cha
Ġoblig Ã³
Ġacog er
j im
ci f
Ġimp o
Ġeconom ista
tÃº e
Ġculp ables
ĠRecuer do
ĠTerri torial
Ġtern ura
ĠTribu taria
ĠPol ar
Ġto b
Ġpropor ciones
Ġextra ter
p ad
Ġmen Ãºs
Ġdevo ciÃ³n
Ġperten encia
Ġcontes tÃ³
Ġf rio
Ġrepor tÃ³
blogs pot
ri an
Ġdescrib en
in f
con oci
Ġfin as
ĠSol id
ĠTemp lo
ĠS Ã¡bado
tol Ã³gico
ĠToy ota
ĠAl ber
ĠteÃ³r ica
ten go
Ġexist ÃŃan
E res
Ġdi rÃ¡
ĠcÃ³ r
ĠQ ues
Ġr aras
Ġagu ja
Ġconden ados
Ġcab ellos
ĠseÃ±al ando
Ġan taÃ±o
ine tes
l icas
Ġo don
ĠGuar da
ĠespÃŃritu s
ĠVe ter
ton as
ĠBB VA
ĠF res
Ġmin orÃŃa
Ġesca para
Ġayudar nos
Ġcicl ista
Ġmanio bras
Ġanci ano
Ġfemin ista
Ġbel los
rocarb uros
Ġam ores
Ġquer ÃŃamos
Ġca f
Ġu va
n n
Ġs w
ĠMe ga
ti ci
Ġyo ur
j en
ĠMar ÃŃn
Ġtem er
Ġfran ja
Ġorganiz adas
H as
Ġalter ar
Ġp abellÃ³n
Ġac ento
Ġases inos
Ã©l ico
ĠSegura mente
Ġrecord aba
Ġacredi taciÃ³n
N uevo
Ġobje tiva
Incl uso
Ġra yas
ĠContac to
Ġautor iza
gen as
Ġpareci era
ti ente
Ġcrip tom
ĠInv ierno
Ù Ħ
ĠS P
Ġilust ra
Ġinspir ada
ĠG r
no che
Ġtendr Ã©
ha ga
Ġtrip ulaciÃ³n
dil lera
Ġme tiÃ³
Ġpersi anas
Ġrestr icciÃ³n
Ġmejor an
Ġinst antes
Ġasist iÃ³
Ġconsum en
Ġrap ido
Ġno bles
ĠB rad
ĠDe ad
Ġcab ez
ĠP ack
Ġvia jan
Ġvers Ã¡til
ĠTru jillo
ĠStu dio
ag s
Con oce
Ġsac an
Ġtransforma ciones
ĠFron tera
Ġv iste
Ġsegu iremos
vi ra
Ġcrim in
Ġincom ple
Ġjurisp rudencia
ci ada
Ġdemas iadas
Ġp irÃ¡mi
Ġesp esor
V ia
Ġpos ts
ĠH ur
Ġdisfru ten
Ġorden a
u ciones
ul ia
h r
ĠInstitu cional
in stein
ci entemente
ĠS l
Ġtrav esti
cre o
Ġpsi quia
Ġmer amente
ĠAso ciaciones
ĠGer ente
Ġhin cha
ĠN ex
Ġdesen f
Ġflex ibles
Ġar quero
la o
Ãį T
c s
ĠSud amÃ©rica
Ġcontin ental
p ino
ĠJosep h
ĠÃįn dice
Ġaproxim ado
Ġestim aciÃ³n
ĠpolÃŃt icamente
ĠFre d
Ġpa usa
Ġauto con
Ġrec am
Ġrob ado
Ġesper ada
Ġdirec tas
Ġdirec trices
Ġencon tre
Ġingen io
ĠSub s
g rano
Ġp se
ri dades
Ġsocio econ
Ġaconsej able
Ġencar gÃ³
N adie
on ada
tr Ã³p
Ġcomenz aba
Ġenvi ando
Ġleg ÃŃ
Ġvac as
Ġrebaj as
Ġacces orio
ĠP Ã¡
Ġf os
ĠSo uth
Ġperu anos
ĠEstad ÃŃstica
ĠP LAN
Ġat leta
ĠRes ulta
ĠCor reo
Ar ch
ĠQuer Ã©taro
Ġm im
Ġobs esiÃ³n
car ia
Ġrepubl icanos
Ġeli jas
D R
Ġd Ãºo
ĠCon t
ĠAn der
Ġsistem Ã¡tica
Ġred onde
ĠPlan eta
omb o
Ġemple ada
Ġnorma tivas
Ġproduc tivas
iv ado
ĠIs l
ĠA Ã±os
e lo
Ġfres cas
Ġguitar rista
Ġsimp a
ĠAbra ham
Ġpas illos
Ġmar cados
Ġra yo
ĠEstra tÃ©g
Ġrid ÃŃculo
c ter
Ġn adar
ĠB ust
Ġestudi Ã³
Ġsopor ta
ĠGe org
OR IA
ĠAvis o
Ġgan aron
Ġale a
ĠLis boa
ĠE jerci
ĠJu ana
in st
Ġob ispos
Ġfoto grÃ¡fico
ĠCre aciÃ³n
Ġinvestig adora
Ġentr aron
¸ ı
Ġmer ecido
Ġrecib idas
Ġdivis iones
tic ar
Ġjuz gados
ĠBienes tar
ĠâĢ º
Ġmay Ãºs
Ġmoder ado
ĠPubl icado
Ġre puesto
Ġinscrib irse
Ġsospech oso
ĠL ine
ĠH ero
ven o
Ġpo tes
ĠCon n
Ġcontribu ciones
F un
Ġp Ã³
Ġgrande za
Ġec olÃ³gicos
Ġtra ck
ĠacompaÃ± ante
Ġfran co
Ġcontrar res
Ġca dera
Ġman cha
Ġen do
Ġint ente
g ir
ĠA U
Ġ11 2
ĠW atch
ĠDan i
Ġexcep cionales
ĠZel anda
Ġbenefici arse
IS A
O tras
Ġpor terÃŃa
Ġdesp le
Ġambi ciÃ³n
Cas i
Ġdel gada
Ġlig ado
ci ma
ĠSal as
ĠautÃ³ c
y m
AN DO
ĠG ames
l ist
Ġba hÃŃa
ĠVe h
Ġpublici tarios
ad illo
se la
ĠDi jo
ĠacompaÃ± Ã³
Ġcaj Ã³n
ĠestÃŃm ulos
Ġb its
ĠdifÃŃcil mente
Ġsus ur
ĠEst ilo
Ġdecor ado
Ġfi jas
l eros
Ġnov el
Ġhon estidad
k an
ĠGreg orio
Ġcor aje
ĠTaller es
Ġinform amos
Ġhem bra
T a
UL A
Ġdesplaz amientos
Ġbol sos
in fo
dar d
ĠConce jal
ĠW ay
Ġproble mÃ¡ticas
Ġproce derÃ¡
Ġeng lo
Ġporno grafÃŃa
T IC
Ġembarca ciones
Ġir respon
Ġsign ificar
ver n
/ .
ĠL and
Ġconocer se
Ã¡zar o
Ġpe dÃŃa
ĠVit oria
ĠW es
ĠSu pongo
Ġmo jado
Ġlevan tado
ĠES C
ĠRes pecto
ĠB U
Ġdoc tr
pue de
ĠC IA
en ciÃ³
Ġsalv ajes
ĠmetÃ¡l ica
Ġren al
p lante
Ġres gu
ĠAu gusto
Ġgobern ante
Ġconce dido
Ġgu ionista
Ġante pas
Emp resa
ĠenseÃ± Ã³
Ġconsec uciÃ³n
F ern
ur y
rec er
ĠD OC
Ġmuch ÃŃsimos
Ġpremi um
B E
Ġdescub rÃŃ
r ina
en cio
aliz aron
Ġri tuales
Ġmultina cional
Ġrepresent ada
Ġvuel van
ĠN Ã©stor
Ġejecu ta
Ġinici arÃ¡
Ġvir al
Ġtriun fos
ĠC ay
âĢĿ ),
ĠcÃºp ula
Ġpres tan
Ġcons igna
Ġah og
al an
Ġanim ar
ĠmÃºlti ple
Ġedi tores
Ġtum or
Ġri ge
Ã¡ Ã±ez
P RE
nos o
Ġdistribu idos
Ġavis os
Ġbi olÃ³gico
k is
Ġmis m
Ġanfitri Ã³n
c racia
Ġso dio
Ġconcent raciones
Ġsilic ona
ĠBan k
H S
emb ras
ĠTa ilandia
Ġextraord inarias
ĠB esos
Ġma quinas
ĠAl quiler
Ã¡ mp
Ġapun tado
ĠN ico
Ġocur riendo
Ġdese ada
ĠBos que
ĠPresu puestos
Ġsi entas
ist ad
Ġhallaz gos
E di
al s
fec tivamente
Ġcan ela
ĠClin ton
Ġrec ort
Ġgor do
Ġacre edores
gues as
ust on
V AL
>< /
ĠT ime
ĠM isa
Ġne to
Ġfr ÃŃos
Ġind icaciÃ³n
Y O
tu osos
ĠSal ta
ĠPo tos
ĠArt ÃŃculos
Ġapren den
Ġr al
Ã¡ ramos
Ġcomp or
Ġnorte americanos
Ġtatu ajes
å ı
Est u
Ġve ÃŃan
tÃ¡n eas
Ġenrique ce
Ġaudi torio
Ġtelef Ã³nicas
on to
Ġtan ques
Ġpermi tieron
Ġevalu aciones
Ġsepar adas
Ġsuav idad
ĠResul tados
ĠS N
ĠUn as
ĠD y
Ġseg mentos
ĠautÃ©n ticos
Ġparlam entaria
ĠOrig inal
Ġele f
ĠIngenier o
b ando
ĠG N
ĠPlay Station
Ã «
co pa
Ġconj un
Ġdef endido
ĠGab inete
Ġpar ciales
Ġapropi ada
Ġlide ra
Ġbi olÃ³gica
Ġes cur
Ġembaj ada
in arse
Ġob rera
Ġorient ar
Ġestim ulaciÃ³n
Ġconserv ador
Ġaus p
e gu
Ġaum entos
Ġproces iÃ³n
Ġser ias
Ġma go
Ġnutri cional
ĠBB C
ĠA um
p Ã¡
oc ado
Ġcontrad icciÃ³n
Ġal usiÃ³n
ĠAs socia
âĢ¦ ,
ĠMar is
Ġen ta
Ġdes echos
Ġgust en
Ġrever tir
Ġinterac ciones
Ġf lan
fer entes
ĠNav al
Ġlider ado
iar ias
Ġdiri gen
ĠBr uno
Ġcor dÃ³n
ĠfotÃ³ grafos
tal o
Ġpsic Ã³logo
Ġse di
ĠPar lam
ĠMana gement
Ġbenef icia
Ġpar tÃŃ
Ġemple an
? âĢĿ.
Ġpl Ã¡t
Ġafirma ciones
ĠActu alidad
ED AD
il ancia
Ġsab io
ĠUN AM
Ġamp ar
Ġexten siones
Ġpes adilla
Ġempez aba
Ġtermin aciÃ³n
Ġpres unta
h ue
Ġpotencial mente
Ġais lado
Ġcomun istas
Ġaudi encias
Ġca iga
Ġo jalÃ¡
Ġfren os
Ġdiferenci ar
F e
Ġma tÃ³
ĠFuer te
Ġproto tipo
ĠAdri Ã¡n
ĠAb ierto
ĠD ado
Ġsus crito
ga te
cri tas
Ġabund antes
Ġdesconoci miento
Ġab ono
Ġsacar le
B ER
Ġper sever
Ġpl ie
Ġaver ÃŃas
ï ¸ı
ĠLor ca
Ġf ull
Quiz Ã¡s
Ġcu raciÃ³n
gu erra
ĠJ r
" ;
Ġanticip aciÃ³n
ĠTuc umÃ¡n
ĠC loud
ĠX L
ĠC ross
ĠC itas
frad ÃŃa
Ġex h
ĠRel ig
Ġ19 50
Ġtranquil amente
Ġdi osa
Ġmedi anas
Ġprop iamente
et te
Ġsosp echos
ĠW at
ĠtÃ¡c til
Ġpres ionar
Ġcru zado
ich as
ĠS M
Ġdi ar
Ġpu reza
it Ã©s
Ġaten dido
ĠVis ita
Ġrebel iÃ³n
ĠCu entas
Ġcal ificaciones
ĠVal e
ĠHer ramientas
De ja
Ġagu da
Ġconsul tora
ĠEMP RES
ac tivo
Ġestu vieran
ĠF ull
Ġviv ÃŃan
ĠÃ© ramos
Ġcap rich
Dis eÃ±o
Ġal udi
ID E
m ero
Ġla tinos
ĠV arios
Ġcompa tibilidad
Recuer da
ĠM enos
Ġafec tando
ĠE uros
m iendo
Ġre j
Ġv ener
ĠMor elos
!! !!!
ĠAlej andra
Ġmetodo logÃŃas
ĠP adres
Ġdorm ido
ĠUr bano
ĠD if
col or
Ġcu ida
ĠG ala
Ġefectu ado
ĠW ikipedia
Ġges taciÃ³n
Ġespir al
R AS
ter io
ĠZ ar
Ġadmi tiÃ³
ĠClas e
Ġar om
Ġfun er
Ġpregun tÃ©
Ġvay amos
Ġp ir
ĠRog er
Ġli quidez
Ġvel ada
Ġe b
Ġca Ã±
Ġescuch Ã³
Ġaj enas
Ġacum ular
it tle
ĠI di
ambi ente
Ġtransfer ir
ĠenseÃ± ado
ON ES
Ġvia jÃ³
Ġaconse ja
Ġcal ib
Ġenrique cer
ĠÃŃn tima
ĠNa zar
Ġaplic arse
ĠFer rer
Ġta ur
ĠPR D
Ġac trices
ten os
Ġle Ã±a
Ġsemin arios
S cript
Ġque das
Ġposi tivamente
Ġutil idades
Ġimp era
ĠCir ugÃŃa
ĠParti ci
con f
guar dar
Ġun ida
Ġintent aba
Ġgir as
tr u
ĠMercan til
Ġcan je
Ġinvers or
Ġcomp resiÃ³n
Ġgener osidad
ric e
Ġsim ulaciÃ³n
Ġexces ivamente
Ġde ficiencias
Ġmas turb
ĠSal inas
Ġtir ada
Ġserp iente
Ġinfl uyen
ĠH ubo
Ġbo letÃŃn
Dis pon
Ġsu yas
ĠPerson ales
Ġamist oso
ĠGol fo
Ġparlam entarios
Ġelev adas
ĠS EM
Ġmir an
mu jer
f obia
Ġmon asterio
Ġdom ina
Ġinci so
pe te
Ġgir os
ijo te
Ġcultiv ar
Ġc iego
Ġenf o
Ġd inosau
Ġveter ano
Ġnubl ado
Ġrev al
Ġocta vos
Ġrecomend ada
Ġcontribu ido
Ġreal ismo
ĠE ran
ĠCatal ina
Ġgras os
Ġpu Ã±ado
Ġcorte za
Ġocta vo
Ġ197 2
B as
ĠS es
F ER
ĠX IV
ĠVÃ© lez
O fre
S D
Ġop inar
ĠCol um
ĠcÃ³m ics
ĠA parte
ĠH id
Ġsobre peso
Ġcor tado
Ġpl umas
cam pe
m ic
ĠO blig
Ġcoloc an
ĠAb el
Ġexquis ito
Ġespeci fica
Ġtable ta
Ġf ilo
ĠIn icia
Ġt il
ma t
ĠG ente
Ġpres tamos
Ġmanual idades
uch es
Ġcar gador
Ġco he
ĠGRA TIS
Ġan tiv
Ġconsol as
AD AS
Ġvi Ã±e
Ġvalent ÃŃa
Ġno tado
ĠRena ult
Ġestim ula
Ġinaugu rado
R C
Ġd ragÃ³n
Ġpe gado
S Ã©
ul ando
Ġor ques
ap an
Ġindiscu tible
k as
ĠR onda
Ġquer iendo
Ġc era
ci taciÃ³n
Ġperson alizaciÃ³n
OR D
Ġocta va
ĠRoc ÃŃo
ĠEmbaj ada
Ġmetodo l
ÃŃcul um
Ġli diar
Ġaval an
qu ÃŃn
Ġalcan zando
Ġtempor almente
uch os
Ġen gran
Ġac ude
Ġaprob ados
ĠE fe
Ġfun dadores
Ġev acu
Ġtranscur rido
Ġmal etas
Ġta par
Ġdeclar ada
y ug
Ġpres untos
Ġdisfru tamos
Ġdev as
Ġbuc eo
ĠBach illerato
t ento
ok ie
Ġpublic an
Ġasequ ible
Ġpien se
Ġm uc
ĠL t
ĠBar ack
ĠH ierro
nab is
gu aya
ĠAl m
Ġir an
Ġsuminist ros
Ġescul turas
ĠBo u
Ġconcur s
ĠFlor encia
Ġincrement ado
ĠF ARC
ĠCu anto
Ġdel gado
cas i
dar ia
Ġdesc endientes
Ġpat entes
ĠX ia
ĠTe orÃŃa
Ġpaul at
Ġexpres an
ĠNel son
Ġsobre car
ĠAn to
Ġsimb Ã³lico
et y
ĠTer cer
Ġtradu cido
ut y
Ġconviv ir
Ġpres cin
Ġdescub riendo
ĠMay ores
Ġsometer se
Ġauric ulares
men os
Ġcomba tes
Ġderiv ada
Ġcorpora tivo
Ġ11 5
ĠprohÃŃ be
Ġform ados
ĠNuev os
ĠG om
minist ra
p ÃŃa
ĠM ila
Ġincluy a
Ġrendi mientos
Ġre tener
Ġlib era
ĠNeces ita
Ã³ j
Ġhacer los
ci cl
Ġla zo
Ġpe d
Ġ24 0
Ġrequier an
Ġfes tivos
ĠO k
Ġmanten ÃŃa
Ġelim inando
Ã©st er
ĠDemocr Ã¡tica
ĠDo Ã±a
ab al
vi ado
ĠcadÃ¡ver es
Ġconstitu ida
Ġtercer as
fin anci
Ġplan tar
ho use
Ġan tena
Ġ ),
Ġterri toriales
Ġtransform ado
Ġpl ur
Ġan on
ĠCer ca
ĠBoliv ariana
las s
ĠCons ell
ĠF lam
Ġdiscrim ina
ĠRed acciÃ³n
Ġjoy erÃŃa
Ġsustent able
Ġmon itores
Ġva is
Ġtor tur
T or
Ġmar chas
ĠVol kswagen
t v
ĠMi x
Ġla ber
ĠAudi torio
ĠAn exo
Ġhe bre
Ġjo venes
Ġindic ados
ĠA rist
Ġurg entes
ĠS MS
Ġcr om
ĠE UR
para ÃŃso
ĠAp licaciones
c c
U ES
ro co
Ġcr ÃŃa
Ġtit ulaciÃ³n
ĠI bar
Medi ante
le m
Ġejecut ado
ici ar
Ġden e
Ġconserv an
cis co
Ġde gen
ĠP acto
Ġinsu ficiencia
Ġanaliz ando
ĠSosten ible
Ġrecep tores
ĠProce dimiento
man as
Ġinjust o
P OS
ch or
Ġpo dia
den cial
t Ã¡l
Ġl un
ĠL iv
ĠCor re
Ġsust ra
Ġbr us
ĠÃ© tico
Ġsocial mente
Ġejerci tar
Ġp ilar
ros as
Ġvis iones
ĠAs esor
ĠRo dolfo
T UR
v idos
Ġpe inado
Ã³n gase
Ġgener ados
rÃ³ geno
por ta
ĠK ir
Ġun iÃ³
Ã© ticamente
ĠDes cu
ĠNa talia
Ġsent ada
Ġgastron Ã³mica
Ġcar gada
Ġaerol ÃŃnea
Ġviv as
Ġmar tillo
Ġaspir ante
ia t
Ġcapit ulo
Ġmuel le
ri ma
Ġcomp asiÃ³n
Ã¨ n
ĠRecom end
A E
Ġpropor cionado
Ġinforma tivos
Ġlin ks
Ġconfec ciÃ³n
Ġvul gar
Ġcr ono
Ġprofun diz
Ġabon ar
Ġconduci do
Ġvalenci ano
Ġresul tante
orden adas
p ido
Ġh rs
Ġpersegu ir
Ġcaus ados
Ġgrad ualmente
ga t
Ġmin ero
Ġhuman itaria
Ġ Ã¡t
Ġencuent res
Ġinvestig ando
ĠCuar to
Ġinter cep
Ġpon te
Ñģ ÑĤ
Ð ²
ĠC ER
Ġb ell
aj ua
Ġrique zas
ĠGin ebra
tor e
Ġcub ren
m era
Ġcas era
H D
Ġra mp
Ġden tales
Ġdesl iz
di Ã©ndose
am antes
Ġinter locu
Ġsuce den
iar es
Ġcoinci dir
ĠV erg
Cons ul
V iv
Ġcal ce
Ġcho fer
Ġjun tar
Ġdescar tar
Ġe uf
Ġt ech
ĠLa w
Ġle ido
li quen
ĠArro yo
E qui
Ġcab ida
Ġapa gar
Ġdi l
Ġaf e
Ġpermitir ÃŃa
tr Ã¡n
Ġdem ol
i tivamente
Ġdef endiÃ³
gl ish
ĠHo teles
Ġprivileg iada
ĠMej ores
ĠCar d
ĠMo bile
Ġna cida
S ub
ĠS om
ĠmolÃ© culas
tu rismo
Ġop cional
Ġenamor ada
Ġentre gados
ĠAplic aciÃ³n
W h
Ġs n
Ġj al
c n
Ġdesh idra
Ġregen eraciÃ³n
ic Ã³
ĠB un
Ġtra tamos
Ġocul tos
ĠEsco bar
ĠC ano
ĠIn mobil
tur adoras
Ġcuan tita
ĠV arela
Ġleg ÃŃtimo
ĠS po
M ig
Ġ uc
Ġposi cionar
Ġcel da
tÃ¡n ico
Ġlin f
Ġmarc ando
Ġesca p
des es
ĠN as
ĠIs lam
ust ro
Ġrefle jado
Ġgu apo
Ġsu presiÃ³n
Ġsuf rieron
Ġenv ol
ce dente
Ġ15 00
Ġolvi de
Bo ok
Ġpura mente
Ġencontr ando
cl us
Ġaprovech ado
Ġtraduc ciones
ĠP ur
ĠO peraciÃ³n
Ġlad rillo
Ġart ÃŃsticos
Ġescrib en
ĠTrans portes
re v
ĠA man
Ġinfin ita
S tar
ĠSan z
b ell
Ġval en
Ġgl Ã¡nd
ĠPo drÃŃa
Ġdis capaci
Jes Ãºs
Ġma x
Ġpres ide
ĠBo w
Ġcre as
Ġve is
Ġutiliz o
Ġrequer ir
ĠDar ÃŃo
ĠIn dic
Ġmad uro
ba i
Ġguitar ras
Ġprestig ioso
ĠhistÃ³r icamente
ĠHa ga
Ġdec ente
Ġre puestos
Ġfe dera
Ġsec undar
Ġan estes
Ġdest inar
Ġconstru idos
ĠhÃ¡bi tat
Ġmoles tar
j uegos
Ġarm arios
Ġgana derÃŃa
Ġco tiz
i ante
ĠK ey
ĠCentro amÃ©rica
ĠBuen as
ĠAcos ta
Ġencabez ado
ĠEn s
ĠdomÃ©st ica
ĠMa teriales
Ġne w
Ġdefien den
Ġlegitim idad
Ġmadrile Ã±a
Al guien
Ġregul ador
Ġimpre gn
ĠS iendo
de ste
ĠG imnas
ĠerÃ³ ticos
ĠE res
G AR
an Ã¡lisis
Ġd am
Ġpas ara
Ġdel iber
Ġvocab ulario
ĠH ong
pro fes
Ġcar ecen
Ġp Ã©
Ġd ÃŃ
alo a
ĠK u
ĠS C
Ġesta fa
Ġg ad
Ġimp iden
ĠNa ve
Ġofre ci
ĠEl ÃŃas
Ġcontrad icciones
Ġenfa tizÃ³
Ġle Ã³n
Ġna ta
Ġsan eamiento
Ġ196 7
t omÃŃa
Ġtermin ada
Ġlib rerÃŃas
ĠPap el
ch t
Ġmus culares
Ġpe dia
Ġagres ivo
ĠAntio quia
Ġen gor
ul oso
Ġp om
Ġen horabuena
tu res
Ġactiv ista
Ġsub en
Ġale jar
RI P
ĠMel illa
in gu
Ġcar naval
Ġrefer ida
Ġdefini ciones
ĠDescar ga
ĠRom ano
Ġredac tado
Ġprelim inar
d ge
Ġl Ã¡stima
ĠB uda
Ġabaste cimiento
O l
Ġtrav esÃŃa
oz co
Ġinesta bilidad
Ġ3 000
ĠPe da
Ġconcent rar
Ġconfigu ra
Ġin dia
Ġadqui riÃ³
Ġinvoluc rado
ulip as
Ġs po
Ġ9 78
Ġsuce da
L ES
ĠS ign
ĠCom Ãºn
Ġsec ado
Ġescrib ÃŃ
Ġcine asta
ucar istÃŃa
Ġ196 9
Ġconmemor aciÃ³n
Ġgay s
Ġfres cura
Ġper turb
ĠPrima vera
Ġform almente
duc tor
Ġsen deros
in te
Ã© ri
ĠHerman os
Ġg it
ist ado
T ener
ĠLegisla tura
a tivo
ĠCar ras
Res oluciÃ³n
po der
Ġval er
Ġpy mes
c encia
Ġdivers a
quil a
Ġvib raciÃ³n
Ġcos tura
Ġest ables
Ġtelef Ã³nico
Ġacus Ã³
Ġw a
Ġhin chas
ĠAten as
ĠE ri
Ġaten cion
ac on
Ġsuces or
Ġop ina
Ġnerv iosa
Ġinform ados
Ġescuch o
Ġla min
Ġinstal ados
Ġdetec ta
Ġocup ados
Ġvendi Ã³
Ġsuspendi do
ĠPerio dismo
ĠV eci
oma gn
ips is
Ġinv itan
rea k
ĠB erg
Ġcora zon
ĠB ut
termin aciÃ³n
Ġdue Ã±a
Ġconfes Ã³
ĠHern Ã¡n
Ġjubil ados
ĠR ED
Ġinv ento
pan ish
Z O
ĠMo di
Ġtra iciÃ³n
ĠcÃ³mo damente
Ġrela cionar
is ion
Ġro tura
ju ana
Ġdes cripciones
tor rique
Ġb la
ĠAn th
å½ ©
: .
ĠJos ef
z or
ĠJu vent
Ġtras lada
Ġda ting
ac tividad
ĠL Ã¡zaro
ĠW ork
Ġatrac tivas
Ġpira tas
F und
ac tiva
Ġoptim ista
ĠC ielo
Ġin dio
Ġcor do
v iene
Ġsuper hÃ©ro
Ġinici aciÃ³n
Ġmal e
ĠA vi
Ġob tuvieron
Ġanunci aron
ĠCon tr
cul tura
Ġentre gan
ĠCon tiene
Ġexten diÃ³
Ġlogra mos
Ġdel a
Ġcomple tado
ĠHa w
Ġencontrar Ã¡n
Ġaus ente
Ġdespre cio
ĠEn contrar
Ġincorpor an
Ġan alizado
car se
Ġrelaj ante
Ġv iuda
ul um
qui pa
CO O
Ġtable tas
Ġrespe ta
Ġprome tiÃ³
Ġater riz
z er
Ġfalle cidos
Ġespe jos
ĠC ENT
Ġemp aque
Ġgris es
des arrol
Ġlatino americano
Ġgarantiz ando
ĠG Ã¼
OL OG
ĠmÃ¡r genes
Ġrodil los
tos hop
M ir
oso tras
end ÃŃa
Ġt icket
Ġdispu tarÃ¡
ar cas
ĠL um
pp ing
Ġorden ada
Ġempren de
Ġto d
ĠL ight
Ġamino Ã¡
âĢĿ âĢ¦
ir us
ea t
Ġcoman dos
Ġconven cidos
ĠMon taÃ±a
Ġhici ste
Ġpales tinos
Ġpal eta
Ġvit alidad
r ÃŃo
Ġdescub rimientos
Ġres titu
ran g
Ġprof eta
Ġpuls ar
ĠLe w
Ġgen oci
Ġev a
- Â¿
Ġla guna
ĠOl iver
Ġvulner able
ĠTab la
ro ja
Ġin no
ĠG im
Ġsan dalias
Ġpla gas
AN D
Ġcontrol ador
ĠCoordin ador
v idas
Ġfirm es
r ino
ĠM IL
Ġenvi ada
ĠÐ ¿
Tam poco
Sab emos
l lo
Ġinter con
Ġch inas
Ġbal anza
ĠHora cio
ĠCon tamos
Ġnie bla
ĠEP UB
ic Ã©
ĠAf gan
ĠD T
ĠhelicÃ³p tero
ur Ã³
Ã ¯
er ado
av era
min g
Ġllegar ÃŃa
ĠDI REC
Ġsug ieren
ĠCÃ¡n cer
c ena
st ruc
ĠE ver
Ġdo taciÃ³n
Ġque hacer
Ġtra iler
Ġab rieron
ĠW W
ĠplÃ¡st ica
Ġreconstru ir
ĠM Ãī
Ġdefin iÃ³
Ã¡ut ica
ARI OS
Ġdic ta
Ġra tos
Ġmarc adores
te ch
Ġlig eros
uev os
ca t
cor dia
Ġdis pens
ĠP LA
ran d
Ġmane jan
Ġlevan tarse
ĠA genda
Ġutiliz arlo
Ġalber gar
des l
ĠSer ver
Ġmotocic leta
ach i
tol Ã³gica
Ġenferm era
Ġmelo dÃŃa
ĠPo tter
Ġsorpren dentes
D av
Ġrazon amiento
Ġdes al
ĠMe te
ĠTes tamento
Ġpul mon
ĠCas ino
Ġf ul
Ġf ruc
ĠSuperinten dencia
z en
Ġse quÃŃa
Ġgener alizada
entar ias
Ġgan e
ĠS IM
ier s
Ġform ular
Ġproyec ta
Ġconvoc Ã³
ĠCateg orÃŃa
Ġin jer
Ġu tens
c Ã³p
il ios
Cons ide
ip iÃ©
Ġcatal o
Ġpar an
re ta
ĠN orth
Ġer gon
ĠMa estrÃŃa
f ue
ĠAl terna
Ġautor izada
ĠcatÃ³ lico
ĠAF P
ĠRos s
Ġsubsi di
Ġvan guar
ĠUb untu
Ġinv entar
ĠTay lor
Ġdecir les
is fer
Ġimpos ibles
im ir
Ġdescon fianza
Ġlin das
Ġgener ada
ĠIs landia
E uro
Ġcor riÃ³
and y
Ġus Ã³
Ġorganiz ador
Ġfen omen
Ġtelef ono
Ġ7 50
ĠAdo be
Ġguar dan
Ġrebel de
ĠCecil ia
Ġb onaer
ok e
Ġtratar a
Ġestad ÃŃa
Ġmo vi
ru ro
Ġqu esos
Ġinst into
Ġdom Ã©sticos
Ġpreten siones
Ġintes tino
in arÃ¡
Ġper i
Ġacab amos
" ).
Ġti ps
ĠVal de
ĠmuÃ± ecas
ĠEn tren
ss ss
ĠaÃ© reas
G rupo
ĠCa dena
Ġrefer imos
Ġtes oros
Ġreserv ados
ĠRies gos
Ġcar encias
n ik
Ġam ables
Ġtec la
Ġle ves
Ġdescub ren
Ġtoma tes
Ġencab eza
Ġimp licaciones
Ã©ndo les
ĠCon ocimiento
Ġsob rena
ĠIde as
ĠGal lar
Ġlleg aban
Ġrefer idos
Ġrecre aciÃ³n
pec tiva
Ġjug aba
ĠGabri ela
Ġnacional ismo
de moc
ino psis
Ġrevel an
ĠR at
TR UC
j ol
ĠL ong
Ġpropor cional
Ġinten sas
plic Ã³
Ġs ic
IS TE
ĠC res
Ġcomp la
Ġdese aba
Ha z
Ġatmos f
Ġbru to
a pos
ĠG et
Ġbel ga
Ġpareci dos
I ES
dad ora
Ġca Ã±Ã³n
Ġaliment icios
Ġembar caciÃ³n
Ġa tas
ĠL IB
Ġ" Â¡
Ġ% ,
ĠA riel
Ġcons ent
S em
Ġestudi an
ĠCor e
Ġregul an
Ġdespla zar
ĠOb viamente
Ġcorpor ales
Segu ro
Ġdis oluciÃ³n
ĠBel grano
Ġconv ento
Ġfol cl
Ġorden aciÃ³n
Ġd ÃŃg
ma x
Ġdes van
Ġpublici tario
Ġmec Ã¡nicos
ff et
rim e
ĠEx tran
Ma Ã±ana
s oy
Ġprob ando
Ġsu cio
je to
Ġcomp ran
Ġab ras
Ġvac antes
Ġdoctor ado
Ġsecu encias
Ġinoc entes
na v
Ġburbu ja
ĠÂ¡ Â¡Â¡
Ġmatem Ã¡tica
Ġapasion ante
P EC
Ġvolun tariamente
cil los
Ġm ora
Ġlo tes
Ġpres cripciÃ³n
ĠL ista
Ġatraves ar
? Â¿
Ġba tir
voca toria
Ġin co
Ġfantas ÃŃas
ĠdesempeÃ± ar
Ġintes tinal
ĠS ecu
ine o
ĠQu ijote
Un iversidad
Ġsu mo
le ge
Ġove jas
Ġde no
Ġtum ores
Ġtable ts
ĠL lor
Ġan omal
ĠâĢ Ļ
ĠPue blos
Ġrela jado
Ġmotiv ado
Ġprodu jeron
E I
Ã©m ica
Ġb ob
P in
Ġprohib ida
Ġaport ado
Ġpar cel
Ġlatino americana
it oria
ĠRin cÃ³n
Ġrecor riendo
Ġcap taciÃ³n
ĠSteph en
S itu
ĠN at
ch at
Ġluch an
Ġgar ra
Pos teriormente
Ġevent ualmente
Ġvolver ÃŃa
Ġadi das
Ġretro ceso
[...]
