{"<s>": 0, "<pad>": 1, "</s>": 2, "<unk>": 3, "<mask>": 4, "!": 5, "\"": 6, "#": 7, "$": 8, "%": 9, "&": 10, "'": 11, "(": 12, ")": 13, "*": 14, "+": 15, ",": 16, "-": 17, ".": 18, "/": 19, "0": 20, "1": 21, "2": 22, "3": 23, "4": 24, "5": 25, "6": 26, "7": 27, "8": 28, "9": 29, ":": 30, ";": 31, "<": 32, "=": 33, ">": 34, "?": 35, "@": 36, "A": 37, "B": 38, "C": 39, "D": 40, "E": 41, "F": 42, "G": 43, "H": 44, "I": 45, "J": 46, "K": 47, "L": 48, "M": 49, "N": 50, "O": 51, "P": 52, "Q": 53, "R": 54, "S": 55, "T": 56, "U": 57, "V": 58, "W": 59, "X": 60, "Y": 61, "Z": 62, "[": 63, "\\": 64, "]": 65, "^": 66, "_": 67, "`": 68, "a": 69, "b": 70, "c": 71, "d": 72, "e": 73, "f": 74, "g": 75, "h": 76, "i": 77, "j": 78, "k": 79, "l": 80, "m": 81, "n": 82, "o": 83, "p": 84, "q": 85, "r": 86, "s": 87, "t": 88, "u": 89, "v": 90, "w": 91, "x": 92, "y": 93, "z": 94, "{": 95, "|": 96, "}": 97, "~": 98, "¡": 99, "¢": 100, "£": 101, "¤": 102, "¥": 103, "¦": 104, "§": 105, "¨": 106, "©": 107, "ª": 108, "«": 109, "¬": 110, "®": 111, "¯": 112, "°": 113, "±": 114, "²": 115, "³": 116, "´": 117, "µ": 118, "¶": 119, "·": 120, "¸": 121, "¹": 122, "º": 123, "»": 124, "¼": 125, "½": 126, "¾": 127, "¿": 128, "À": 129, "Á": 130, "Â": 131, "Ã": 132, "Ä": 133, "Å": 134, "Æ": 135, "Ç": 136, "È": 137, "É": 138, "Ê": 139, "Ë": 140, "Ì": 141, "Í": 142, "Î": 143, "Ï": 144, "Ð": 145, "Ñ": 146, "Ò": 147, "Ó": 148, "Ô": 149, "Õ": 150, "Ö": 151, "×": 152, "Ø": 153, "Ù": 154, "Ú": 155, "Û": 156, "Ü": 157, "Ý": 158, "Þ": 159, "ß": 160, "à": 161, "á": 162, "â": 163, "ã": 164, "ä": 165, "å": 166, "æ": 167, "ç": 168, "è": 169, "é": 170, "ê": 171, "ë": 172, "ì": 173, "í": 174, "î": 175, "ï": 176, "ð": 177, "ñ": 178, "ò": 179, "ó": 180, "ô": 181, "õ": 182, "ö": 183, "÷": 184, "ø": 185, "ù": 186, "ú": 187, "û": 188, "ü": 189, "ý": 190, "þ": 191, "ÿ": 192, "Ā": 193, "ā": 194, "Ă": 195, "ă": 196, "Ą": 197, "ą": 198, "Ć": 199, "ć": 200, "Ĉ": 201, "ĉ": 202, "Ċ": 203, "ċ": 204, "Č": 205, "č": 206, "Ď": 207, "ď": 208, "Đ": 209, "đ": 210, "Ē": 211, "ē": 212, "Ĕ": 213, "ĕ": 214, "Ė": 215, "ė": 216, "Ę": 217, "ę": 218, "Ě": 219, "ě": 220, "Ĝ": 221, "ĝ": 222, "Ğ": 223, "ğ": 224, "Ġ": 225, "ġ": 226, "Ģ": 227, "ģ": 228, "Ĥ": 229, "ĥ": 230, "Ħ": 231, "ħ": 232, "Ĩ": 233, "ĩ": 234, "Ī": 235, "ī": 236, "Ĭ": 237, "ĭ": 238, "Į": 239, "į": 240, "İ": 241, "ı": 242, "Ĳ": 243, "ĳ": 244, "Ĵ": 245, "ĵ": 246, "Ķ": 247, "ķ": 248, "ĸ": 249, "Ĺ": 250, "ĺ": 251, "Ļ": 252, "ļ": 253, "Ľ": 254, "ľ": 255, "Ŀ": 256, "ŀ": 257, "Ł": 258, "ł": 259, "Ń": 260, "de": 261, "Ġe": 262, "Ġde": 263, "Ġl": 264, "os": 265, "Ġp": 266, "Ġc": 267, "ar": 268, "en": 269, "er": 270, "Ġa": 271, "es": 272, "Ġs": 273, "as": 274, "on": 275, "ci": 276, "or": 277, "ue": 278, "an": 279, "Ġm": 280, "ad": 281, "al": 282, "Ġla": 283, "que": 284, "Ġen": 285, "un": 286, "Ã³": 287, "in": 288, "Ġt": 289, "re": 290, "Ġy": 291, "Ġque": 292, "st": 293, "ent": 294, "Ġel": 295, "ÃŃ": 296, "ic": 297, "Ġcon": 298, "Ġn": 299, "Ã¡": 300, "Ã³n": 301, "Ġun": 302, "Ġh": 303, "om": 304, "ra": 305, "do": 306, "ro": 307, "di": 308, "ti": 309, "Ġse": 310, "Ġf": 311, "Ġv": 312, "ciÃ³n": 313, "am": 314, "Ġes": 315, "Ġlos": 316, "Ġpar": 317, "te": 318, "Ġest": 319, "Ġo": 320, "le": 321, "ta": 322, "ri": 323, "Ġre": 324, "Ġin": 325, "Ã©": 326, "Ġsu": 327, "to": 328, "Ġdel": 329, "ado": 330, "ol": 331, "Ġcom": 332, "id": 333, "ĠC": 334, "ab": 335, "res": 336, "Ġpor": 337, "Ġal": 338, "ĠE": 339, "ec": 340, "Ġb": 341, "Ġd": 342, "Ġlas": 343, "Ġpara": 344, "Ġg": 345, "ente": 346, "mp": 347, "Ã±": 348, "is": 349, "ĠA": 350, "Ġuna": 351, "ĠP": 352, "aciÃ³n": 353, "ĠS": 354, "Ġno": 355, "il": 356, "ÃŃa": 357, "Ġdi": 358, "cion": 359, "ul": 360, "âĢ": 361, "qu": 362, "ĠM": 363, "Ġpro": 364, "tu": 365, "ac": 366, "Ġsi": 367, "Ã¡s": 368, "Ġper": 369, "Ġcu": 370, "ĠL": 371, "ter": 372, "ien": 373, "lo": 374, "tr": 375, "la": 376, "Ġme": 377, "ada": 378, "Ġlo": 379, "io": 380, "da": 381, "ma": 382, "uc": 383, "ist": 384, "ir": 385, "Ãº": 386, "Ġdes": 387, "el": 388, "ica": 389, "ia": 390, "gu": 391, "cia": 392, "Ġac": 393, "tos": 394, "ĠD": 395, "go": 396, "us": 397, "ier": 398, "iz": 399, "ran": 400, "ient": 401, "tiv": 402, "Ġcomo": 403, "it": 404, "ando": 405, "Ġ(": 406, "Ġto": 407, "Ġ1": 408, "ales": 409, "Ġi": 410, "Ġex": 411, "idad": 412, "ues": 413, "Ġha": 414, "ĠmÃ¡s": 415, "Ġ2": 416, "ĠT": 417, "mo": 418, "ciones": 419, "..": 420, "ici": 421, "mos": 422, "aj": 423, "se": 424, "bre": 425, "ados": 426, "tor": 427, "cu": 428, "ico": 429, "ie": 430, "pa": 431, "ĠR": 432, "Ġser": 433, "Ã¡n": 434, "ĠB": 435, "Ġpo": 436, "dad": 437, "Ġj": 438, "den": 439, "Ġso": 440, "Ġan": 441, "tra": 442, "iv": 443, "tes": 444, "des": 445, "ĠG": 446, "bi": 447, "ĠN": 448, "era": 449, "ten": 450, "tro": 451, "Ġtra": 452, "tar": 453, "ĠI": 454, "ĠâĢ": 455, "ĠF": 456, "Ġres": 457, "ida": 458, "Ġap": 459, "iÃ³n": 460, "ras": 461, "ig": 462, "co": 463, "Ġle": 464, "ib": 465, "Ġte": 466, "ero": 467, "im": 468, "ch": 469, "ca": 470, "orm": 471, "ador": 472, "dos": 473, "Ġpue": 474, "Ġqu": 475, "Ġcomp": 476, "iento": 477, "um": 478, "Ġmu": 479, "Ġsus": 480, "Ġpre": 481, "ante": 482, "Ġten": 483, "Ġma": 484, "per": 485, "ios": 486, "ce": 487, "po": 488, "tas": 489, "Ã©n": 490, "âĢĿ": 491, "ru": 492, "der": 493, "ez": 494, "00": 495, "Ġas": 496, "ĠH": 497, "amos": 498, "Ġpr": 499, "amente": 500, "ĠV": 501, "uch": 502, "tre": 503, "Ġpa": 504, "Ġeste": 505, "Ġar": 506, "pe": 507, "Ġhac": 508, "ĠJ": 509, "bl": 510, "Ġhab": 511, "mente": 512, "ĠaÃ±": 513, "ara": 514, "Ġca": 515, "uer": 516, "Ġman": 517, "gun": 518, "ĠU": 519, "ĠâĢľ": 520, "Ġimp": 521, "con": 522, "encia": 523, "gar": 524, "ion": 525, "Ġpero": 526, "ĠEl": 527, "son": 528, "ido": 529, "rim": 530, "Ġsin": 531, "Ġpres": 532, "ur": 533, "ambi": 534, "ga": 535, "aliz": 536, "ĠLa": 537, "Ġesta": 538, "na": 539, "Ġcas": 540, "Ġtien": 541, "tros": 542, "adas": 543, "ust": 544, "duc": 545, "Ã©s": 546, "ento": 547, "Ġson": 548, "Ġver": 549, "uev": 550, "les": 551, "los": 552, "za": 553, "ina": 554, "Ġpas": 555, "ver": 556, "Ġr": 557, "El": 558, "fer": 559, "Ġmo": 560, "je": 561, "das": 562, "ores": 563, "ens": 564, "Ġinter": 565, "ana": 566, "ĠO": 567, "Ãºn": 568, "Ġdis": 569, "ĠEn": 570, "ora": 571, "Ġperson": 572, "Ġsobre": 573, "ces": 574, "las": 575, "ĠÂ": 576, "cul": 577, "Ġcar": 578, "Ġlle": 579, "01": 580, "Ġentre": 581, "cl": 582, "no": 583, "Ġco": 584, "Ġmis": 585, "entes": 586, "lan": 587, "ario": 588, "Ġor": 589, "icos": 590, "tal": 591, "ĠEst": 592, "Ġsol": 593, "Ġob": 594, "Ġcons": 595, "...": 596, "Ġam": 597, "por": 598, "baj": 599, "Ġemp": 600, "Ġnues": 601, "icas": 602, "Ġnos": 603, "Ġmuch": 604, "Ġtu": 605, "Ġya": 606, "pon": 607, "emos": 608, "Ġinf": 609, "ĠEs": 610, "ech": 611, "Ġmuy": 612, "cias": 613, "ambiÃ©n": 614, "Ġcre": 615, "ĠIn": 616, "Ġtodo": 617, "enta": 618, "Ġsal": 619, "paÃ±": 620, "cial": 621, "oy": 622, "em": 623, "Ġmedi": 624, "eces": 625, "jo": 626, "Ġpos": 627, "Ġcor": 628, "Ġ3": 629, "La": 630, "dr": 631, "Ġ\"": 632, "Ġesc": 633, "if": 634, "Ġab": 635, "par": 636, "Ġprim": 637, "Ġmi": 638, "Ġnuev": 639, "able": 640, "Ġtan": 641, "Ġmej": 642, "Ġdeb": 643, "aba": 644, "endo": 645, "ano": 646, "oc": 647, "ĠCon": 648, "Ġ201": 649, "Ġfin": 650, "tivo": 651, "gra": 652, "ÃŃas": 653, "rec": 654, "ÃŃn": 655, "orma": 656, "min": 657, "cional": 658, "Ġcam": 659, "ve": 660, "Ġmar": 661, "Ġtrabaj": 662, "cio": 663, "me": 664, "Ã±o": 665, "til": 666, "ita": 667, "udi": 668, "tura": 669, "ĠestÃ¡": 670, "ÃŃs": 671, "uen": 672, "ias": 673, "ba": 674, "pos": 675, "ble": 676, "fici": 677, "ĠY": 678, "ĠtambiÃ©n": 679, "Ġpe": 680, "ren": 681, "Ġgran": 682, "lar": 683, "ĠaÃ±os": 684, "esti": 685, "Ġfue": 686, "En": 687, "eb": 688, "Ġcal": 689, "asta": 690, "Ġdu": 691, "mas": 692, "ista": 693, "Ġhay": 694, "antes": 695, "ven": 696, "Ġpuede": 697, "Ġdesde": 698, "idades": 699, "Ġni": 700, "gan": 701, "ros": 702, "amiento": 703, "jer": 704, "cip": 705, "Ġus": 706, "Ġparti": 707, "Ġcuando": 708, "ut": 709, "Ġhacer": 710, "arios": 711, "Ġcol": 712, "Ġna": 713, "Ġcual": 714, "ĠSe": 715, "ino": 716, "car": 717, "Ġdos": 718, "ort": 719, "oci": 720, "ĠRe": 721, "Ġdon": 722, "Ġtiene": 723, "Ġtodos": 724, "fec": 725, "iemp": 726, "ud": 727, "Ġ-": 728, "Ġu": 729, "qui": 730, "Ġmen": 731, ").": 732, "ĠUn": 733, "Ġmun": 734, "Ġsegu": 735, "gen": 736, "ĠÃ©": 737, "Ġcos": 738, "mb": 739, "Ġhasta": 740, "ĠAl": 741, "ÃŃt": 742, "aron": 743, "Ġneces": 744, "pec": 745, "Ġreg": 746, "Ġhan": 747, "Ġter": 748, "Ġmejor": 749, "Ġlu": 750, "Ġprop": 751, "ing": 752, "vi": 753, "Ġmay": 754, "lic": 755, "Ġdeci": 756, "Ġ4": 757, "Ġtiemp": 758, "tiva": 759, "Ġdonde": 760, "Ġbien": 761, "entos": 762, "ones": 763, "quier": 764, "gr": 765, "ener": 766, "Ġcan": 767, "Ġch": 768, "Ġalgun": 769, "Ġparte": 770, "arÃ¡": 771, "mi": 772, "tras": 773, "ay": 774, "),": 775, "almente": 776, "so": 777, "Ġproduc": 778, "Ġgra": 779, "teri": 780, "Ġexp": 781, "mÃ¡s": 782, "itu": 783, "Ġad": 784, "Ġfun": 785, "iones": 786, "tur": 787, "ĠDe": 788, "Ġvez": 789, "og": 790, "adores": 791, "man": 792, "ob": 793, "uel": 794, "Ġbuen": 795, "Ġporque": 796, "Ġ5": 797, "can": 798, "ja": 799, "rib": 800, "Ġcada": 801, "ĠasÃŃ": 802, "Ġll": 803, "Ġpol": 804, "Ġrealiz": 805, "Ġforma": 806, "zo": 807, "Ġmil": 808, "arse": 809, "et": 810, "Ġpu": 811, "Ġda": 812, "Ġinform": 813, "Ġtiempo": 814, "ste": 815, "tado": 816, "ide": 817, "idos": 818, "Ġdo": 819, "Ġsab": 820, "ĠCom": 821, "rante": 822, "ÃŃcul": 823, "iu": 824, "Ġve": 825, "cil": 826, "âĢ¦": 827, "Ġserv": 828, "Ġti": 829, "erv": 830, "rol": 831, "emp": 832, "ĠMar": 833, "ona": 834, "ĠdÃŃa": 835, "ĠNo": 836, "cur": 837, "pu": 838, "ĠÂ¿": 839, "nos": 840, "unto": 841, "Ġespe": 842, "eros": 843, "Ġ19": 844, "com": 845, "ÃŃan": 846, "Ġuno": 847, "ular": 848, "Ġtran": 849, "av": 850, "gos": 851, "Ġne": 852, "ĠaÃ±o": 853, "Ġade": 854, "ed": 855, "Ġvida": 856, "Ġcer": 857, "miento": 858, "Ġcontra": 859, "Ġah": 860, "Ã©r": 861, "Ġdic": 862, "Ġcl": 863, "Ġinst": 864, "Ãºl": 865, "Ġcont": 866, "Ġllev": 867, "Ġconf": 868, "itar": 869, "ito": 870, "Ġinv": 871, "Ã±os": 872, "alidad": 873, "ible": 874, "Ġfu": 875, "ĠSan": 876, "icaciÃ³n": 877, "Ġempres": 878, "ĠW": 879, "iden": 880, "ea": 881, "Ġop": 882, "omb": 883, "Ġau": 884, "Ġincl": 885, "ĠAn": 886, "Ġfuer": 887, "ilidad": 888, "tivos": 889, "vo": 890, "Ġhace": 891, "Ġlib": 892, "Ġmismo": 893, "Ġpersonas": 894, "Ġra": 895, "Ãºlti": 896, "Ġju": 897, "tir": 898, "arrol": 899, "iudad": 900, "Ġro": 901, "Ġprof": 902, "aciones": 903, "Ãºbl": 904, "at": 905, "Ġay": 906, "lec": 907, "Ġev": 908, "ĠCh": 909, "cas": 910, "Ġgener": 911, "Ġlugar": 912, "Ġof": 913, "Ġotros": 914, "âĢĿ,": 915, "cor": 916, "Ġmayor": 917, "du": 918, "uego": 919, "Ġbas": 920, "gÃºn": 921, "ĠLos": 922, "ers": 923, "cios": 924, "Ġcomun": 925, "ena": 926, "ub": 927, "iciÃ³n": 928, "Ġera": 929, "Ġconst": 930, "Ġreci": 931, "ĠpaÃŃs": 932, "Ġmas": 933, "Ġdirec": 934, "Ġmom": 935, "Ġservici": 936, "pues": 937, "yec": 938, "Ġtrans": 939, "anos": 940, "Ã¡t": 941, "iendo": 942, "ientos": 943, "Ġimport": 944, "Ġsec": 945, "Ġmin": 946, "jos": 947, "ĠPor": 948, "incip": 949, "Ġactu": 950, "Ġpodr": 951, "Ġ6": 952, "Ġmundo": 953, "Ã±a": 954, "echo": 955, "Ġden": 956, "Ġplan": 957, "Ġpla": 958, "Ġrep": 959, "Ġdist": 960, "dic": 961, "Ġval": 962, "Ġdifer": 963, "Ġsig": 964, "Ġmucho": 965, "mpl": 966, "Ġtanto": 967, "ĠÃºlti": 968, "Ġform": 969, "ĠK": 970, "vers": 971, "uy": 972, "âĢĿ.": 973, "Ã³lo": 974, "cuent": 975, "ton": 976, "ĠestÃ¡n": 977, "ine": 978, "Ġviv": 979, "raciÃ³n": 980, "Ġencon": 981, "Ã©c": 982, "Ġmes": 983, "Ġsent": 984, "Ġvis": 985, "Ġsolo": 986, "Ġprincip": 987, "aje": 988, "Ġsiemp": 989, "ombre": 990, "Ġsiempre": 991, "Ġdesarrol": 992, "unque": 993, "Ġdurante": 994, "Ġpues": 995, "Ġtrabajo": 996, "Ġw": 997, "Ġeso": 998, "ĠAr": 999, "tic": 1000, "Ġtener": 1001, "Ġli": 1002, "Ġquien": 1003, "endi": 1004, "Ġutil": 1005, "Ġles": 1006, "Ġpon": 1007, "ismo": 1008, "puÃ©s": 1009, "Ġhist": 1010, "Ġpes": 1011, "vis": 1012, "trar": 1013, "oria": 1014, "Ġdej": 1015, "Ġcab": 1016, "Ġequi": 1017, "amil": 1018, "Ġher": 1019, "Ġcuenta": 1020, "eo": 1021, "rar": 1022, "Ġdest": 1023, "Ġalgo": 1024, "Ġestudi": 1025, "Ġquier": 1026, "cer": 1027, "Ġbaj": 1028, "Ġcent": 1029, "Ġcaso": 1030, "ruc": 1031, "Ġese": 1032, "ĠÃ¡": 1033, "segu": 1034, "istas": 1035, "Ġcualquier": 1036, "Ġciudad": 1037, "Ġotro": 1038, "ceso": 1039, "tel": 1040, "iente": 1041, "tores": 1042, "argo": 1043, "Ġmenos": 1044, "sta": 1045, "Ġbus": 1046, "Ġmujer": 1047, "taciÃ³n": 1048, "entar": 1049, "Ġllam": 1050, "Ġpoco": 1051, "Ġref": 1052, "dar": 1053, "Ġvol": 1054, "fic": 1055, "Ġresul": 1056, "Ġtar": 1057, "Ġri": 1058, "imo": 1059, "Ġtras": 1060, "zar": 1061, "Ġsido": 1062, "Ġtom": 1063, "ĠLe": 1064, "Ġencuent": 1065, "Ġcomple": 1066, "ĠPro": 1067, "ene": 1068, "Ġnuestro": 1069, "Ãºs": 1070, "ĠMe": 1071, "rech": 1072, "ho": 1073, "dades": 1074, "Ġexper": 1075, "ĠcÃ³": 1076, "Ġtoda": 1077, "ĠSi": 1078, "Ġven": 1079, "Ġmomento": 1080, "ala": 1081, "Ġhor": 1082, "uciÃ³n": 1083, "Ġutiliz": 1084, "ece": 1085, "Ġpl": 1086, "Ġestos": 1087, "teg": 1088, "ancia": 1089, "gua": 1090, "Ġsea": 1091, "Ġrela": 1092, "Ġfal": 1093, "Ġgust": 1094, "Ġsuper": 1095, "cal": 1096, "ital": 1097, "Ġmon": 1098, "Ġ200": 1099, "ĠCar": 1100, "Ġpueden": 1101, "Ġdef": 1102, "Ġyo": 1103, "ierno": 1104, "paÃ±a": 1105, "Ġ7": 1106, "ola": 1107, "Ġproyec": 1108, "Ġapar": 1109, "Ġtodas": 1110, "omo": 1111, "ĠAs": 1112, "Ġmer": 1113, "Ġnuestra": 1114, "Ġprofes": 1115, "Ġpoder": 1116, "Ġnuevo": 1117, "Ġhi": 1118, "Ã³m": 1119, "tan": 1120, "ciales": 1121, "Ġfamil": 1122, "ris": 1123, "Ġ8": 1124, "cel": 1125, "Ġorgan": 1126, "Ġproble": 1127, "Ġtipo": 1128, "ĠinformaciÃ³n": 1129, "Ġcul": 1130, "ivers": 1131, "Ġtr": 1132, "ĠQ": 1133, "tÃ³": 1134, "Ġva": 1135, "ĠpÃºbl": 1136, "Ġactiv": 1137, "Los": 1138, "ĠpolÃŃt": 1139, "ĠhabÃŃa": 1140, "Ġestar": 1141, "cre": 1142, "Ġcap": 1143, "tis": 1144, "ÃŃst": 1145, "Ġtrav": 1146, "Ġemb": 1147, "uso": 1148, "Ġmanera": 1149, "Ġantes": 1150, "quel": 1151, "vil": 1152, "Ġfi": 1153, "Ġhum": 1154, "Ġz": 1155, "Ġtal": 1156, "ĠdÃŃas": 1157, "Ġesp": 1158, "ÃŃo": 1159, "Ġpubl": 1160, "Ġprimer": 1161, "Ġderech": 1162, "Ġesto": 1163, "Ġide": 1164, "Ġhe": 1165, "Ġobje": 1166, "ge": 1167, "Ġahora": 1168, "uro": 1169, "Ġotra": 1170, "Ġprimera": 1171, "eron": 1172, "Ġtres": 1173, "gres": 1174, "Ġdar": 1175, "Ġhecho": 1176, "ĠdespuÃ©s": 1177, "ima": 1178, "Ġtienen": 1179, "Ġ10": 1180, "Ġdecir": 1181, "Ġgru": 1182, "olog": 1183, "ĠsÃ³lo": 1184, "Ġ,": 1185, "Ġelec": 1186, "imiento": 1187, "cep": 1188, "Ġsigu": 1189, "Ġaf": 1190, "ĠtravÃ©s": 1191, "ĠquÃ©": 1192, "Ã¡c": 1193, "Ġ9": 1194, "aban": 1195, "omin": 1196, "quÃŃ": 1197, "Ġsegun": 1198, "Ġvar": 1199, "tamente": 1200, "Ġir": 1201, "cos": 1202, "ĠDes": 1203, "Ġesa": 1204, "che": 1205, "Ġfo": 1206, "ES": 1207, "Ġpel": 1208, "Ġellos": 1209, "tec": 1210, "ĠLas": 1211, "ĠSu": 1212, "Ġgu": 1213, "tica": 1214, "Ã³g": 1215, "Ġunos": 1216, "Ġotras": 1217, "ual": 1218, "Ġpens": 1219, "ivel": 1220, "siÃ³n": 1221, "tados": 1222, "Ġmal": 1223, "ome": 1224, "Ġconoci": 1225, "erg": 1226, "Ġ.": 1227, "obierno": 1228, "ap": 1229, "Ġhoy": 1230, "Ġaunque": 1231, "Ġba": 1232, "Ġgan": 1233, "Ġnada": 1234, "Ġexist": 1235, "ĠNa": 1236, "Ġins": 1237, "erÃŃa": 1238, "gas": 1239, "tivas": 1240, "ientras": 1241, "va": 1242, "Ġsub": 1243, "!!": 1244, "Ġfr": 1245, "ientes": 1246, "van": 1247, "Ġprogra": 1248, "Ġaquel": 1249, "idas": 1250, "Ġpeque": 1251, "dido": 1252, "tural": 1253, "Ġentr": 1254, "ĠÃ": 1255, "Ġsitu": 1256, "iÃ³": 1257, "Ġespecial": 1258, "Ġefec": 1259, "CI": 1260, "zas": 1261, "Ġcasa": 1262, "dia": 1263, "Ã³r": 1264, "Ġrel": 1265, "iar": 1266, "cidad": 1267, "Ġante": 1268, "Ġcontin": 1269, "ama": 1270, "Ġpermi": 1271, "ĠÃ©l": 1272, "Ġrespon": 1273, "ER": 1274, "\",": 1275, "ĠseÃ±": 1276, "inas": 1277, "Ġsino": 1278, "Ġnivel": 1279, "iencia": 1280, "ior": 1281, "sa": 1282, "eno": 1283, "rist": 1284, "Ġcier": 1285, "ridad": 1286, "Ġpresent": 1287, "cado": 1288, "duci": 1289, "Ġorganiz": 1290, "ĠCu": 1291, "Ġestado": 1292, "leg": 1293, "Ġeje": 1294, "Ġapro": 1295, "Ġk": 1296, "ĠDE": 1297, "Ġpal": 1298, "Ġecon": 1299, "Ġestas": 1300, "inar": 1301, "ĠcÃ³mo": 1302, "Ġbo": 1303, "Ġedi": 1304, "oso": 1305, "ern": 1306, "ril": 1307, "rado": 1308, "Ã¡g": 1309, "Ġtemp": 1310, "ĠademÃ¡s": 1311, "âĢľ": 1312, "Ã¡l": 1313, "ĠPar": 1314, "Ġdebe": 1315, "eci": 1316, "Ġcosas": 1317, "Ġpi": 1318, "Ġmuchos": 1319, "stema": 1320, "Ġsistema": 1321, "000": 1322, "Ġart": 1323, "Ġmill": 1324, "Ġdise": 1325, "Ġbar": 1326, "ĠÃºn": 1327, "Ġautor": 1328, "Por": 1329, "Ġpri": 1330, "ord": 1331, "Se": 1332, "Ġmedio": 1333, "Ġsem": 1334, "ĠserÃ¡": 1335, "lica": 1336, "ĠMa": 1337, "minist": 1338, "ĠPero": 1339, "ĠZ": 1340, "ele": 1341, "imos": 1342, "eza": 1343, "Ġcomer": 1344, "tener": 1345, "mar": 1346, "ĠsÃŃ": 1347, "ĠX": 1348, "adora": 1349, "Ġpasado": 1350, "ial": 1351, "ific": 1352, "Ġcambi": 1353, "Ãºm": 1354, "Ġcapa": 1355, "Ġag": 1356, "AR": 1357, "ĠPara": 1358, "lor": 1359, "Ġos": 1360, "terior": 1361, "Ġsan": 1362, "Ġejemp": 1363, "Ġequipo": 1364, "ĠCo": 1365, "he": 1366, "Con": 1367, "Ġinteres": 1368, "OS": 1369, "Es": 1370, "Ġdatos": 1371, "Ã©cn": 1372, "No": 1373, "quil": 1374, "Ġimportante": 1375, "Ġalgunos": 1376, "ocer": 1377, "Ġella": 1378, "idente": 1379, "ĠTo": 1380, "Ġban": 1381, "Ġhistoria": 1382, "Ġho": 1383, "icia": 1384, "ĠÂ¡": 1385, "Ġlleg": 1386, "ï¿": 1387, "cionales": 1388, "ï¿½": 1389, "EN": 1390, "ha": 1391, "tenciÃ³n": 1392, "ĠâĢĵ": 1393, "cha": 1394, "Ġesper": 1395, "sos": 1396, "Ġrepres": 1397, "Ġweb": 1398, "tido": 1399, "ĠEspaÃ±a": 1400, "\".": 1401, "Ġempresa": 1402, "untos": 1403, "Ġnueva": 1404, "fica": 1405, "bo": 1406, "Ġcompar": 1407, "inos": 1408, "rig": 1409, "anza": 1410, "Ġtotal": 1411, "ÃŃculo": 1412, "ulo": 1413, "Ġnuestros": 1414, "Ġ20": 1415, "Ġ15": 1416, "Ġcalidad": 1417, "ya": 1418, "Ġestable": 1419, "ables": 1420, "adre": 1421, "aran": 1422, "Ġmientras": 1423, "Ġfinal": 1424, "itos": 1425, "demos": 1426, "ment": 1427, "Ġhoras": 1428, "ep": 1429, "Ġgente": 1430, "Ġele": 1431, "Ġmillones": 1432, "ura": 1433, "ieron": 1434, "Â»": 1435, "dan": 1436, "tad": 1437, "tam": 1438, "ip": 1439, "Ġrecon": 1440, "Ġhacia": 1441, "ON": 1442, "ex": 1443, "orn": 1444, "Ġinici": 1445, "Ġveces": 1446, "gual": 1447, "embre": 1448, "rir": 1449, "cri": 1450, "AS": 1451, "Ġcontro": 1452, "port": 1453, "ĠLo": 1454, "Ġservicios": 1455, "bio": 1456, "Ġdiferentes": 1457, "Ġrecu": 1458, "Ġdentro": 1459, "ologÃŃa": 1460, "Ġestaba": 1461, "Ġvia": 1462, "Ġinvesti": 1463, "Ġprofesion": 1464, "ono": 1465, "Ġespa": 1466, "Ġuso": 1467, "tidad": 1468, "log": 1469, "Ġaplic": 1470, "ĠInter": 1471, "Ġcr": 1472, "Ġmuchas": 1473, "Ġdijo": 1474, "avor": 1475, "orte": 1476, "tac": 1477, "abor": 1478, "AN": 1479, "Ġmisma": 1480, "ilo": 1481, "ĠCas": 1482, "Ġagua": 1483, "Ã³x": 1484, "Ġello": 1485, "rid": 1486, "Ġrev": 1487, "Ġpersona": 1488, "ĠnÃºm": 1489, "cie": 1490, "Ġsex": 1491, "Ġservicio": 1492, "Ġima": 1493, "Ġind": 1494, "mple": 1495, "Ġembargo": 1496, "all": 1497, "Si": 1498, "Ġacuer": 1499, "Ġ12": 1500, "cimiento": 1501, "Ġllegar": 1502, "ĠcompaÃ±": 1503, "and": 1504, "esta": 1505, "Ġ18": 1506, "Ġrecor": 1507, "ecn": 1508, "encias": 1509, "dio": 1510, "âĢĻ": 1511, "ĠBar": 1512, "ĠsegÃºn": 1513, "Ġofre": 1514, "ĠaquÃŃ": 1515, "Ġfuncion": 1516, "Ġsocial": 1517, "uela": 1518, "Ġru": 1519, "Ġusu": 1520, "demÃ¡s": 1521, "ĠespaÃ±": 1522, "Ġgrupo": 1523, "ĠSal": 1524, "Ġofici": 1525, "Ġposible": 1526, "Ġdistin": 1527, "ula": 1528, "Ġaut": 1529, "Ġanti": 1530, "Ġtus": 1531, "Ġdispon": 1532, "ard": 1533, "Ġcontinu": 1534, "ĠJu": 1535, "icip": 1536, "Ġmujeres": 1537, "Ġpan": 1538, "cin": 1539, "pi": 1540, "Ġdisf": 1541, "atro": 1542, "Ġproductos": 1543, "Ġorig": 1544, "Ġhaber": 1545, "Ġescri": 1546, "gn": 1547, "Ġsue": 1548, "uda": 1549, "Ġconv": 1550, "Ġproceso": 1551, "Ġvi": 1552, "Ġfavor": 1553, "Ġley": 1554, "Ġamb": 1555, "eta": 1556, "ĠmÃ¡": 1557, "ria": 1558, "ok": 1559, "ĠMad": 1560, "Ġpie": 1561, "ral": 1562, "Ġcuer": 1563, "tante": 1564, "olÃ³g": 1565, "Ġclas": 1566, "ill": 1567, "Ġvo": 1568, "Ġpregun": 1569, "Ġejemplo": 1570, "zÃ³n": 1571, "itas": 1572, "bol": 1573, "aria": 1574, "illa": 1575, "Ġprov": 1576, "ĠtÃ©cn": 1577, "oma": 1578, "Ġnoso": 1579, "Ġjug": 1580, "Ġencontrar": 1581, "unca": 1582, "Ġgeneral": 1583, "Ġespec": 1584, "iso": 1585, "dida": 1586, "bido": 1587, "Ġgrandes": 1588, "AL": 1589, "ĠmÃ©": 1590, "stitu": 1591, "Ġluego": 1592, "dor": 1593, "jas": 1594, "turas": 1595, "ĠPer": 1596, "torio": 1597, "graf": 1598, "ach": 1599, "Las": 1600, "Ġfueron": 1601, "Ġproyecto": 1602, "Ġayud": 1603, "Ġmode": 1604, "Ġtri": 1605, "tio": 1606, "ciendo": 1607, "ber": 1608, "Ġdesarrollo": 1609, "ÂŃ": 1610, "Ġcur": 1611, "ĠÂ«": 1612, "Ġquer": 1613, "ĠDi": 1614, "ĠGu": 1615, "Ġpod": 1616, "Ġpunto": 1617, "ĠPa": 1618, "form": 1619, "Ġrecib": 1620, "pecto": 1621, "Â¿": 1622, "tera": 1623, "ĠprÃ³x": 1624, "Ã¡m": 1625, "ĠfÃ¡": 1626, "Ġparticip": 1627, "estiÃ³n": 1628, "pen": 1629, "ace": 1630, "Ġnosotros": 1631, "OR": 1632, "Ġconocer": 1633, "Ġbajo": 1634, "Ġcondi": 1635, "Ġ...": 1636, "Ġclar": 1637, "Ġsac": 1638, "Ġint": 1639, "Ġposib": 1640, "Ġcasi": 1641, "Ġcompr": 1642, "tamiento": 1643, "tonces": 1644, "Ġindi": 1645, "Ġenf": 1646, "Ġleg": 1647, "ric": 1648, "Ġdin": 1649, "Ġtrad": 1650, "Ġcin": 1651, "tico": 1652, "Ġsemana": 1653, "Ġpersonal": 1654, "Ġmuer": 1655, "ajes": 1656, "ĠRo": 1657, "Ġbuena": 1658, "ĠEx": 1659, "Est": 1660, "Ġeduc": 1661, "ĠNacional": 1662, "pre": 1663, "Ġigual": 1664, "gaciÃ³n": 1665, "ecu": 1666, "eleb": 1667, "Ġvuel": 1668, "eras": 1669, "Ġapoy": 1670, "Ġnombre": 1671, "Ġvalor": 1672, "Ġfor": 1673, "Ġmejores": 1674, "ĠMÃ©": 1675, "Ġgas": 1676, "unci": 1677, "Ġdisfru": 1678, "Ġnov": 1679, "porte": 1680, "Ġ0": 1681, "Ġacuerdo": 1682, "ĠSin": 1683, "ĠPo": 1684, "Ġcolor": 1685, "Ġmie": 1686, "Ġet": 1687, "Ġgracias": 1688, "Ġconten": 1689, "ĠeconÃ³m": 1690, "Ġexperiencia": 1691, "Ġpalab": 1692, "ĠniÃ±os": 1693, "diÃ³": 1694, "anto": 1695, "Ġorden": 1696, "osa": 1697, "uestra": 1698, "ĠCol": 1699, "Ġdescu": 1700, "Ġextra": 1701, "ensa": 1702, "Ġsalud": 1703, "acter": 1704, "Ġempresas": 1705, "Ġampl": 1706, "tÃ¡": 1707, "Ġminu": 1708, "Ġceleb": 1709, "ĠAm": 1710, "ĠUnivers": 1711, "Ġall": 1712, "iene": 1713, "Ġlado": 1714, "ĠpÃ¡g": 1715, "rÃ¡": 1716, "Ġinterna": 1717, "Ġrespons": 1718, "Ġconsi": 1719, "Ġzona": 1720, "ĠMan": 1721, "dencia": 1722, "xico": 1723, "Ġseguridad": 1724, "Ġhombre": 1725, "Ġtendr": 1726, "Ġnego": 1727, "Ġtermin": 1728, "ĠVal": 1729, "ĠnÃºmero": 1730, "rea": 1731, "ne": 1732, "ĠCa": 1733, "ite": 1734, "Ġinstal": 1735, "ombres": 1736, "vid": 1737, "Ġtecn": 1738, "Ġrecom": 1739, "isiÃ³n": 1740, "echa": 1741, "Ġrealizar": 1742, "Ġqued": 1743, "Ġlab": 1744, "ĠEste": 1745, "Ġcaus": 1746, "Ġlibro": 1747, "abilidad": 1748, "ĠSo": 1749, "Ġsa": 1750, "posiciÃ³n": 1751, "Ã¡p": 1752, "Ġon": 1753, "Ġapren": 1754, "fico": 1755, "Ġmeses": 1756, "Ġexpres": 1757, "Ġdif": 1758, "Ġtrata": 1759, "Ã±as": 1760, "Ġaum": 1761, "irm": 1762, "Ġ|": 1763, "toria": 1764, "ram": 1765, "ctu": 1766, "izaciÃ³n": 1767, "Ġfuera": 1768, "dera": 1769, "ĠUna": 1770, "Ġasegu": 1771, "ban": 1772, "ĠMo": 1773, "Al": 1774, "Ġnunca": 1775, "dose": 1776, "Ġamor": 1777, "Ġamig": 1778, "Ġnatural": 1779, "Ġvent": 1780, "Ġhemos": 1781, "Ġtenemos": 1782, "Ġrecur": 1783, "cis": 1784, "Ġfamilia": 1785, "Des": 1786, "De": 1787, "cina": 1788, "ĠlÃŃ": 1789, "Para": 1790, "Ġcir": 1791, "puesto": 1792, "ĠlÃŃn": 1793, "izo": 1794, "Ġpuedes": 1795, "Ġincluso": 1796, "AD": 1797, "Ġfa": 1798, "Ġinte": 1799, "Ġjue": 1800, "lam": 1801, "ĠFran": 1802, "oles": 1803, "Ġcumpl": 1804, "ĠMadrid": 1805, "ivo": 1806, "Ġ11": 1807, "Ġparece": 1808, "ire": 1809, "Ġjuego": 1810, "ĠprÃ¡c": 1811, "ĠEsta": 1812, "Ġalim": 1813, "Ġprev": 1814, "ĠDios": 1815, "Ġ#": 1816, "isto": 1817, "Ġcentro": 1818, "Ġsaber": 1819, "Ġmercado": 1820, "ecer": 1821, "Ġtengo": 1822, "Ġunas": 1823, "Ġacer": 1824, "dente": 1825, "Ġemple": 1826, "portun": 1827, "Ġmateri": 1828, "ĠaÃºn": 1829, "ĠMun": 1830, "Ġsen": 1831, "Ġale": 1832, "Ġcomen": 1833, "icamente": 1834, "ĠEstado": 1835, "ares": 1836, "IC": 1837, "Ġdestac": 1838, "Ġ30": 1839, "gent": 1840, "und": 1841, "ĠrelaciÃ³n": 1842, "Ġjust": 1843, "Ġalguna": 1844, "pti": 1845, "Ġhora": 1846, "Ġdeber": 1847, "Ġproblemas": 1848, "Ġcambio": 1849, "bar": 1850, "Ġseguir": 1851, "Ġust": 1852, "net": 1853, "Ġalcan": 1854, "end": 1855, "oluciÃ³n": 1856, "Ġsign": 1857, "tando": 1858, "Ġprograma": 1859, "Ġjunto": 1860, "Ġperfec": 1861, "Ġrefer": 1862, "Ġtema": 1863, "Ġ[": 1864, "Ġpresidente": 1865, "201": 1866, "bles": 1867, "af": 1868, "rio": 1869, "lu": 1870, "ile": 1871, "Ġcontac": 1872, "Ġ/": 1873, "Ġalgunas": 1874, "Ġmos": 1875, "anci": 1876, "Ġetc": 1877, "Ġcuerpo": 1878, "Ġponer": 1879, "reg": 1880, "tific": 1881, "Ġfoto": 1882, "Ġoportun": 1883, "Ġdefin": 1884, "Ġcoment": 1885, "Ġincluy": 1886, "ĠmÃºs": 1887, "Ġfac": 1888, "Qu": 1889, "uros": 1890, "ĠCent": 1891, "yo": 1892, "usiÃ³n": 1893, "Ġfil": 1894, "Ġanim": 1895, "iera": 1896, "Ġverdad": 1897, "ĠCor": 1898, "ĠpelÃŃcul": 1899, "termin": 1900, "ĠsituaciÃ³n": 1901, "Ġdice": 1902, "ies": 1903, "Ġ2018": 1904, "Ġafec": 1905, "cido": 1906, "ĠMon": 1907, "tada": 1908, "ĠLu": 1909, "titu": 1910, "Ġcuatro": 1911, "Ġregist": 1912, "Ġdomin": 1913, "eric": 1914, "Ġpartir": 1915, "Ġpublic": 1916, "respon": 1917, "Ġpodemos": 1918, "ĠEuro": 1919, "alizaciÃ³n": 1920, "ifica": 1921, "Ġol": 1922, "Ġpuer": 1923, "ĀĀ": 1924, "Ġnorm": 1925, "inaciÃ³n": 1926, "Ġdesp": 1927, "Ġsolici": 1928, "Ġprecio": 1929, "Ġcaracter": 1930, "Ġocas": 1931, "ĠJos": 1932, "Ġproblema": 1933, "tin": 1934, "Ġlogr": 1935, "Ġdivers": 1936, "Ġejer": 1937, "zos": 1938, "ĠpÃºblico": 1939, "Ġgen": 1940, "aja": 1941, "icio": 1942, "Ġred": 1943, "Â¡": 1944, "ĠMÃ©xico": 1945, "Ġfrente": 1946, "Ġbene": 1947, "Ġdirig": 1948, "Ġcompe": 1949, "jar": 1950, "Ġvarios": 1951, "Ġgobierno": 1952, "dir": 1953, "Ġconsegu": 1954, "Ġem": 1955, "Ġserie": 1956, "pel": 1957, "ĠÃºltimo": 1958, "ger": 1959, "Ġnacional": 1960, "Ġsiendo": 1961, "Ġestu": 1962, "Ġselec": 1963, "ĠQu": 1964, "Ġcontrol": 1965, "Ġpaso": 1966, "Ġsocie": 1967, "ĠOr": 1968, "Ġpin": 1969, "anas": 1970, "Ġdocu": 1971, "Ġencuentra": 1972, "Ġrealidad": 1973, "blo": 1974, "blig": 1975, "Ġlargo": 1976, "iste": 1977, "Ġentonces": 1978, "Ġmov": 1979, "Ġ14": 1980, "Ã©is": 1981, "gado": 1982, "arÃŃa": 1983, "Ġej": 1984, "19": 1985, "Ġmor": 1986, "ister": 1987, "ierra": 1988, "Ġloc": 1989, "ron": 1990, "ĠCam": 1991, ".-": 1992, "Ġliber": 1993, "ques": 1994, "Ġofrece": 1995, "mento": 1996, "ves": 1997, "arlo": 1998, "IN": 1999, "Âº": 2000, "Ġobra": 2001, "Ġmano": 2002, "Ġconside": 2003, "Ġenfer": 2004, "Ġ16": 2005, "ĠfÃ¡cil": 2006, "ĠrÃ¡p": 2007, "Ġfund": 2008, "dial": 2009, "iva": 2010, "Ġnoche": 2011, "ĠvÃŃ": 2012, "Ġmunicip": 2013, "rÃ³": 2014, "Ġatra": 2015, "nas": 2016, "Ġprepar": 2017, "Ġvide": 2018, "Ġminutos": 2019, "Ġobjetivo": 2020, "gon": 2021, "serv": 2022, "Ġmus": 2023, "Ġtele": 2024, "Ġactividades": 2025, "Ġ13": 2026, "Ġsur": 2027, "iedad": 2028, "ef": 2029, "Ġpartido": 2030, "Ġadminist": 2031, "Ġiden": 2032, "pas": 2033, "ducir": 2034, "Ġdetal": 2035, "reo": 2036, "Ġeleg": 2037, "ĠtenÃŃa": 2038, "Ġfalta": 2039, "ribu": 2040, "Ġbenefici": 2041, "ĠAdemÃ¡s": 2042, "Ġsector": 2043, "Ġoblig": 2044, "Ġenerg": 2045, "ĠatenciÃ³n": 2046, "Ġsociales": 2047, "Ġvan": 2048, "ĠâĢĺ": 2049, "mbre": 2050, "Ãĥ": 2051, "ĠEstados": 2052, "Ġtempor": 2053, "Ġespacio": 2054, "Ġdecl": 2055, "Ġpuntos": 2056, "Ġ25": 2057, "zado": 2058, "iado": 2059, "ĠpolÃŃtica": 2060, "ĠCan": 2061, "Ġbase": 2062, "ental": 2063, "gre": 2064, "nes": 2065, "Ġcorrespon": 2066, "Ġat": 2067, "Ġempez": 2068, "ĠGobierno": 2069, "omos": 2070, "gel": 2071, "Cu": 2072, "Ġrepresent": 2073, "Ġreal": 2074, "Ġtor": 2075, "eas": 2076, "Ġdinero": 2077, "Ġ'": 2078, "omÃŃa": 2079, "rac": 2080, "ĠpodrÃŃa": 2081, "ich": 2082, "Ġprue": 2083, "var": 2084, "Ã¡tica": 2085, "enas": 2086, "rera": 2087, "mit": 2088, "gles": 2089, "Ġderecho": 2090, "Ġjun": 2091, "ĠartÃŃculo": 2092, "In": 2093, "gro": 2094, "mientos": 2095, "Ġpermite": 2096, "olu": 2097, "Ã¡b": 2098, "Ġgaran": 2099, "Ġpare": 2100, "ĠMin": 2101, "val": 2102, "Ġinstitu": 2103, "cho": 2104, "Ġdetermin": 2105, "ĠpaÃŃses": 2106, "ell": 2107, "Ġhizo": 2108, "Ġprecios": 2109, "lex": 2110, "Ġmediante": 2111, "cent": 2112, "rucciÃ³n": 2113, "Ġsentido": 2114, "ĠÃģ": 2115, "Ġsitio": 2116, "Ġocur": 2117, "visiÃ³n": 2118, "stas": 2119, "Ġinde": 2120, "Ġblan": 2121, "Ġindic": 2122, "Ġexplic": 2123, "trÃ³n": 2124, "mon": 2125, "arÃ¡n": 2126, "Ġmens": 2127, "gue": 2128, "Ġsiguiente": 2129, "Un": 2130, "Ġsegundo": 2131, "....": 2132, "Ġproce": 2133, "ĠPol": 2134, "are": 2135, "Ġ17": 2136, "Ġalta": 2137, "riÃ³": 2138, "pciÃ³n": 2139, "Ġencan": 2140, "ĠseÃ±al": 2141, "ĠalgÃºn": 2142, "ĠmayorÃŃa": 2143, "Ġub": 2144, "Ġmir": 2145, "cionar": 2146, "una": 2147, "ĠPre": 2148, "ĠdiseÃ±o": 2149, "Ġreun": 2150, "Ġnuevos": 2151, "Ġmodo": 2152, "ĠUniversidad": 2153, "ĠAd": 2154, "Ġtex": 2155, "Ġacom": 2156, "Ġil": 2157, "Ãĵ": 2158, "ate": 2159, "Ġimagen": 2160, "ĠUnidos": 2161, "Ġalum": 2162, "Este": 2163, "Ġsuf": 2164, "tario": 2165, "Ġauto": 2166, "alizar": 2167, "tran": 2168, "Ġfinanci": 2169, "ts": 2170, "Ġbol": 2171, "posi": 2172, "Ġnuevas": 2173, "Ġofrec": 2174, "Ġquienes": 2175, "si": 2176, "Ã±ana": 2177, "dal": 2178, "Ġespeci": 2179, "Ġperio": 2180, "Ġactividad": 2181, "Ġcondiciones": 2182, "Ġcasos": 2183, "ĠJuan": 2184, "Ġayuda": 2185, "orÃŃa": 2186, "tion": 2187, "Ġlabor": 2188, "Ġconsul": 2189, "bajo": 2190, "Ġidea": 2191, "Ġconj": 2192, "Ġsociedad": 2193, "Ġtam": 2194, "uesta": 2195, "Ġtarde": 2196, "Ġsos": 2197, "Ġ2017": 2198, "Ġestamos": 2199, "ĠGener": 2200, "Ġsens": 2201, "ĠmÃ¡x": 2202, "Ġproces": 2203, "Ġencontr": 2204, "cup": 2205, "inal": 2206, "pendi": 2207, "Ġavan": 2208, "Ġcolec": 2209, "ik": 2210, "ulio": 2211, "Ġconfi": 2212, "Ġelem": 2213, "Ġsimple": 2214, "Ġcreo": 2215, "Ġjo": 2216, "Ġesos": 2217, "Ġderechos": 2218, "Ġ:": 2219, "Ġrespecto": 2220, "vÃŃa": 2221, "ĠTambiÃ©n": 2222, "ingun": 2223, "Ġasist": 2224, "Ġnecesario": 2225, "Ġsegunda": 2226, "Ġviol": 2227, "Ġcuanto": 2228, "Ġsor": 2229, "ĠBo": 2230, "Ġrelacion": 2231, "Ġproducto": 2232, "Ġresultados": 2233, "tien": 2234, "Ġposi": 2235, "Ġconver": 2236, "th": 2237, "Ã¡ndo": 2238, "Ġcub": 2239, "igo": 2240, "Ġconven": 2241, "Ġpromo": 2242, "ibles": 2243, "Ġdejar": 2244, "Ġcerca": 2245, "Ġhombres": 2246, "Ġacab": 2247, "Ġpasar": 2248, "Ġreco": 2249, "Ġindust": 2250, "Ġdig": 2251, "Ġ100": 2252, "line": 2253, "puesta": 2254, "Ġ24": 2255, "Ã¡tico": 2256, "ĠlÃŃnea": 2257, "echos": 2258, "Ġusted": 2259, "uales": 2260, "pular": 2261, "Ġlec": 2262, "vent": 2263, "Ġfon": 2264, "ĠNe": 2265, "Ġenten": 2266, "Ġescuch": 2267, "ĠPe": 2268, "ÃŃamos": 2269, "Ġbastante": 2270, "tÃ³n": 2271, "Ġlan": 2272, "Ġrad": 2273, "Ġtienes": 2274, "Ġprincipal": 2275, "Ġamigos": 2276, "tiene": 2277, "ticular": 2278, "Ġmul": 2279, "Ġestra": 2280, "Ġfutu": 2281, "Ġhaya": 2282, "Una": 2283, "Ġluch": 2284, "pres": 2285, "30": 2286, "Ġnuestras": 2287, "II": 2288, "guien": 2289, "rido": 2290, "Ġdicho": 2291, "Ġacep": 2292, "10": 2293, "Ġhacen": 2294, "Ġestudio": 2295, "ler": 2296, "Ġllevar": 2297, "rero": 2298, "ĠJosÃ©": 2299, "ÃŃtulo": 2300, "Ġeuros": 2301, "olo": 2302, "Ġpueblo": 2303, "Ġincre": 2304, "urante": 2305, "dico": 2306, "Ġpuesto": 2307, "ĠPres": 2308, "Ġur": 2309, "zÃ³": 2310, "adie": 2311, "ĠYo": 2312, "ingÃºn": 2313, "Ã¡r": 2314, "ÃŃsticas": 2315, "Ġimpres": 2316, "TA": 2317, "Ġenvi": 2318, "Ġpresente": 2319, "unta": 2320, "Ġries": 2321, "genes": 2322, "Ġcomb": 2323, "IS": 2324, "ĠRes": 2325, "lado": 2326, "Ġprob": 2327, "ice": 2328, "Ġestoy": 2329, "Ġpapel": 2330, "ÃŃculos": 2331, "ĠGran": 2332, "Ġmiemb": 2333, "Ġclientes": 2334, "Ġacceso": 2335, "Ġclaro": 2336, "Ġenc": 2337, "itaciÃ³n": 2338, "Ġlibre": 2339, "emas": 2340, "ĠCal": 2341, "Ġvac": 2342, "ĠAp": 2343, "Ġdese": 2344, "dica": 2345, "ĠacompaÃ±": 2346, "ĠpÃ¡gina": 2347, "tecciÃ³n": 2348, "ĠmaÃ±ana": 2349, "Ġsim": 2350, "Ġ199": 2351, "Ġanterior": 2352, "Ġningun": 2353, "ĠespaÃ±ol": 2354, "Ġpropio": 2355, "Ġmodelo": 2356, "one": 2357, "tiÃ³": 2358, "ĠÃºnico": 2359, "ctubre": 2360, "Ġdescub": 2361, "ĠAc": 2362, "ĠComo": 2363, "illo": 2364, "ciÃ³": 2365, "Ġases": 2366, "Ġcierto": 2367, "gl": 2368, "ira": 2369, "entemente": 2370, "Ġconte": 2371, "Ġer": 2372, "adamente": 2373, "Ġescrib": 2374, "Ġinclu": 2375, "Ġprimero": 2376, "iembre": 2377, "ĠTra": 2378, "Ġdeben": 2379, "Ġfacil": 2380, "rados": 2381, "Ã©rica": 2382, "ĠfÃŃs": 2383, "ĠningÃºn": 2384, "Ġcinco": 2385, "Ġvarias": 2386, "ilar": 2387, "Ã³vil": 2388, "peraciÃ³n": 2389, "Ġado": 2390, "ug": 2391, "Ġtel": 2392, "tero": 2393, "Ġfel": 2394, "Ġgusta": 2395, "Ġhablar": 2396, "Ġreconoci": 2397, "ror": 2398, "Ġquiere": 2399, "Ġfab": 2400, "ĠmÃºsica": 2401, "Ġgol": 2402, "Ġinm": 2403, "Ġcantidad": 2404, "tri": 2405, "ĠLey": 2406, "Ġencar": 2407, "Ġcapital": 2408, "Ġusuarios": 2409, "Ġdescar": 2410, "iÃ©n": 2411, "fo": 2412, "Ġluz": 2413, "ramient": 2414, "Ġcamino": 2415, "hora": 2416, "ilidades": 2417, "Ġmedios": 2418, "Ġinvers": 2419, "Ġcapacidad": 2420, "Ġellas": 2421, "Ġpueda": 2422, "Ġpartici": 2423, "ĠproducciÃ³n": 2424, "ĠPla": 2425, "ĠÃºltimos": 2426, "Ġfran": 2427, "Ġdoc": 2428, "Ġhub": 2429, "Ġmarca": 2430, "Ġx": 2431, "Ġvista": 2432, "ĠVer": 2433, "Ã³s": 2434, "iza": 2435, "Ġpalabras": 2436, "Ġmanten": 2437, "Ġhaciendo": 2438, "Ġconsider": 2439, "greso": 2440, "ian": 2441, "Ġresta": 2442, "ack": 2443, "ww": 2444, "Ġobserv": 2445, "Ġpaci": 2446, "ĠdemÃ¡s": 2447, "ducciÃ³n": 2448, "onos": 2449, "Ġcabo": 2450, "Ġpobl": 2451, "ĠAsÃŃ": 2452, "icado": 2453, "seÃ±": 2454, "Ġcosa": 2455, "acer": 2456, "rin": 2457, "Ġcrear": 2458, "Ġbueno": 2459, "Ġgratis": 2460, "ÃĵN": 2461, "adres": 2462, "Ġtomar": 2463, "Ġparticular": 2464, "Ġmater": 2465, "20": 2466, "ptiembre": 2467, "Ġ2016": 2468, "Ġmanif": 2469, "oce": 2470, "ivil": 2471, "Ġlim": 2472, "Ġagu": 2473, "Ġpriv": 2474, "Ġ50": 2475, "dez": 2476, "Ġcuar": 2477, "Ġunivers": 2478, "Ġrom": 2479, "Ġlimp": 2480, "tiz": 2481, "Ġbeb": 2482, "ĠIs": 2483, "Ġpropor": 2484, "ĠReg": 2485, "Ġalguien": 2486, "Ġejerci": 2487, "Ġlocal": 2488, "izar": 2489, "ĠinvestigaciÃ³n": 2490, "Ġconstitu": 2491, "Ġpropia": 2492, "Ġdisfrutar": 2493, "Ġdesa": 2494, "be": 2495, "Ġblog": 2496, "Ġdirector": 2497, "Ġim": 2498, "Ġalto": 2499, "Ġperman": 2500, "Ġpoten": 2501, "Ġrecuer": 2502, "TE": 2503, "lante": 2504, "ticas": 2505, "Ġpesar": 2506, "biÃ³": 2507, "âĢĶ": 2508, "amientos": 2509, "__": 2510, "tividad": 2511, "Ġfundam": 2512, "Ġcuales": 2513, "ase": 2514, "Ġcri": 2515, "ĠCl": 2516, "gentina": 2517, "Ġcla": 2518, "Ġsencil": 2519, "Ġfecha": 2520, "quis": 2521, "Ġmantener": 2522, "ulos": 2523, "ificaciÃ³n": 2524, "venes": 2525, "ID": 2526, "Ġdedic": 2527, "Me": 2528, "Ġabier": 2529, "mentos": 2530, "Ġesf": 2531, "Ġpiel": 2532, "Ġemo": 2533, "Ġinten": 2534, "cÃŃa": 2535, "isis": 2536, "Ġofer": 2537, "Ġvir": 2538, "ecre": 2539, "dap": 2540, "ĠGeneral": 2541, "ĠdifÃŃ": 2542, "Ġadecu": 2543, "Ġprovin": 2544, "ĠDis": 2545, "isterio": 2546, "tual": 2547, "ple": 2548, "Ġacciones": 2549, "ĠelectrÃ³n": 2550, "Ġrecursos": 2551, "Ġconstru": 2552, "Ġnoti": 2553, "ĠÃºltima": 2554, "Ġactual": 2555, "ĠDirec": 2556, "Ġdebido": 2557, "uerra": 2558, "Esta": 2559, "Ġevitar": 2560, "Ġresultado": 2561, "Ġduda": 2562, "Ã©f": 2563, "Ġabs": 2564, "ign": 2565, "tÃ¡n": 2566, "Ġconseguir": 2567, "Ġherramient": 2568, "Ġresto": 2569, "Ġcalle": 2570, "Ġalter": 2571, "Ġconci": 2572, "ĠserÃŃa": 2573, "alo": 2574, "dedor": 2575, "omas": 2576, "ecen": 2577, "rez": 2578, "Ġconcep": 2579, "Ġsignifica": 2580, "Ġestilo": 2581, "Ġfuturo": 2582, "Ġcontar": 2583, "Ġcolabor": 2584, "Ġta": 2585, "Ġprofesionales": 2586, "enci": 2587, "Ġmol": 2588, "Ġedad": 2589, "ĠmÃŃ": 2590, "culo": 2591, "ĠCuando": 2592, "ienda": 2593, "Ġpron": 2594, "Ġvolver": 2595, "Ġarti": 2596, "ĠpelÃŃcula": 2597, "ĠâĢĶ": 2598, "Ã¼": 2599, "Ġfamiliar": 2600, "ĠÃ©x": 2601, "Ġnadie": 2602, "ĠaplicaciÃ³n": 2603, "dero": 2604, "talla": 2605, "Ġgrande": 2606, "onas": 2607, "Ġexcl": 2608, "Ġprofesional": 2609, "siones": 2610, "Ġentrada": 2611, "grafÃŃa": 2612, "Ġdepor": 2613, "celona": 2614, "turales": 2615, "ĠtÃ©r": 2616, "Ġenferme": 2617, "Ġmoder": 2618, "Ġis": 2619, "Ġbusc": 2620, "ĠFe": 2621, "Ġtit": 2622, "Ġdici": 2623, "Ġbal": 2624, "ĠGra": 2625, "just": 2626, "Ġseguro": 2627, "Ġtuvo": 2628, "Ġfotos": 2629, "tivamente": 2630, "partam": 2631, "Ġsoy": 2632, "para": 2633, "bas": 2634, "Ġvig": 2635, "Ã³venes": 2636, "ĠSegu": 2637, "ĠahÃŃ": 2638, "ft": 2639, "50": 2640, "Ġdado": 2641, "Ġaz": 2642, "iano": 2643, "mac": 2644, "Ġcomien": 2645, "Ġmedida": 2646, "Ġjoven": 2647, "Ġfe": 2648, "Ġsigue": 2649, "ĠformaciÃ³n": 2650, "Ġinterior": 2651, "Ġayudar": 2652, "adoras": 2653, "Ġproyectos": 2654, "RA": 2655, "Ġopin": 2656, "Ġoctubre": 2657, "biente": 2658, "Ġmuerte": 2659, "arias": 2660, "Ġventa": 2661, "Ġtratamiento": 2662, "ĠTe": 2663, "Ġ21": 2664, "tt": 2665, "Ġenv": 2666, "Ġadap": 2667, "Ġvisto": 2668, "ĠNuev": 2669, "ĠcomunicaciÃ³n": 2670, "Ġeran": 2671, "Ġfre": 2672, "tÃŃn": 2673, "Lo": 2674, "Ġaquellos": 2675, "bu": 2676, "Ġestruc": 2677, "Ġbuscar": 2678, "acciÃ³n": 2679, "ivos": 2680, "ĠprÃ³ximo": 2681, "Ġagr": 2682, "Ġprofun": 2683, "Ġtrabajar": 2684, "Ġenfr": 2685, "ĠestÃ©": 2686, "ĠQue": 2687, "jes": 2688, "ĠGar": 2689, "trÃ¡s": 2690, "Ġsecre": 2691, "Ġnoviembre": 2692, "Ġdemas": 2693, "Ġoportunidad": 2694, "Ġesas": 2695, "Ġfan": 2696, "Ġhijos": 2697, "Ġsean": 2698, "Ġ2015": 2699, "Ġveh": 2700, "todo": 2701, "Ġapoyo": 2702, "ticos": 2703, "ĠJo": 2704, "Ġlleva": 2705, "rel": 2706, "Ġcomunidad": 2707, "Ã¡lisis": 2708, "illas": 2709, "ĠacciÃ³n": 2710, "Ġmadre": 2711, "ĠPue": 2712, "Ġvideo": 2713, "Ġmanos": 2714, "Ã³p": 2715, "Ġrespe": 2716, "ficaciÃ³n": 2717, "RO": 2718, "ĠGo": 2719, "esa": 2720, "forma": 2721, "Ġaire": 2722, "tina": 2723, "Ġpudi": 2724, "Ġcuad": 2725, "Ġterri": 2726, "ĠgestiÃ³n": 2727, "taciones": 2728, "Ġcomprar": 2729, "Ġata": 2730, "uls": 2731, "Ġopera": 2732, "Como": 2733, "Ġtur": 2734, "lares": 2735, "Ġdiciembre": 2736, "Ġcontr": 2737, "au": 2738, "Ġnove": 2739, "Ġinternacional": 2740, "ancias": 2741, "ps": 2742, "Ġindivid": 2743, "Ġlig": 2744, "Ġhabl": 2745, "Ġleer": 2746, "Ġpasa": 2747, "Ġvamos": 2748, "rÃŃa": 2749, "Ġprincipales": 2750, "Ġobras": 2751, "rada": 2752, "Ġpreo": 2753, "ĠMor": 2754, "ĠdirecciÃ³n": 2755, "Ġplata": 2756, "li": 2757, "Ġfir": 2758, "Ġcorrec": 2759, "icios": 2760, "Ġseptiembre": 2761, "ulaciÃ³n": 2762, "umo": 2763, "ÃŃstica": 2764, "Ġmejorar": 2765, "Ãºblica": 2766, "venciÃ³n": 2767, "Ġmuestra": 2768, "ĠinterÃ©s": 2769, "men": 2770, "Ġexcel": 2771, "Ġpopular": 2772, "itor": 2773, "Ġcabeza": 2774, "pro": 2775, "Ġtemporada": 2776, "tagon": 2777, "ĠHa": 2778, "Ġcora": 2779, "ĠjÃ³venes": 2780, "osp": 2781, "acto": 2782, "Ġ22": 2783, "To": 2784, "Ġintegr": 2785, "ĠallÃŃ": 2786, "Ã³mo": 2787, "Ġterc": 2788, "Ġrealmente": 2789, "Ã¡genes": 2790, "tÃ©": 2791, "Ġcampo": 2792, "Ġusar": 2793, "Ġsiglo": 2794, "As": 2795, "Ġimportantes": 2796, "ĠAb": 2797, "Ġtenido": 2798, "Ġmodi": 2799, "Ã¡ndose": 2800, "ĠComun": 2801, "Ġdio": 2802, "Ġcara": 2803, "ĠenergÃŃa": 2804, "Ġlar": 2805, "Ġnecesidad": 2806, "torno": 2807, "ÃŃf": 2808, "Ġincor": 2809, "ila": 2810, "Ġcuid": 2811, "Ġfuerte": 2812, "Ġdescon": 2813, "iencias": 2814, "Ġcateg": 2815, "Ġdisposi": 2816, "RE": 2817, "ĠEsto": 2818, "Ġredes": 2819, "ĠCentro": 2820, "Ġelim": 2821, "ĠAy": 2822, "poco": 2823, "QuÃ©": 2824, "ficiente": 2825, "ĠJes": 2826, "ĠcompaÃ±ÃŃa": 2827, "alu": 2828, "ĠenseÃ±": 2829, "Ġcontacto": 2830, "ĠRec": 2831, "Ġfuerza": 2832, "ruz": 2833, "ĠdiseÃ±": 2834, "Ġconduc": 2835, "Ġexig": 2836, "Ġprimeros": 2837, "Ġviene": 2838, "ibilidad": 2839, "rimon": 2840, "ĠpodrÃ¡": 2841, "Ġder": 2842, "Ġtradi": 2843, "udo": 2844, "Ġaudi": 2845, "Ġdeclar": 2846, "Ġutilizar": 2847, "Ġcarrera": 2848, "Ġpuedo": 2849, "Ġvas": 2850, "Ġmismos": 2851, "ĠpoblaciÃ³n": 2852, "Ġonline": 2853, "Ġqueda": 2854, "sejo": 2855, "Ġequipos": 2856, "ĉĊ": 2857, "taron": 2858, "Ġrespuesta": 2859, "lio": 2860, "Ġjulio": 2861, "icidad": 2862, "Ġjunio": 2863, "Ġentren": 2864, "remos": 2865, "dra": 2866, "rantes": 2867, "ĠEsc": 2868, "Ġsalir": 2869, "Ġtemas": 2870, "Ġposibilidad": 2871, "Ġpost": 2872, "stico": 2873, "ale": 2874, "itan": 2875, "Ġobtener": 2876, "Ġlen": 2877, "Ġgob": 2878, "pren": 2879, "Ġsist": 2880, "ĠpequeÃ±o": 2881, "Ġmucha": 2882, "Ġverda": 2883, "entas": 2884, "Ġpresencia": 2885, "ĠServ": 2886, "cionado": 2887, "ĠOb": 2888, "Ġviaje": 2889, "ĠtÃ©rmin": 2890, "Pero": 2891, "200": 2892, "Ġplante": 2893, "Ġbel": 2894, "Ġtierra": 2895, "pone": 2896, "ĠBarcelona": 2897, "Ġanunci": 2898, "Ġmayo": 2899, "Ġmad": 2900, "rad": 2901, "Ġprincipio": 2902, "ĠeducaciÃ³n": 2903, "ĠconstrucciÃ³n": 2904, "Ġmedia": 2905, "Ġcurso": 2906, "ĠdifÃŃcil": 2907, "Ġdeman": 2908, "cular": 2909, "Ġexten": 2910, "TI": 2911, "xic": 2912, "Ġdia": 2913, "ĠÃ©xito": 2914, "Ġusuario": 2915, "orme": 2916, "Ġalre": 2917, "ĠsÃ©": 2918, "glesia": 2919, "ĠCrist": 2920, "Ġojos": 2921, "Ġfis": 2922, "Ġconcre": 2923, "Ġconsum": 2924, "ĠMarÃŃa": 2925, "Ġconjunto": 2926, "Ġsexo": 2927, "est": 2928, "ĠbÃ¡s": 2929, "Ġfigu": 2930, "Ġnecesita": 2931, "Ġcontenido": 2932, "ĠMi": 2933, "Ġprem": 2934, "xim": 2935, "Ġarte": 2936, "Ġhijo": 2937, "cen": 2938, "ĠBuen": 2939, "ĠorganizaciÃ³n": 2940, "Ġespecialmente": 2941, "Ġpadre": 2942, "imientos": 2943, "curso": 2944, "bal": 2945, "11": 2946, "Ġaprov": 2947, "bil": 2948, "tim": 2949, "irse": 2950, "Ġseman": 2951, "ĠimÃ¡genes": 2952, "esiÃ³n": 2953, "irÃ¡": 2954, "Ã©l": 2955, "ĠInterna": 2956, "Ġvic": 2957, "ĠtecnologÃŃa": 2958, "AM": 2959, "gosto": 2960, "An": 2961, "Ġreserv": 2962, "ĠtelÃ©f": 2963, "ĠmÃŃn": 2964, "ĠMu": 2965, "ĠInstitu": 2966, "Ġencuentro": 2967, "Ġgrupos": 2968, "grÃ¡": 2969, "ĠrazÃ³n": 2970, "Ġ2014": 2971, "Ġelementos": 2972, "Ġsir": 2973, "Ġlibros": 2974, "iernes": 2975, "tiendo": 2976, "Ġcine": 2977, "teriores": 2978, "Ġprotagon": 2979, "ĠtodavÃŃa": 2980, "americ": 2981, "Ġriesgo": 2982, "ĠserÃ¡n": 2983, "Ġmaterial": 2984, "ĠHo": 2985, "ĠEuropa": 2986, "ĠBan": 2987, "CIÃĵN": 2988, "ĠLuis": 2989, "ĠAle": 2990, "ari": 2991, "tadas": 2992, "ĠaÃ±ad": 2993, "Ġninguna": 2994, "Ġenci": 2995, "Ġambos": 2996, "Ġ40": 2997, "ĠdÃ³": 2998, "OM": 2999, "Ġdemos": 3000, "hi": 3001, "uerto": 3002, "Ġsuce": 3003, "Ġjuegos": 3004, "ĠediciÃ³n": 3005, "ĠÃ¡rea": 3006, "ional": 3007, "ĠopciÃ³n": 3008, "her": 3009, "Ġesfuer": 3010, "Ġexiste": 3011, "Ġquiero": 3012, "Ġingres": 3013, "ĠÃ©po": 3014, "Ġfru": 3015, "entan": 3016, "itado": 3017, "Ġinme": 3018, "Ġnecesidades": 3019, "ĠversiÃ³n": 3020, "dÃŃa": 3021, "Ġsabe": 3022, "ĠhistÃ³r": 3023, "ese": 3024, "ĠLA": 3025, "ociaciÃ³n": 3026, "Ã©m": 3027, "oro": 3028, "pir": 3029, "icÃŃa": 3030, "ĠArgentina": 3031, "Ġsuperior": 3032, "Ġrepar": 3033, "ĠCarlos": 3034, "deo": 3035, "via": 3036, "Ġhacerlo": 3037, "Ġbusca": 3038, "Ġcargo": 3039, "fa": 3040, "ĠparticipaciÃ³n": 3041, "Ġpadres": 3042, "Ġclase": 3043, "Ġconocimiento": 3044, "ke": 3045, "licaciones": 3046, "uesto": 3047, "Ġagra": 3048, "ĠfunciÃ³n": 3049, "ÃŃdo": 3050, "metros": 3051, "diendo": 3052, "ulas": 3053, "Ġplazo": 3054, "Ġbon": 3055, "ĠmÃ³vil": 3056, "Ġpareja": 3057, "ĠSanta": 3058, ".,": 3059, "Ġpartes": 3060, "ete": 3061, "12": 3062, "Ġcrea": 3063, "âĢĵ": 3064, "Ġparticipar": 3065, "Ġfra": 3066, "alizado": 3067, "Ġinicia": 3068, "fi": 3069, "ĠSon": 3070, "Ġ23": 3071, "Ġestudios": 3072, "Ġpresenta": 3073, "del": 3074, "Ġpier": 3075, "Ġlista": 3076, "Ġenero": 3077, "Ġmarzo": 3078, "ĠEduc": 3079, "Ġconsidera": 3080, "ĠSa": 3081, "Ġpuedan": 3082, "Ġmetros": 3083, "Ġofrecer": 3084, "fil": 3085, "ĠFac": 3086, "Ġimag": 3087, "ĠHay": 3088, "Ġmedidas": 3089, "Ġhici": 3090, "Ġoficial": 3091, "TO": 3092, "Ġjugar": 3093, "Ġtama": 3094, "reas": 3095, "Ġsolu": 3096, "Ġâ": 3097, "ebrero": 3098, "Ġcambios": 3099, "unes": 3100, "Ġacon": 3101, "ĠÃºnica": 3102, "EL": 3103, "Ġelabor": 3104, "Ġcliente": 3105, "Ġvivir": 3106, "Ġeuro": 3107, "tino": 3108, "inado": 3109, "tia": 3110, "ical": 3111, "Ġsiguientes": 3112, "Ġ$": 3113, "pl": 3114, "Ġhotel": 3115, "Ġambiente": 3116, "Ġefecto": 3117, "istro": 3118, "Ġq": 3119, "entaciÃ³n": 3120, "ĠcomÃºn": 3121, "tora": 3122, "ĠCiudad": 3123, "Ġmiembros": 3124, "Ġps": 3125, "Ġguar": 3126, "ines": 3127, "tarse": 3128, "Ġnum": 3129, "rum": 3130, "oo": 3131, "Re": 3132, "Ġconcl": 3133, "Ġabril": 3134, "Ġcrist": 3135, "aca": 3136, "nov": 3137, "ieza": 3138, "Ġrec": 3139, "ferencia": 3140, "ĠTer": 3141, "Ġcambiar": 3142, "moc": 3143, "rica": 3144, "Ġcoloc": 3145, "glÃ©s": 3146, "fe": 3147, "Ġcultura": 3148, "Ĥ¬": 3149, "ĠcorazÃ³n": 3150, "rando": 3151, "Ġmenor": 3152, "Ġestrateg": 3153, "ck": 3154, "Ġgratu": 3155, "Ġmez": 3156, "Ġpreten": 3157, "dentes": 3158, "Ġimportancia": 3159, "ĠtendrÃ¡": 3160, "Ã¡mara": 3161, "idores": 3162, "Ġjorn": 3163, "Ġlin": 3164, "Ġvin": 3165, "EC": 3166, "aces": 3167, "Ġpen": 3168, "Ġconec": 3169, "Ġcrecimiento": 3170, "Ã©ctr": 3171, "Ġcompra": 3172, "ĠTen": 3173, "ĠPr": 3174, "ombia": 3175, "Ġhas": 3176, "Ġvoy": 3177, "Ġpensar": 3178, "Ġdepen": 3179, "Ġdom": 3180, "OL": 3181, "uelo": 3182, "Ġbor": 3183, "Ġformas": 3184, "ĠSol": 3185, "tisf": 3186, "ÃŃos": 3187, "ĠSer": 3188, "Ġprueba": 3189, "ket": 3190, "Ġconserv": 3191, "Ġmayores": 3192, "terÃŃa": 3193, "diz": 3194, "ches": 3195, "Ġproteg": 3196, "Hola": 3197, "IA": 3198, "Ġgal": 3199, "Ġinterpre": 3200, "Ġnegocio": 3201, "ĠIN": 3202, "Ġseis": 3203, "enda": 3204, "Ġencontra": 3205, "Ġtem": 3206, "Ġevento": 3207, "Ġperten": 3208, "ĠCons": 3209, "Ġciento": 3210, "ritu": 3211, "titud": 3212, "este": 3213, "ĠpÃºblica": 3214, "ner": 3215, "Ġpeso": 3216, "Ġdan": 3217, "Ġaprovech": 3218, "itantes": 3219, "ĀĀĀĀ": 3220, "Ġhon": 3221, "orta": 3222, "Ġadi": 3223, "Ġrequier": 3224, "Ġviernes": 3225, "Ġsust": 3226, "Ġlugares": 3227, "Ġcocina": 3228, "Ġgri": 3229, "Ġdesc": 3230, "ardo": 3231, "vieron": 3232, "su": 3233, "Ġpago": 3234, "Ġefectos": 3235, "Ġgo": 3236, "ĠVen": 3237, "Ġfrecu": 3238, "Ġrecibir": 3239, "Cuando": 3240, "Ã³l": 3241, "Ġtenga": 3242, "Ġ2013": 3243, "ÃŃtica": 3244, "Ġmomentos": 3245, "Ġestudiantes": 3246, "Ġmane": 3247, "Ġnar": 3248, "Ġtrabajadores": 3249, "Ġacerca": 3250, "ĠhabÃŃan": 3251, "gada": 3252, "cripciÃ³n": 3253, "Ġcompleto": 3254, "Ġcandida": 3255, "ĠprotecciÃ³n": 3256, "iere": 3257, "Ġtotalmente": 3258, "Ġdiferencia": 3259, "Ġregres": 3260, "ED": 3261, "Ġalrededor": 3262, "ĠFern": 3263, "Ġcolores": 3264, "ĠMer": 3265, "ĠanÃ¡lisis": 3266, "olver": 3267, "ĠPlan": 3268, "Ġcient": 3269, "Ġagosto": 3270, "Ġideas": 3271, "ĠsÃ¡b": 3272, "Ġpien": 3273, "Ġarch": 3274, "Ġmovimiento": 3275, "Ġrecomend": 3276, "ware": 3277, "Ãºa": 3278, "ĠDesde": 3279, "trimon": 3280, "Ã©di": 3281, "ĠYa": 3282, "partamento": 3283, "ĠcaracterÃŃsticas": 3284, "risis": 3285, "telig": 3286, "ormente": 3287, "ĠÃ©poca": 3288, "vin": 3289, "Ġvelo": 3290, "mite": 3291, "ebo": 3292, "Ãį": 3293, "Ġeduca": 3294, "15": 3295, "Ġedifici": 3296, "Ġacce": 3297, "Ġdemasiado": 3298, "uestas": 3299, "Ġaprob": 3300, "Ġcorreo": 3301, "Ġsistemas": 3302, "Ġcel": 3303, "ĠdecisiÃ³n": 3304, "Ġpresu": 3305, "itario": 3306, "ork": 3307, "Ġdesarrollar": 3308, "ĠallÃ¡": 3309, "Ġcomprom": 3310, "digo": 3311, "18": 3312, "Ġcausa": 3313, "Ġopciones": 3314, "Ġdolor": 3315, "Ġpelig": 3316, "ĠInternet": 3317, "Ġnave": 3318, "Ġnaturaleza": 3319, "Ġrelaciones": 3320, "eria": 3321, "zan": 3322, "Ġmateria": 3323, "Ġ28": 3324, "Ã¡cter": 3325, "ĠBol": 3326, "ĠHer": 3327, "tud": 3328, "Ġresist": 3329, "Ġguerra": 3330, "ear": 3331, "ĠregiÃ³n": 3332, "Ġpros": 3333, "Ġ2012": 3334, "tida": 3335, "ĠcarÃ¡cter": 3336, "ĠniÃ±o": 3337, "Ġextre": 3338, "Ġencuentran": 3339, "Ġkil": 3340, "Ġnota": 3341, "ĠMinisterio": 3342, "iga": 3343, "rismo": 3344, "Ġobst": 3345, "ĠpequeÃ±a": 3346, "ciona": 3347, "amb": 3348, "rios": 3349, "pera": 3350, "Ġbaja": 3351, "Ġand": 3352, "Ġhumanos": 3353, "Ġtampoco": 3354, "ĠtÃŃtulo": 3355, "Ġexclus": 3356, "Ġsomos": 3357, "Ġraz": 3358, "tales": 3359, "Ġvesti": 3360, "Ã¡ticos": 3361, "Ġpermitir": 3362, "ws": 3363, "ĠES": 3364, "ÃŃm": 3365, "ĠTor": 3366, "ĠPas": 3367, "Ġoriginal": 3368, "Ġsorpren": 3369, "Ġsatisf": 3370, "icaciones": 3371, "Ġ26": 3372, "Ġfabric": 3373, "Ġnorte": 3374, "Ġ27": 3375, "ĠBa": 3376, "Ġmem": 3377, "Ġmec": 3378, "eso": 3379, "Ġlibertad": 3380, "Ġfondo": 3381, "Ġpagar": 3382, "etas": 3383, "Ġrecl": 3384, "Ġcompartir": 3385, "tamos": 3386, "ĠDer": 3387, "Ġfebrero": 3388, "Ġcomida": 3389, "umen": 3390, "aya": 3391, "Ġprome": 3392, "Ġevalu": 3393, "quina": 3394, "itaciones": 3395, "Ġperder": 3396, "Ġorigen": 3397, "Ġvari": 3398, "Ġvolun": 3399, "Ġconsecu": 3400, "Ġjur": 3401, "ee": 3402, "Ġmara": 3403, "Ġllega": 3404, "ulta": 3405, "Ġayer": 3406, "Ġcompeten": 3407, "Ġentrega": 3408, "Ġaten": 3409, "tilla": 3410, "Ġsum": 3411, "Ġpers": 3412, "ogle": 3413, "ry": 3414, "Ġajust": 3415, "ĠdÃ³lares": 3416, "ĠprÃ¡ctica": 3417, "estr": 3418, "Ġvisita": 3419, "Ġcrisis": 3420, "Ġmostr": 3421, "Ġespera": 3422, "ÃŃfico": 3423, "Ġintro": 3424, "Ġmateriales": 3425, "edor": 3426, "Ġsupuesto": 3427, "Desde": 3428, "Ġdistintos": 3429, "ĠThe": 3430, "ĠcampaÃ±a": 3431, "cepciÃ³n": 3432, "Ġexperim": 3433, "ĠcreaciÃ³n": 3434, "ĠtamaÃ±o": 3435, "ĠâĢ¦": 3436, "ĠmÃ¡ximo": 3437, "Ġdomingo": 3438, "Ġevi": 3439, "diente": 3440, "Ġequ": 3441, "ultura": 3442, "Ġrelig": 3443, "Ġmundial": 3444, "Ġentender": 3445, "ĠpequeÃ±os": 3446, "--": 3447, "ĠEmp": 3448, "Ġsil": 3449, "Ġorient": 3450, "ĠtelÃ©fono": 3451, "Ġeta": 3452, "Ġpalabra": 3453, "Ġiz": 3454, "//": 3455, "AC": 3456, "iana": 3457, "Ġ198": 3458, "Ġdeja": 3459, "Ġincorpor": 3460, "cti": 3461, "tidades": 3462, "Ġantigu": 3463, "ĠJesÃºs": 3464, "Ġvie": 3465, "ĠdÃ©": 3466, "Ġsuel": 3467, "Ġpis": 3468, "Ġllamado": 3469, "Ġverano": 3470, "mbi": 3471, "Ġalumnos": 3472, "pero": 3473, "Ġsepar": 3474, "Ãºsque": 3475, "Ġdesarroll": 3476, "Ġarri": 3477, "Ġquieres": 3478, "Ġautom": 3479, "Ġconce": 3480, "taria": 3481, "rer": 3482, "ĠColombia": 3483, "Ġdorm": 3484, "tiles": 3485, "Ġprogramas": 3486, "Ġcompren": 3487, "Ġsemanas": 3488, "ĠpodÃŃa": 3489, "Ġtrabajos": 3490, "Ġautoridades": 3491, "Ġsalida": 3492, "Ġmonta": 3493, "Ġdesapar": 3494, "ĠChile": 3495, "Ġhumano": 3496, "ĠposiciÃ³n": 3497, "Ġdirectamente": 3498, "Ġdisco": 3499, "Ġzonas": 3500, "Ġherm": 3501, "Ġblo": 3502, "Ġestaban": 3503, "teriormente": 3504, "ĠSuper": 3505, "Ġtexto": 3506, "ĠTu": 3507, "Ġtro": 3508, "reno": 3509, "olÃ³gico": 3510, "estion": 3511, "ablemente": 3512, "culos": 3513, "Ġencima": 3514, "Ġprocesos": 3515, "tbol": 3516, "Ġiba": 3517, "Ġconsumo": 3518, "ĠAnton": 3519, "Ġejercicio": 3520, "Ġdefini": 3521, "ong": 3522, "ĠReal": 3523, "ĠNav": 3524, "Ġhogar": 3525, "ospital": 3526, "Ġ60": 3527, "rÃ¡n": 3528, "cito": 3529, "ĠinglÃ©s": 3530, "Ġpermit": 3531, "Ġcontrario": 3532, "ĠInternacional": 3533, "Ġcivil": 3534, "ablo": 3535, "Ġpun": 3536, "Ġpropie": 3537, "ĠAdminist": 3538, "put": 3539, "Ġimpos": 3540, "idor": 3541, "uestro": 3542, "Ġizquier": 3543, "Ġpregunta": 3544, "voca": 3545, "Ġlevan": 3546, "Ġexisten": 3547, "Ġvoz": 3548, "Ġsimplemente": 3549, "ĠsÃ¡bado": 3550, "Ġpantalla": 3551, "ph": 3552, "Ġtab": 3553, "ĠelÃ©ctr": 3554, "ĠllegÃ³": 3555, "untamiento": 3556, "alizada": 3557, "Ġconvertir": 3558, "edad": 3559, "abil": 3560, "ĠcontinuaciÃ³n": 3561, "hu": 3562, "Ġincluye": 3563, "tarÃŃa": 3564, "Ġace": 3565, "Ġtiempos": 3566, "Ġquiz": 3567, "Ġpul": 3568, "Ġlograr": 3569, "Ġprovincia": 3570, "Ġcoche": 3571, "ĠDel": 3572, "erte": 3573, "Ġbrin": 3574, "Ġdibu": 3575, "quÃ©": 3576, "don": 3577, "Ġdev": 3578, "Ġanun": 3579, "erto": 3580, "ĠPal": 3581, "dis": 3582, "iel": 3583, "Ġblanco": 3584, "ĠPu": 3585, "ĠÃ¡mbi": 3586, "ĠEN": 3587, "ribun": 3588, "torial": 3589, "Ġidentific": 3590, "AdemÃ¡s": 3591, "tios": 3592, "Ġvalores": 3593, "Ġbienes": 3594, "ĠsoluciÃ³n": 3595, "Ġclub": 3596, "ĠLib": 3597, "Ġpersonajes": 3598, "pan": 3599, "Ġinforma": 3600, "ĠtÃº": 3601, "formaciÃ³n": 3602, "Ġprovoc": 3603, "Ġllama": 3604, "Ġadelante": 3605, "Ġglo": 3606, "Ġdiferente": 3607, "Ġtir": 3608, "Ġdistintas": 3609, "Ġganar": 3610, "aco": 3611, "Ġmic": 3612, "Ġnegro": 3613, "Ġapre": 3614, "Ġindustri": 3615, "tidos": 3616, "quitec": 3617, "ĠPrim": 3618, "enos": 3619, "://": 3620, "ĠÃī": 3621, "Ġcorri": 3622, "Ġmarco": 3623, "Ar": 3624, "Ġplanta": 3625, "Ġfamos": 3626, "cidos": 3627, "tÃŃa": 3628, "Ġsuje": 3629, "dores": 3630, "Ãºtbol": 3631, "arla": 3632, "ĠMartÃŃn": 3633, "Com": 3634, "ĠbÃºsque": 3635, "lev": 3636, "dimiento": 3637, "Ġcic": 3638, "ĠpolÃŃticas": 3639, "ĠRep": 3640, "dientes": 3641, "Ġhu": 3642, "arte": 3643, "Ġaband": 3644, "Ġeurope": 3645, "leo": 3646, "Ġpocos": 3647, "Ġhistor": 3648, "rito": 3649, "ueves": 3650, "Ġideal": 3651, "ĠSocial": 3652, "ĠMay": 3653, "Ġinteresante": 3654, "Ã©tica": 3655, "ĠEducaciÃ³n": 3656, "ff": 3657, "ĠConsejo": 3658, "ebook": 3659, "uye": 3660, "ka": 3661, "Ġaprender": 3662, "Ġrendi": 3663, "Ġamigo": 3664, "Ġpartidos": 3665, "Ġasi": 3666, "ĠMas": 3667, "Ġgaranti": 3668, "Ġreferencia": 3669, "Ġlucha": 3670, "Ġhom": 3671, "ĠRa": 3672, "Ġresponsabilidad": 3673, "Ġcompeti": 3674, "ĠvÃŃcti": 3675, "Ġmilitar": 3676, "ye": 3677, "Ġmotivo": 3678, "ĠFrancis": 3679, "ĠclÃ¡s": 3680, "Ġniveles": 3681, "Ġalterna": 3682, "Ġrecuper": 3683, "Ġacto": 3684, "Ã¡ticas": 3685, "ĠAmÃ©rica": 3686, "Ġoper": 3687, "Ġmexic": 3688, "ame": 3689, "Ġobten": 3690, "Ġentrev": 3691, "Ġestrel": 3692, "Ġsuelo": 3693, "Ġconocido": 3694, "Ġpareci": 3695, "Ġintelig": 3696, "Ġdoble": 3697, "Ġlunes": 3698, "Ġescen": 3699, "Sin": 3700, "imas": 3701, "Ġinnov": 3702, "ĠgÃ©n": 3703, "Ġjugadores": 3704, "dena": 3705, "Ġ2011": 3706, "Ġtratar": 3707, "Ġrealizado": 3708, "Ġdiver": 3709, "apa": 3710, "Ġdetalles": 3711, "dicos": 3712, "ÃŃp": 3713, "ĠAhora": 3714, "Ġentrar": 3715, "Â».": 3716, "ju": 3717, "ĠocasiÃ³n": 3718, "ĠpodrÃ¡n": 3719, "Ġentorno": 3720, "Ġtipos": 3721, "cla": 3722, "Ġfamilias": 3723, "ĠUS": 3724, "Ġaproxim": 3725, "ĠpolÃŃtico": 3726, "16": 3727, "Ġnorma": 3728, "ĠInstituto": 3729, "ĠpresentaciÃ³n": 3730, "Ġmaravil": 3731, "ĠeconÃ³mica": 3732, "Ġhechos": 3733, "Ġmensaje": 3734, "RI": 3735, "isl": 3736, "Ġresulta": 3737, "mentaciÃ³n": 3738, "Ġros": 3739, "Ġcomercial": 3740, "idamente": 3741, "Ġocasiones": 3742, "estiv": 3743, "ensiÃ³n": 3744, "laz": 3745, "Ġens": 3746, "!!!": 3747, "cados": 3748, "ÃŃstico": 3749, "Ġren": 3750, "ĠMig": 3751, "Ġdem": 3752, "pectos": 3753, "entado": 3754, "genier": 3755, "Ġconoce": 3756, "Ġdec": 3757, "Ġlocales": 3758, "ĠÃ©ste": 3759, "Ġarm": 3760, "ĠAu": 3761, "lores": 3762, "Ġalimentos": 3763, "âĢ¦]": 3764, "ĠCos": 3765, "Ġsuperfici": 3766, "Ġresponsable": 3767, "mer": 3768, "ĠHab": 3769, "Ġfras": 3770, "Ġpuerta": 3771, "eÃ±o": 3772, "Ġejecu": 3773, "Ġpresentar": 3774, "Ġcome": 3775, "ismos": 3776, "Ġbuenas": 3777, "ĠeconomÃŃa": 3778, "Ġza": 3779, "ĠSecre": 3780, "Ġmarcha": 3781, "ĠMunicip": 3782, "Ġinicio": 3783, "Ġagrade": 3784, "asa": 3785, "Ġveci": 3786, "Ġconvers": 3787, "encial": 3788, "Ġadqui": 3789, "Ġmit": 3790, "ajas": 3791, "ĠrÃ©": 3792, "Ġrepresenta": 3793, "14": 3794, "didas": 3795, "ĠMundial": 3796, "Ġhermos": 3797, "Ã³nica": 3798, "Ġobjeto": 3799, "Ġtarje": 3800, "ices": 3801, "Ġviolencia": 3802, "dios": 3803, "ĠFin": 3804, "Yo": 3805, "ĠGal": 3806, "Ġtempera": 3807, "Ġhabitu": 3808, "wit": 3809, "ielo": 3810, "Ġjef": 3811, "Ġatrac": 3812, "ĠelectrÃ³nico": 3813, "Ġindependi": 3814, "ĠÃŃn": 3815, "ĠselecciÃ³n": 3816, "ĠdisposiciÃ³n": 3817, "Ġvuelta": 3818, "vado": 3819, "Ġ29": 3820, "ĠTodo": 3821, "Ġsob": 3822, "tique": 3823, "ĠinversiÃ³n": 3824, "iro": 3825, "Ġtienda": 3826, "ĠopiniÃ³n": 3827, "ĠpodrÃ¡s": 3828, "Ġinci": 3829, "Ġpronto": 3830, "sas": 3831, "edro": 3832, "oz": 3833, "fes": 3834, "Ġtransporte": 3835, "ĠSoci": 3836, "aro": 3837, "raciones": 3838, "Ġacces": 3839, "Ġdemoc": 3840, "Ġenfermedad": 3841, "orÃŃas": 3842, "ĠSeÃ±": 3843, "UN": 3844, "legio": 3845, "rag": 3846, "Ġdiv": 3847, "Ġesca": 3848, "Ġbanda": 3849, "Ġ2010": 3850, "Ġinternet": 3851, "Ġpropuesta": 3852, "Ġpresiden": 3853, "Ġconcent": 3854, "Ġestad": 3855, "Ex": 3856, "leta": 3857, "ĠcategorÃŃa": 3858, "Ġherramientas": 3859, "Ġ+": 3860, "Ġenl": 3861, "uri": 3862, "Ġcompromiso": 3863, "ĠeconÃ³mico": 3864, "ĠRepÃºblica": 3865, "Ġexcelente": 3866, "Ġaun": 3867, "teras": 3868, "Ġmaes": 3869, "itaria": 3870, "ĠAntonio": 3871, "logÃŃa": 3872, "ĠMus": 3873, "ciente": 3874, "Ġprecis": 3875, "pol": 3876, "Ġjornada": 3877, "ĠJa": 3878, "ĠDa": 3879, "Ġdesemp": 3880, "ribuciÃ³n": 3881, "Ġextran": 3882, "Ġahor": 3883, "ĠpÃ©r": 3884, "ĠEntre": 3885, "Ġcomentarios": 3886, "Ġpelo": 3887, "tarios": 3888, "Ġtaller": 3889, "iver": 3890, "Ġelegir": 3891, "ÃŃr": 3892, "ĠComisiÃ³n": 3893, "logo": 3894, "Ġsentir": 3895, "onia": 3896, "Ġdisc": 3897, "Ġsuerte": 3898, "imen": 3899, "Ġcapaz": 3900, "Ġacus": 3901, "ĠNueva": 3902, "ÃŃritu": 3903, "entales": 3904, "jero": 3905, "bia": 3906, "ello": 3907, "Ġrefle": 3908, "olÃ³gica": 3909, "ĠdÃ©c": 3910, "ĠEL": 3911, "ĠRos": 3912, "Ġnormal": 3913, "17": 3914, "Ġclave": 3915, "Ġconform": 3916, "Ġqueremos": 3917, "Ġespacios": 3918, "ĠCap": 3919, "Ġdisponible": 3920, "Ġamena": 3921, "Ġindustria": 3922, "jado": 3923, "Ã³nde": 3924, "ĠartÃŃculos": 3925, "uras": 3926, "ĠHum": 3927, "Ġrespec": 3928, "ĠImp": 3929, "enso": 3930, "Ġja": 3931, "ĠAunque": 3932, "Ġeres": 3933, "Ġescuela": 3934, "Ġprensa": 3935, "tarÃ¡": 3936, "Ġcru": 3937, "ĠFrancisco": 3938, "Ġrepro": 3939, "Ġpone": 3940, "taba": 3941, "inaria": 3942, "13": 3943, "Ġfem": 3944, "Ġoscu": 3945, "EM": 3946, "como": 3947, "Ġinteg": 3948, "drÃ¡": 3949, "Ã©st": 3950, "ĠÃº": 3951, "ĠtÃ©cnica": 3952, "25": 3953, "imismo": 3954, "Ġgobern": 3955, "ificar": 3956, "ĠbÃºsqueda": 3957, "Ġaspectos": 3958, "Ġbeneficios": 3959, "Ġpena": 3960, "Ġtoma": 3961, "izado": 3962, "Ġincon": 3963, "zada": 3964, "Ġvelocidad": 3965, "Ġmesa": 3966, "Ġobjetivos": 3967, "Ġcapaci": 3968, "amp": 3969, "Ġanimales": 3970, "xto": 3971, "??": 3972, "Ġolvid": 3973, "ĠvÃŃa": 3974, "Ġcob": 3975, "Ġmodelos": 3976, "Ġ%": 3977, "Ġinver": 3978, "ĠrÃ¡pido": 3979, "ĠSalud": 3980, "Ġdiario": 3981, "Ġdiez": 3982, "Ġmulti": 3983, "ĠbaÃ±o": 3984, "Ġpreocup": 3985, "ĠCON": 3986, "col": 3987, "Ġcompon": 3988, "Ġpreci": 3989, "Ġcompleta": 3990, "Ġocup": 3991, "Ġalmac": 3992, "Ġcentros": 3993, "Ġpropiedad": 3994, "Ġacci": 3995, "ificado": 3996, "Ġadul": 3997, "coles": 3998, "ĠÃ³r": 3999, "Ġconflic": 4000, "uniden": 4001, "iudades": 4002, "ĠJust": 4003, "ĠAnd": 4004, "Ġescribir": 4005, "Ġthe": 4006, "orge": 4007, "Ġ197": 4008, "Ġperm": 4009, "antil": 4010, "Ġinstalaciones": 4011, "quer": 4012, "itales": 4013, "ĠespaÃ±ola": 4014, "ires": 4015, "Ġfron": 4016, "ramos": 4017, "Ġsuficiente": 4018, "Â°": 4019, "Ġmitad": 4020, "aliza": 4021, "Ġestim": 4022, "ĠseÃ±or": 4023, "ezuela": 4024, "ï¿½ï¿½": 4025, "Ġpersonales": 4026, "Ġjueves": 4027, "Ġfunciones": 4028, "Ġ&": 4029, "pal": 4030, "Ġconstante": 4031, "rique": 4032, "Ġcumplir": 4033, "ĠVic": 4034, "ĠPan": 4035, "ĠMÃ¡s": 4036, "Ġinfl": 4037, "Ġlaboral": 4038, "Ġestructura": 4039, "trimonio": 4040, "dil": 4041, "Ġpruebas": 4042, "ĠtÃ©cnicas": 4043, "ĠquiÃ©n": 4044, "Que": 4045, "Ġoferta": 4046, "Ġaumento": 4047, "ĠestÃ¡s": 4048, "irmÃ³": 4049, "lesc": 4050, "viv": 4051, "ĠOl": 4052, "ienen": 4053, "pia": 4054, "Ġfol": 4055, "mentar": 4056, "Ġdific": 4057, "Ġdecor": 4058, "Ġcontenidos": 4059, "Ġabrir": 4060, "Ġporno": 4061, "Ġmiedo": 4062, "Ġcentral": 4063, "Ġtitular": 4064, "60": 4065, "Ã¡ndez": 4066, "pes": 4067, "Ġmanifes": 4068, "ĠGoogle": 4069, "Ġtre": 4070, "Su": 4071, "Ġorg": 4072, "Ġapor": 4073, "Ġcoord": 4074, "Ġotor": 4075, "viÃ³": 4076, "Ġcuidado": 4077, "Ġcuan": 4078, "Ġhid": 4079, "Ġ[âĢ¦]": 4080, "lad": 4081, "rans": 4082, "ultad": 4083, "Ġoro": 4084, "ĠDo": 4085, "Ġprac": 4086, "Ġprincipios": 4087, "Ġsegura": 4088, "Ġrece": 4089, "ĠestarÃ¡": 4090, "ĠSus": 4091, "Ġoc": 4092, "Ġestuvo": 4093, "ĠpolÃŃticos": 4094, "tiago": 4095, "Ġbuenos": 4096, "ĠDÃŃa": 4097, "SegÃºn": 4098, "Ġdicha": 4099, "Ġherman": 4100, "Ġmente": 4101, "Ġconvier": 4102, "lez": 4103, "ĠEurope": 4104, "ÃŃsimo": 4105, "Ġinstrum": 4106, "Ġcuyo": 4107, "Ġsangre": 4108, "ĠMic": 4109, "Ġquin": 4110, "Ġinforme": 4111, "Ġpacientes": 4112, "Ġdiversos": 4113, "Ġbuscando": 4114, "Ġexterior": 4115, "ĠcuestiÃ³n": 4116, "ĠMiguel": 4117, "Ġalcal": 4118, "Ġcompro": 4119, "Ġconcepto": 4120, "Ã³sito": 4121, "ĠAyuntamiento": 4122, "Ġbra": 4123, "osotros": 4124, "Pro": 4125, "Ġciudadanos": 4126, "Ġbril": 4127, "Ã©rcoles": 4128, "dado": 4129, "abe": 4130, "Ġ80": 4131, "ag": 4132, "Ġdistancia": 4133, "jeros": 4134, "Ġconfianza": 4135, "onz": 4136, "torios": 4137, "tuvo": 4138, "ĠpÃ¡ginas": 4139, "uestos": 4140, "Ġciudades": 4141, "Ġubic": 4142, "uno": 4143, "AT": 4144, "quiera": 4145, "Ġmagn": 4146, "Ġasoci": 4147, "Ġhabla": 4148, "ierto": 4149, "Ġdebemos": 4150, "ĠPedro": 4151, "ĠpublicaciÃ³n": 4152, "iles": 4153, "Ġesfuerzo": 4154, "Ġdestino": 4155, "Ġrealiza": 4156, "ĠSh": 4157, "Ġaplicaciones": 4158, "ĠGarcÃŃa": 4159, "ĠcrÃ©di": 4160, "Ġlic": 4161, "eos": 4162, "Ġconse": 4163, "Ġcirc": 4164, "ĠÃ³": 4165, "Ġmadera": 4166, "Ġep": 4167, "Ġpaz": 4168, "Ġinstituciones": 4169, "ĠdeberÃ¡": 4170, "ÃŃfica": 4171, "elas": 4172, "yas": 4173, "ĠpelÃŃculas": 4174, "Ġmunicipio": 4175, "IL": 4176, "ĠUN": 4177, "CION": 4178, "Ġmues": 4179, "ki": 4180, "toral": 4181, "Ġprove": 4182, "ĠDan": 4183, "Ġempezar": 4184, "Ġcomba": 4185, "Ġhtt": 4186, "Ġdigital": 4187, "ĠManuel": 4188, "Ġamar": 4189, "Ġconsigu": 4190, "Ġdefensa": 4191, "Ġlanz": 4192, "Ġespos": 4193, "Ġfiesta": 4194, "Ġalo": 4195, "Ġquedar": 4196, "Ġquieren": 4197, "Ġreno": 4198, "ly": 4199, "ime": 4200, "Ġempleo": 4201, "ĠkilÃ³": 4202, "Ġazul": 4203, "Ġestadouniden": 4204, "Ġsacar": 4205, "ĠatrÃ¡s": 4206, "igue": 4207, "dieron": 4208, "Ġactualmente": 4209, "ĠtÃ©cnico": 4210, "40": 4211, "rump": 4212, "Ġafir": 4213, "deral": 4214, "Ġreflex": 4215, "Ġamplia": 4216, "Ġgolpe": 4217, "ĠEj": 4218, "Ġfuente": 4219, "mail": 4220, "Â³": 4221, "Ġclases": 4222, "tantes": 4223, "ĠÃ¡reas": 4224, "Ġmag": 4225, "TambiÃ©n": 4226, "Ġul": 4227, "UE": 4228, "ĠGracias": 4229, "ĠlÃŃder": 4230, "ĠCongreso": 4231, "ĠMal": 4232, "ĠreuniÃ³n": 4233, "Ġpag": 4234, "ĠAsociaciÃ³n": 4235, "Ġperfecto": 4236, "Ġacceder": 4237, "Ġmoda": 4238, "ioso": 4239, "Ġgusto": 4240, "Ġpais": 4241, "ĠOs": 4242, "Ġderi": 4243, "Ġfres": 4244, "Ġmemoria": 4245, "Ġaltura": 4246, "ĠadministraciÃ³n": 4247, "Ġmiles": 4248, "Ġorigin": 4249, "cionados": 4250, "ftware": 4251, "cÃ³": 4252, "didos": 4253, "echas": 4254, "teles": 4255, "Ġropa": 4256, "Ġpropios": 4257, "utri": 4258, "ĠdeberÃŃa": 4259, "Ġ*": 4260, "ĠFo": 4261, "Ġcif": 4262, "Ġconex": 4263, "Ġnaturales": 4264, "Ġescrito": 4265, "jan": 4266, "Ġfortal": 4267, "Ġvino": 4268, "Ġpesos": 4269, "aremos": 4270, "ĠIglesia": 4271, "Ġnega": 4272, "Ġav": 4273, "Ġesco": 4274, "table": 4275, "teca": 4276, "guay": 4277, "Ġlog": 4278, "Ġdiversas": 4279, "Ġinternacionales": 4280, "Ġdenomin": 4281, "Ġcampe": 4282, "Ġhubiera": 4283, "Ġapenas": 4284, "Ã©tico": 4285, "rupo": 4286, "ĠcolaboraciÃ³n": 4287, "tificaciÃ³n": 4288, "ĠÃ¡mbito": 4289, "ĠgÃ©nero": 4290, "Ġchicas": 4291, "Ġimple": 4292, "ĠtelevisiÃ³n": 4293, "Ġnumeros": 4294, "Ġllamada": 4295, "Ġdismin": 4296, "roso": 4297, "Ġtradicional": 4298, "tador": 4299, "ĠCer": 4300, "ĠhabrÃ¡": 4301, "ĠmÃ©dico": 4302, "SO": 4303, "estival": 4304, "Ġdarle": 4305, "Ġdura": 4306, "Ġentidad": 4307, "Ġton": 4308, "Ġempren": 4309, "ĠBen": 4310, "Ġetapa": 4311, "Ġvisitar": 4312, "ĠLi": 4313, "Ãģ": 4314, "Ġchica": 4315, "ĠvisiÃ³n": 4316, "uelas": 4317, "CÃ³mo": 4318, "Ġfuncionamiento": 4319, "ĠRey": 4320, "ĠÃ¡r": 4321, "Ġech": 4322, "itud": 4323, "ites": 4324, "Ġpersonaje": 4325, "Ġunidad": 4326, "grama": 4327, "Ġperiodi": 4328, "ĠâĢ¢": 4329, "Ġconfigu": 4330, "ĠpÃºblicos": 4331, "ĠVenezuela": 4332, "Ġmotor": 4333, "Â»,": 4334, "ĠII": 4335, "gust": 4336, "Ġclic": 4337, "dencias": 4338, "ix": 4339, "Ġinvestig": 4340, "Ġ31": 4341, "Ġescol": 4342, "Ġdando": 4343, "ĠCasa": 4344, "teros": 4345, "ĠsÃŃn": 4346, "Ġpudo": 4347, "ĠDesarrol": 4348, "keting": 4349, "Ġsiete": 4350, "Ġhaga": 4351, "Ġinmedia": 4352, "ĠtÃ©rminos": 4353, "Ġcultural": 4354, "quilib": 4355, "Ġdescan": 4356, "Ġcarre": 4357, "inci": 4358, "Ġfigura": 4359, "Ġperfil": 4360, "cam": 4361, "ĠPos": 4362, "Ġprogram": 4363, "Ġzapa": 4364, "uegos": 4365, "Ġcompletamente": 4366, "Ġtorn": 4367, "ombi": 4368, "Ġarriba": 4369, "ht": 4370, "Ġaspecto": 4371, "tron": 4372, "triz": 4373, "adÃ©m": 4374, "Ġproduci": 4375, "rasil": 4376, "Ġinfer": 4377, "ĠcomenzÃ³": 4378, "Ġnegocios": 4379, "puestos": 4380, "isa": 4381, "dem": 4382, "ĠHe": 4383, "Le": 4384, "ĠSeguridad": 4385, "ÃŃficos": 4386, "ĠÂ·": 4387, "Ġasum": 4388, "ĠfÃºtbol": 4389, "Ġcontrato": 4390, "ĠĠ": 4391, "ĠMujer": 4392, "Ġequiv": 4393, "Ġejec": 4394, "Ġresiden": 4395, "ecÃŃa": 4396, "Ġarquitec": 4397, "iales": 4398, "Ġtercer": 4399, "ĠtrÃ¡": 4400, "Ġargu": 4401, "Ġganas": 4402, "ĠVe": 4403, "Ġfuego": 4404, "ĠMuch": 4405, "ribunal": 4406, "Ġeventos": 4407, "ĠÂ»": 4408, "ĠGonz": 4409, "bilidad": 4410, "Ġfundamental": 4411, "Ġmartes": 4412, "Ġteniendo": 4413, "IT": 4414, "Ã¡st": 4415, "Ġlengu": 4416, "Ġdicen": 4417, "ðŁ": 4418, "24": 4419, "Ġrecha": 4420, "Ġdemanda": 4421, "Ġplataforma": 4422, "ĠÃ©sta": 4423, "Ġcalles": 4424, "capa": 4425, "MÃ¡s": 4426, "Ġcomunic": 4427, "Ġllegado": 4428, "anÃŃa": 4429, "Ġperiodo": 4430, "Ġarro": 4431, "Ġcuya": 4432, "guez": 4433, "Ġanteriores": 4434, "mitir": 4435, "Ġpreguntas": 4436, "deres": 4437, "Ġcuarto": 4438, "Ġprofesor": 4439, "UR": 4440, "ĠConstitu": 4441, "ĠXX": 4442, "witter": 4443, "Ġmostrar": 4444, "Ġcircun": 4445, "Ġactualidad": 4446, "Ġesperar": 4447, "Ġ90": 4448, "Ġnie": 4449, "riendo": 4450, "Ġaparece": 4451, "MA": 4452, "trol": 4453, "Ġcorre": 4454, "ĠPablo": 4455, "Ġcualquiera": 4456, "Ġutiliza": 4457, "Ġcontemp": 4458, "Ġimpacto": 4459, "Ġmismas": 4460, "Ġsosten": 4461, "ĠmiÃ©rcoles": 4462, "Ġorganizaciones": 4463, "Ġtesti": 4464, "UL": 4465, "Ġocu": 4466, "Ġradio": 4467, "Ġras": 4468, "Ġpsic": 4469, "crip": 4470, "tienen": 4471, "Ġavent": 4472, "ĠSantiago": 4473, "Ġmarcas": 4474, "lamento": 4475, "Ġsala": 4476, "Ġcarga": 4477, "Ġce": 4478, "Ġgenera": 4479, "Ġterritorio": 4480, "Ġtales": 4481, "ense": 4482, "Ġadolesc": 4483, "ance": 4484, "Ġlejos": 4485, "Ġderecha": 4486, "AsÃŃ": 4487, "gÃ¼": 4488, "Ġprefer": 4489, "Hay": 4490, "ĠTodos": 4491, "ĠÃ¡n": 4492, "ĠCatal": 4493, "ity": 4494, "ulado": 4495, "Ġpedir": 4496, "Ġaceite": 4497, "Ġintent": 4498, "istema": 4499, "Ġinvit": 4500, "Ġprimeras": 4501, "Ġ2009": 4502, "yos": 4503, "dÃ³": 4504, "ĠFund": 4505, "arca": 4506, "IO": 4507, "ĠBel": 4508, "didad": 4509, "Te": 4510, "Ġalcanzar": 4511, "vas": 4512, "iados": 4513, "rup": 4514, "Ġflu": 4515, "Ġtranquil": 4516, "usa": 4517, "Ġinc": 4518, "Ġconvir": 4519, "Ġrevis": 4520, "ins": 4521, "Ġsituaciones": 4522, "ĠSE": 4523, "Ãī": 4524, "ĠgeneraciÃ³n": 4525, "leza": 4526, "ĠjurÃŃ": 4527, "22": 4528, "Ġiniciativa": 4529, "amo": 4530, "ĠEdi": 4531, "Ġtrabajando": 4532, "Ġfer": 4533, "Ġimper": 4534, "Ġcm": 4535, "Ã³pez": 4536, "ĠSur": 4537, "poner": 4538, "pora": 4539, "Ġbur": 4540, "Ġsitios": 4541, "ĠDon": 4542, "ĠAt": 4543, "Ġizquierda": 4544, "iblio": 4545, "Ġgrave": 4546, "rÃ³n": 4547, "Ġpiezas": 4548, "amor": 4549, "ĠEcon": 4550, "Ġestrategia": 4551, "Ġabandon": 4552, "ĠperÃŃo": 4553, "____": 4554, "ĠdiÃ¡": 4555, "ĠRob": 4556, "Ġambient": 4557, "Ġrepe": 4558, "dizaje": 4559, "US": 4560, "ĠEspaÃ±": 4561, "ĠHoy": 4562, "Ġplaya": 4563, "ĠTrans": 4564, "Ġderro": 4565, "dÃŃ": 4566, "gimen": 4567, "estruc": 4568, "Ġelecciones": 4569, "Ġjard": 4570, "ĠquerÃŃa": 4571, "Ġpeor": 4572, "ĠDespuÃ©s": 4573, "Ġsabemos": 4574, "villa": 4575, "Ġintereses": 4576, "Ya": 4577, "ender": 4578, "Ġsola": 4579, "ĠFrancia": 4580, "Ġedificio": 4581, "ĠEE": 4582, "Ġrequiere": 4583, "Ġdescargar": 4584, "ciar": 4585, "ĠvÃŃdeo": 4586, "âĤ¬": 4587, "Ġanal": 4588, "ĠmÃŃnimo": 4589, "acho": 4590, "Ġconocimientos": 4591, "Ġfamiliares": 4592, "ĠWeb": 4593, "Ġjusticia": 4594, "ĠTh": 4595, "Ġjusto": 4596, "Ġgrado": 4597, "Ġplantas": 4598, "Ġadop": 4599, "Ġdisponibles": 4600, "Ġbara": 4601, "Ġocul": 4602, "Ġrode": 4603, "mÃ¡n": 4604, "Ġtamb": 4605, "ĠhabitaciÃ³n": 4606, "Ġenorme": 4607, "Ġalmacen": 4608, "ĠChina": 4609, "Ġtercera": 4610, "Ġcomenz": 4611, "Ġboca": 4612, "Ġdocumento": 4613, "Ġaquella": 4614, "ĠCab": 4615, "Ġbloque": 4616, "AP": 4617, "Ġalguno": 4618, "san": 4619, "Ġsolamente": 4620, "Ġventas": 4621, "Ġpresupuesto": 4622, "Ġdetec": 4623, "tillas": 4624, "Ġindividu": 4625, "Ġdeten": 4626, "ĠkilÃ³metros": 4627, "Ġreducir": 4628, "Ġsoluciones": 4629, "Ġsel": 4630, "ĠpresiÃ³n": 4631, "ĠgrÃ¡": 4632, "inario": 4633, "Ġexistencia": 4634, "cipl": 4635, "Ġmala": 4636, "Ġposibilidades": 4637, "Ġacog": 4638, "Ġfinales": 4639, "ĠFu": 4640, "mina": 4641, "ĠPat": 4642, "Ġadministra": 4643, "Ġnovela": 4644, "ĠMedi": 4645, "Ġvariedad": 4646, "Buen": 4647, "ky": 4648, "Ġpiedra": 4649, "Ġ70": 4650, "ond": 4651, "ĠAut": 4652, "Ġrecordar": 4653, "Ġhija": 4654, "Ġrequis": 4655, "Ġbre": 4656, "Ġtengan": 4657, "gÃ³": 4658, "ĠdÃ³nde": 4659, "ologÃŃas": 4660, "Ã¡is": 4661, "Ġhicieron": 4662, "Ġcompetencia": 4663, "ĠOfici": 4664, "edores": 4665, "iamente": 4666, "gal": 4667, "iores": 4668, "Ġcomplic": 4669, "Ġgras": 4670, "Ġdudas": 4671, "iempre": 4672, "arnos": 4673, "Ġmantenimiento": 4674, "âĢĭ": 4675, "ĠLÃ³pez": 4676, "Ġrit": 4677, "Ġvecinos": 4678, "Ġpuertas": 4679, "Ġpec": 4680, "Ġluc": 4681, "fon": 4682, "Ġdecisiones": 4683, "Ġfirm": 4684, "Ġmodific": 4685, "Ġfas": 4686, "ĠRam": 4687, "Ġimpuls": 4688, "Ġfuerzas": 4689, "ivas": 4690, "Ġlarga": 4691, "Ġconsecuencia": 4692, "Ġentra": 4693, "ull": 4694, "Ġ35": 4695, "tillo": 4696, "Ġ2008": 4697, "Ġ>": 4698, "Ġregal": 4699, "Ġdue": 4700, "ĠÃºltimas": 4701, "Ġsalv": 4702, "yÃ³": 4703, "Ġespeciales": 4704, "ĠAires": 4705, "Ġcomport": 4706, "ĠBuenos": 4707, "ses": 4708, "trÃ³": 4709, "ticamente": 4710, "uta": 4711, "Ġnormas": 4712, "ĠComer": 4713, "Ġhuman": 4714, "Ġexplica": 4715, "Ġencanta": 4716, "blos": 4717, "eles": 4718, "ĠdejÃ³": 4719, "Ten": 4720, "Ġcomprome": 4721, "ĠexposiciÃ³n": 4722, "Ġtriun": 4723, "udicial": 4724, "Ġlectura": 4725, "Ġllu": 4726, "Ġmone": 4727, "ĠlÃŃneas": 4728, "Ġabog": 4729, "tus": 4730, "ang": 4731, "Ġobstante": 4732, "ÃŃtulos": 4733, "ty": 4734, "Ġrevel": 4735, "use": 4736, "Ġcasas": 4737, "Ġmejora": 4738, "ĠFacebook": 4739, "ĠsueÃ±o": 4740, "ĠcompaÃ±eros": 4741, "illos": 4742, "Ġido": 4743, "Ġnoticias": 4744, "ker": 4745, "Ġterror": 4746, "Ġherramienta": 4747, "Ġsexual": 4748, "UU": 4749, "Ġcita": 4750, "ave": 4751, "Ġpasos": 4752, "eche": 4753, "ĠInv": 4754, "Ġconoc": 4755, "ĠDesarrollo": 4756, "Ġgrab": 4757, "Ġcumple": 4758, "ĠBus": 4759, "ĠcrÃŃt": 4760, "ĠClub": 4761, "ĠNos": 4762, "ĠCuba": 4763, "Ġocho": 4764, "Ġsustitu": 4765, "ĠvehÃŃculos": 4766, "ÃŃda": 4767, "bla": 4768, "Ġjugador": 4769, "Ġfinalmente": 4770, "Ġacum": 4771, "uebles": 4772, "ĠBlan": 4773, "ĠhacÃŃa": 4774, "Ġestan": 4775, "cimientos": 4776, "iero": 4777, "hn": 4778, "Ìģ": 4779, "Ġmam": 4780, "Ġabor": 4781, "Ġpobre": 4782, "Ġmeta": 4783, "chas": 4784, "Ġtritur": 4785, "Ġcarta": 4786, "Ġdirecto": 4787, "Ġdespe": 4788, "ĠfÃŃsica": 4789, "ĠValencia": 4790, "Ġefica": 4791, "ĠBer": 4792, "Ġment": 4793, "Ġvincul": 4794, "Po": 4795, "Ġvivienda": 4796, "Ġdigo": 4797, "ĠEso": 4798, "ĠPresidente": 4799, "ĠsesiÃ³n": 4800, "Ġalquil": 4801, "ĠinstalaciÃ³n": 4802, "ĠresoluciÃ³n": 4803, "Ġvacaciones": 4804, "ko": 4805, "Ġposibles": 4806, "Ġrespeto": 4807, "Ġtes": 4808, "Ġpublicado": 4809, "Ġran": 4810, "Ġescenario": 4811, "Ġvivo": 4812, "Res": 4813, "23": 4814, "Ġequip": 4815, "ĠHist": 4816, "Ġespecie": 4817, "Ġjefe": 4818, "Ġkm": 4819, "ĠBl": 4820, "icciÃ³n": 4821, "alizados": 4822, "mania": 4823, "ĠÃģn": 4824, "Hoy": 4825, "Ġsome": 4826, "ĠSeÃ±or": 4827, "uf": 4828, "ĠUniÃ³n": 4829, "ĠBrasil": 4830, "Ġapun": 4831, "Ġcatal": 4832, "Ġfuentes": 4833, "ĠEstudi": 4834, "ĠquedÃ³": 4835, "Ġescal": 4836, "fÃŃa": 4837, "Ġestablecer": 4838, "Ġano": 4839, "ks": 4840, "ĠvehÃŃculo": 4841, "ĠCre": 4842, "Ġexac": 4843, "Ġescuchar": 4844, "80": 4845, "Ġcuentas": 4846, "Ġhabitaciones": 4847, "ĠcÃ¡mara": 4848, "Ġprom": 4849, "Ġaquellas": 4850, "Ġfirma": 4851, "rador": 4852, "iosa": 4853, "Ġvideos": 4854, "Ġsede": 4855, "ĠPerÃº": 4856, "Ġfiscal": 4857, "tig": 4858, "Ġexter": 4859, "ĠmÃ¡xima": 4860, "Ġverde": 4861, "indo": 4862, "Ġsomb": 4863, "cÃ©s": 4864, "ples": 4865, "Ġgenerar": 4866, "Ġexplo": 4867, "Ġrelev": 4868, "Ġavis": 4869, "Ġmicro": 4870, "ĠGrupo": 4871, "ĠRev": 4872, "cida": 4873, "Ġfines": 4874, "ĠpodrÃŃan": 4875, "tumb": 4876, "ĠhabrÃŃa": 4877, "Ġsectores": 4878, "Ġenfrent": 4879, "iego": 4880, "dÃ³n": 4881, "ficaciones": 4882, "ĠDav": 4883, "Ġsuperficie": 4884, "Ġidi": 4885, "Ġministro": 4886, "Ġartes": 4887, "Ġpris": 4888, "Ġdich": 4889, "ive": 4890, "ĠacadÃ©m": 4891, "Durante": 4892, "Ġprostitu": 4893, "ĠTa": 4894, "Ġga": 4895, "Ġpodido": 4896, "ĠpequeÃ±as": 4897, "ĠFue": 4898, "Ġsuele": 4899, "Ġpropias": 4900, "Ġvisit": 4901, "chez": 4902, "Ġbarrio": 4903, "rupciÃ³n": 4904, "Ġretir": 4905, "org": 4906, "Ġllegada": 4907, "Ġproduce": 4908, "ĠCruz": 4909, "ĠJav": 4910, "Ġdeseo": 4911, "Ġdomici": 4912, "Ġunidades": 4913, "Ġmenores": 4914, "ĠprÃ¡cticas": 4915, "ĠFer": 4916, "Ġfen": 4917, "Ġsencillo": 4918, "ĠNic": 4919, "Ġplaza": 4920, "Ġges": 4921, "Ġveo": 4922, "Ġcorte": 4923, "Ġrendimiento": 4924, "edes": 4925, "Ġhumana": 4926, "eran": 4927, "ĠharÃ¡": 4928, "ĠEmpres": 4929, "ĠcolecciÃ³n": 4930, "Ġcerc": 4931, "Ġsupone": 4932, "letas": 4933, "tismo": 4934, "Ġabajo": 4935, "ĠrealizÃ³": 4936, "Ġintentar": 4937, "Ġfeliz": 4938, "Ġregistro": 4939, "ieran": 4940, "ĠincreÃŃ": 4941, "uncia": 4942, "uencias": 4943, "Ġresolver": 4944, "Ġsale": 4945, "plic": 4946, "Ġembara": 4947, "Ġexperiencias": 4948, "erop": 4949, "fin": 4950, "Ġagreg": 4951, "Ġtraduc": 4952, "ĠEstos": 4953, "ĠYork": 4954, "racia": 4955, "Ġregular": 4956, "Ġagre": 4957, "Ġrequer": 4958, "puestas": 4959, "Ġdiput": 4960, "ĠsecciÃ³n": 4961, "ĠpasÃ³": 4962, "gaciones": 4963, "Ġsimilar": 4964, "amble": 4965, "âĢ¢": 4966, "Ġcriter": 4967, "anzas": 4968, "ĠCada": 4969, "ĠBe": 4970, "Ġrue": 4971, "Ġpremio": 4972, "Ġentidades": 4973, "Ġcalor": 4974, "Ġrestau": 4975, "Ġciencia": 4976, "deraciÃ³n": 4977, "Ġimposible": 4978, "fÃ©": 4979, "ĠDirecciÃ³n": 4980, "99": 4981, "Ġprincipalmente": 4982, "ĠEm": 4983, "Ġrepor": 4984, "venida": 4985, "Ġrey": 4986, "Ġexcep": 4987, "Ġenfermedades": 4988, "Ġsoftware": 4989, "Ġreac": 4990, "Ġcereb": 4991, "Ġespero": 4992, "Ġbelleza": 4993, "anda": 4994, "ĠFis": 4995, "deros": 4996, "Ġabsolu": 4997, "onda": 4998, "Ġcircunst": 4999, "ĠAg": 5000, "ĠRus": 5001, "ĠpÃ©rdida": 5002, "igu": 5003, "Ġpedido": 5004, "onato": 5005, "Ġerror": 5006, "Ġdocumentos": 5007, "jor": 5008, "ĠcÃ¡n": 5009, "Ġambas": 5010, "Ġaprendizaje": 5011, "ĠoperaciÃ³n": 5012, "Ġtransform": 5013, "ĠPolicÃŃa": 5014, "ĠFundaciÃ³n": 5015, ".âĢĿ": 5016, "Ġargent": 5017, "Ġmaravillos": 5018, "vel": 5019, "Ġcanciones": 5020, "Ġabierto": 5021, "viamente": 5022, "Ġcomenzar": 5023, "ĠDomin": 5024, "ĠmÃºlti": 5025, "udas": 5026, "Ġsiguen": 5027, "Ġtemperatura": 5028, "ilares": 5029, "torias": 5030, "Ġcoinci": 5031, "reras": 5032, "ĠseÃ±alÃ³": 5033, "Ġagrad": 5034, "ĠHu": 5035, "Ġvictoria": 5036, "bra": 5037, "ĠElec": 5038, "Ġverdadera": 5039, "Ġmecan": 5040, "Ġcama": 5041, "Ġhubo": 5042, "Ġdeporte": 5043, "Ġofertas": 5044, "Ġdebes": 5045, "ICA": 5046, "Ġingresos": 5047, "Ġlocalidad": 5048, "ĠpolicÃŃa": 5049, "Ġpermiten": 5050, "Ġvuelve": 5051, "ĠVir": 5052, "Ġrazones": 5053, "arle": 5054, "Ġoperaciones": 5055, "ĠCivil": 5056, "ĠTri": 5057, "ÃŃguez": 5058, "Ġparticipantes": 5059, "Ġsiquiera": 5060, "ĠtenÃŃan": 5061, "ĠRom": 5062, "fre": 5063, "ĠÃ¡rbol": 5064, "):": 5065, "Ġnomb": 5066, "VA": 5067, "Ġhar": 5068, "ĠNorte": 5069, "len": 5070, "Ġdep": 5071, "Ġequilib": 5072, "Ġcomerciales": 5073, "Ġlegal": 5074, "ianos": 5075, "Ġdesaf": 5076, "Ġisla": 5077, "inados": 5078, "Ġfunciona": 5079, "Ã¡nd": 5080, "itÃ©": 5081, "ĠAdministraciÃ³n": 5082, "Ġdesper": 5083, "Ġtej": 5084, "Ġnacionales": 5085, "drÃŃguez": 5086, "Ġfactores": 5087, "rales": 5088, "Ġcomunidades": 5089, "ĠdetrÃ¡s": 5090, "ĠDu": 5091, "eÃ±": 5092, "tem": 5093, "ĠperÃŃodo": 5094, "Ġparecer": 5095, "Ġconsol": 5096, "dust": 5097, "ĠOrgan": 5098, "Ġrecorrido": 5099, "Ġtraslad": 5100, "Ġgastos": 5101, "Ġprobar": 5102, "Ġruta": 5103, "Ġaumentar": 5104, "ĠelecciÃ³n": 5105, "ĠllevÃ³": 5106, "vera": 5107, "Ġaper": 5108, "Ġcomentario": 5109, "Ġjam": 5110, "Ġcorrespondiente": 5111, "Ġdul": 5112, "ĠBal": 5113, "Ġtiendas": 5114, "Ġsorpres": 5115, "Ġartistas": 5116, "CO": 5117, "metro": 5118, "Ġcoo": 5119, "Ġcompos": 5120, "eca": 5121, "ĠsensaciÃ³n": 5122, "iaciÃ³n": 5123, "lÃŃ": 5124, "ĠMac": 5125, "ĠinformÃ³": 5126, ");": 5127, "ET": 5128, "ivamente": 5129, "Ġcomerci": 5130, "ĠNi": 5131, "Ġmunicipal": 5132, "LA": 5133, "ĠNO": 5134, "Ġaus": 5135, "Ġcomienza": 5136, "Ġurb": 5137, "Ġfase": 5138, "raz": 5139, "ĠTele": 5140, "isiones": 5141, "arme": 5142, "idez": 5143, "oque": 5144, "hib": 5145, "Ġsonido": 5146, "Ġcomercio": 5147, "ĠPrem": 5148, "Ġses": 5149, "Ġital": 5150, "quilla": 5151, "Ġpropuestas": 5152, "ĠespÃŃritu": 5153, "Ġfalle": 5154, "Ġincluyendo": 5155, "idar": 5156, "Ġhayan": 5157, "Ġdivi": 5158, "ĠSegÃºn": 5159, "ĠrÃ©gimen": 5160, "Tras": 5161, "Ġconsulta": 5162, "Ġnoticia": 5163, "Ġconstruir": 5164, "ĠcondiciÃ³n": 5165, "pr": 5166, "itarios": 5167, "Ġnecesit": 5168, "ĠpÃºblicas": 5169, "Ġcorto": 5170, "wn": 5171, "Ġpiso": 5172, "Ġofrecen": 5173, "Âª": 5174, "tigo": 5175, "Ġintens": 5176, "gamos": 5177, "ĠestÃ©n": 5178, "Ġencontramos": 5179, "king": 5180, "Ġfar": 5181, "inta": 5182, "ĠJusticia": 5183, "ierta": 5184, "Ã©ndose": 5185, "Ã¡nica": 5186, "ĠEspe": 5187, "ĠServicio": 5188, "ribuy": 5189, "Ġrecog": 5190, "Ġalma": 5191, "Ġpueblos": 5192, "gados": 5193, "ĠTras": 5194, "Ġexpertos": 5195, "eral": 5196, "Ġmanda": 5197, "talia": 5198, "Ġrevista": 5199, "Ġcumplimiento": 5200, "ĠexpresiÃ³n": 5201, "ĠcÃ³digo": 5202, "Ġdim": 5203, "Ġvive": 5204, "olÃ³gicos": 5205, "Ġpresentes": 5206, "Ġaproximadamente": 5207, "tima": 5208, "ĠrÃŃo": 5209, "Ġpic": 5210, "Ġataque": 5211, "Ġidentidad": 5212, "45": 5213, "amento": 5214, "ore": 5215, "venir": 5216, "Ġformato": 5217, "Ġhal": 5218, "stru": 5219, "ĠPuerto": 5220, "Ġhermano": 5221, "iendas": 5222, "Ch": 5223, "Ã¡nchez": 5224, "Ġmantiene": 5225, "Ġdispar": 5226, "Ġjuntos": 5227, "ĠFel": 5228, "Ġmarc": 5229, "uÃ±a": 5230, "ĠPP": 5231, "ĠRodrÃŃguez": 5232, "ĠProvin": 5233, "Ã¡lez": 5234, "grafÃŃas": 5235, "Ġreconocimiento": 5236, "Ġinflu": 5237, "Ġast": 5238, "enes": 5239, "Ahora": 5240, "Ġtarea": 5241, "udos": 5242, "arial": 5243, "Ġec": 5244, "adio": 5245, "Ġterminar": 5246, "ĠPÃºbl": 5247, "Ġpies": 5248, "Ġenem": 5249, "augu": 5250, "ds": 5251, "crib": 5252, "Ã©ndo": 5253, "Ġgarantizar": 5254, "Ġcarne": 5255, "ĠPerson": 5256, "ĠCristo": 5257, "Ġentrevista": 5258, "ĠdistribuciÃ³n": 5259, "ĠInf": 5260, "rael": 5261, "Ġdelante": 5262, "Ġindica": 5263, "Ġdeclara": 5264, "Ġplanes": 5265, "Ġdispositivos": 5266, "ude": 5267, "ĠtÃ©rmino": 5268, "ĠÃģngel": 5269, "Ġtren": 5270, "Ġbomb": 5271, "ĠUr": 5272, "ĠJorge": 5273, "IM": 5274, "Ġnutri": 5275, "Ġritmo": 5276, "CA": 5277, "deras": 5278, "Ġinaugu": 5279, "iri": 5280, "int": 5281, "Ġhistorias": 5282, "Ġacos": 5283, "ĠmÃ©todo": 5284, "Ġactos": 5285, "Ġartista": 5286, "Ġhabitantes": 5287, "Ġdenunci": 5288, "tista": 5289, "ĠcanciÃ³n": 5290, "Ġdescubrir": 5291, "Ġconsec": 5292, "Ġfemen": 5293, "Ġcielo": 5294, "Ġadultos": 5295, "ĠintenciÃ³n": 5296, "Ġfondos": 5297, "pens": 5298, "up": 5299, "Ġprior": 5300, "ĠgustarÃŃa": 5301, "ĀĀĀĀĀĀĀĀ": 5302, "Ġoportunidades": 5303, "ĠvÃŃctimas": 5304, "Ġrum": 5305, "Ġduro": 5306, "Ġelev": 5307, "ĠPorque": 5308, "ĠProfes": 5309, "raestruc": 5310, "Ġrecuerdo": 5311, "Aunque": 5312, "Ġrelacionados": 5313, "Ġconvertido": 5314, "isla": 5315, "ÃŃgen": 5316, "Ġilum": 5317, "Ġsilen": 5318, "Ġigu": 5319, "Entre": 5320, "ĠMil": 5321, "ĠexplicÃ³": 5322, "Ġcontexto": 5323, "PA": 5324, "arlos": 5325, "Ġobjetos": 5326, "ĠJun": 5327, "Ġdejado": 5328, "estre": 5329, "Ġsurg": 5330, "todos": 5331, "Ġempleados": 5332, "cionamiento": 5333, "ĠPl": 5334, "Ġocurre": 5335, "Ġprivado": 5336, "Ġaloj": 5337, "Ġrecibido": 5338, "Ġcursos": 5339, "Ġdebate": 5340, "Ġmiembro": 5341, "ĠprÃ³xima": 5342, "Ġcrim": 5343, "Ġparque": 5344, "Ġcosto": 5345, "trado": 5346, "gencias": 5347, "ficiencia": 5348, "ezol": 5349, "Ġmirada": 5350, "ĠEscuela": 5351, "ĠRed": 5352, "ĠAlgun": 5353, "ĠrÃ¡pida": 5354, "Ġpreocu": 5355, "Ġgar": 5356, "Ġenter": 5357, "Ġliter": 5358, "oluc": 5359, "Ġseres": 5360, "Ġremo": 5361, "Ġglobal": 5362, "acas": 5363, "Ġpasando": 5364, "Ġcaja": 5365, "Ġoficina": 5366, "teratura": 5367, "Ġtarjeta": 5368, "Ġjuicio": 5369, "Ġustedes": 5370, "ĠSec": 5371, "Ġ45": 5372, "Ġobliga": 5373, "Ġescena": 5374, "ĠSÃ¡nchez": 5375, "ĠconexiÃ³n": 5376, "ĠOn": 5377, "ucÃŃa": 5378, "ĠFernando": 5379, "Ġperspec": 5380, "Ġpotencial": 5381, "Ġsirve": 5382, "Ġarmas": 5383, "Ġcircul": 5384, "Ġdebajo": 5385, "ĠperiÃ³": 5386, "21": 5387, "ĠGonzÃ¡lez": 5388, "lano": 5389, "olucion": 5390, "ĠDEL": 5391, "estas": 5392, "deos": 5393, "ĠintervenciÃ³n": 5394, "Ġcreado": 5395, "ÃŃz": 5396, "Ġenlace": 5397, "Ġconciencia": 5398, "Gra": 5399, "ĠSevilla": 5400, "Ġ2007": 5401, "Ġ500": 5402, "ĠSil": 5403, "ticias": 5404, "yecto": 5405, "Ã¡mica": 5406, "Ġterreno": 5407, "ĠAlemania": 5408, "Ġacre": 5409, "Ġcolombi": 5410, "Â«": 5411, "Ġdirecta": 5412, ".)": 5413, "Ġadelan": 5414, "**": 5415, "Ġtambien": 5416, "ĠAz": 5417, "timos": 5418, "ĠServicios": 5419, "Ġformul": 5420, "Ġdetalle": 5421, "Ġcontras": 5422, "ĠTV": 5423, "ĠespaÃ±oles": 5424, "Ġdispositivo": 5425, "ipe": 5426, "Ġpaciente": 5427, "ĠLeÃ³n": 5428, "ĠinstituciÃ³n": 5429, "eÃ±a": 5430, "Ġpractic": 5431, "Ġ@": 5432, "Ġrol": 5433, "berto": 5434, "ĠdaÃ±o": 5435, "Ġdistribu": 5436, "Ġprima": 5437, "Ġilust": 5438, "tible": 5439, "ultades": 5440, "Ġpublicidad": 5441, "Ġrenov": 5442, "Ġpele": 5443, "Ġpuso": 5444, "usiones": 5445, "ĠDavid": 5446, "Ġestadounidense": 5447, "Ġvoluntad": 5448, "Ġbio": 5449, "xo": 5450, "radas": 5451, "ĠÐ": 5452, "Ġimporta": 5453, "ĠIncl": 5454, "Ġcontiene": 5455, "Ġpat": 5456, "amentos": 5457, "Ġmezcla": 5458, "tÃŃculo": 5459, "Ġconfirm": 5460, "Ġtendencia": 5461, "www": 5462, "ĠtÃŃp": 5463, "VI": 5464, "Ġleche": 5465, "rores": 5466, "ĠcrÃ©dito": 5467, "Ġmusical": 5468, "Ġlimpieza": 5469, "ĠComunidad": 5470, "Ġrojo": 5471, "Ġpasada": 5472, "Ġ196": 5473, "Ġespecta": 5474, "Ġproteger": 5475, "Ġase": 5476, "Ġvoc": 5477, "Ġleyendo": 5478, "utbol": 5479, "orios": 5480, "ĠpropÃ³sito": 5481, "Ġnecesaria": 5482, "aa": 5483, "Ġcadena": 5484, "Ġconden": 5485, "rano": 5486, "ĠSam": 5487, "Ġcertific": 5488, "Ġeliminar": 5489, "Ġpendi": 5490, "Ġsabor": 5491, "ĠPen": 5492, "Ġreclam": 5493, "Ġleyes": 5494, "ĠquizÃ¡s": 5495, "Ġgama": 5496, "Ġpref": 5497, "ade": 5498, "Ġexam": 5499, "erdo": 5500, "Ġpase": 5501, "BA": 5502, "ĠhistÃ³rico": 5503, "Ġbi": 5504, "ĠJunta": 5505, "tidas": 5506, "uelos": 5507, "ĠDepor": 5508, "Ġconvoca": 5509, "ĠLuego": 5510, "Ġalegr": 5511, "27": 5512, "ĠAquÃŃ": 5513, "ciaciones": 5514, "ĠlÃ³g": 5515, "Ġbreve": 5516, "Ġvolumen": 5517, "Ġresistencia": 5518, "indows": 5519, "Ġcoti": 5520, "ienes": 5521, "cÃ³n": 5522, "Ġmencion": 5523, "Ġsupon": 5524, "Ġvender": 5525, "Ġsaben": 5526, "Ġprecisamente": 5527, "ash": 5528, "Ġcierre": 5529, "ĠSem": 5530, "Ġ=": 5531, "Ġhermanos": 5532, "Ġdro": 5533, "Ġtareas": 5534, "Ġproducir": 5535, "ĠcÃ¡l": 5536, "Ġlegisl": 5537, "Ġimpresion": 5538, "Ġcanal": 5539, "Ġreforma": 5540, "Ġestren": 5541, "Ġllevan": 5542, "Ġorganismo": 5543, "estiones": 5544, "Ġsuma": 5545, "ella": 5546, "ĠOri": 5547, "Ġquedan": 5548, "misiÃ³n": 5549, "Ġvemos": 5550, "Ġpose": 5551, "Ġmensajes": 5552, "quinas": 5553, "Ġprocedimiento": 5554, "Ġciclo": 5555, "Ġpocas": 5556, "Ġagres": 5557, "ulares": 5558, "ĠPon": 5559, "Ġtorno": 5560, "ĠfÃŃsico": 5561, "ĠPartido": 5562, "Ġreconocer": 5563, "Ġintegra": 5564, "26": 5565, "rarse": 5566, "Ġhttp": 5567, "Ġdepartamento": 5568, "we": 5569, "ĠmÃºltiples": 5570, "Ġamplio": 5571, "Ã©rcito": 5572, "Ġbici": 5573, "ĠclÃŃn": 5574, "ĠpromociÃ³n": 5575, "Ġacudi": 5576, "ĠAndal": 5577, "Ġforo": 5578, "Ġcree": 5579, "Ġsiento": 5580, "tadores": 5581, "eropuerto": 5582, "timo": 5583, "LE": 5584, "Ġpuestos": 5585, "Ġbeneficio": 5586, "gram": 5587, "ĠFor": 5588, "itada": 5589, "Ġbos": 5590, "ley": 5591, "Ġhabitual": 5592, "Ġrequisitos": 5593, "Ġsuelen": 5594, "lecciÃ³n": 5595, "Ġpresentado": 5596, "jal": 5597, "ĠBanco": 5598, "Ġhospital": 5599, "Ġexpe": 5600, "Ġhacemos": 5601, "ĠevoluciÃ³n": 5602, "ĠTal": 5603, "Ġpermanente": 5604, "ĠVilla": 5605, "Ġcierta": 5606, "33": 5607, "ENT": 5608, "Ġvul": 5609, "osos": 5610, "ĠÃºtil": 5611, "Ġperdido": 5612, "Ġlenguaje": 5613, "DespuÃ©s": 5614, "Ġiglesia": 5615, "Ġhier": 5616, "ucha": 5617, "Ġhonor": 5618, "ĠMÃ¡": 5619, "Ġfrecuencia": 5620, "ĠduraciÃ³n": 5621, "ĠDurante": 5622, "IF": 5623, "ĠespectÃ¡": 5624, "ĠasegurÃ³": 5625, "dedores": 5626, "Ġnecesarios": 5627, "Ġarreg": 5628, "Ġdependi": 5629, "Ġnombres": 5630, "ĠLin": 5631, "tiende": 5632, "Ġreduci": 5633, "Ġreciente": 5634, "Ġdescrib": 5635, "Ã©rez": 5636, "%.": 5637, "duce": 5638, "quia": 5639, "ĠAna": 5640, "Ġaguas": 5641, "gadas": 5642, "tamientos": 5643, "Ġinferior": 5644, "Ã³logo": 5645, "Ġviajes": 5646, "Ġplacer": 5647, "Ġcontrolar": 5648, "Ġmovimientos": 5649, "Ġclima": 5650, "Ġarran": 5651, "Ġrefiere": 5652, "Ġperfecta": 5653, "Ġpotencia": 5654, "izada": 5655, "âĢĻ,": 5656, "Ġwww": 5657, "Ġmig": 5658, "ung": 5659, "Ġencontrado": 5660, "ĠCultura": 5661, "Ġemerg": 5662, "ĠrealizaciÃ³n": 5663, "Ġmotiv": 5664, "Ġgl": 5665, "Ġquis": 5666, "ĠrÃ¡pidamente": 5667, "Ġconsiste": 5668, "ii": 5669, "Ġvendi": 5670, "tÃ©g": 5671, "ĠtendrÃ¡n": 5672, "Ġtera": 5673, "Ġconocida": 5674, "ĠTierra": 5675, "inada": 5676, "Ġplaneta": 5677, "ĠalimentaciÃ³n": 5678, "ÃŃc": 5679, "zz": 5680, "Ġsimp": 5681, "Ġpensamiento": 5682, "eciÃ³": 5683, "piraciÃ³n": 5684, "ĠcÃ¡ncer": 5685, "Ġrestaurante": 5686, "uestros": 5687, "Ġsegundos": 5688, "Ġchicos": 5689, "ĠSistema": 5690, "Ġaplicar": 5691, "Ġentregar": 5692, "Ġconcurso": 5693, "Ġrecuerda": 5694, "Ġsolicitud": 5695, "Mar": 5696, "ciles": 5697, "Ġasistencia": 5698, "Ġformar": 5699, "ĠmisiÃ³n": 5700, "ĠGre": 5701, "ĠactuaciÃ³n": 5702, "Ġsubir": 5703, "ĠtecnologÃŃas": 5704, "28": 5705, "Ġrob": 5706, "ĠInvesti": 5707, "hat": 5708, "CE": 5709, "ĠMunicipal": 5710, "Ġintelec": 5711, "Pre": 5712, "Ġtantos": 5713, "35": 5714, "Ġacaba": 5715, "ĠEsp": 5716, "2018": 5717, "Ġasesor": 5718, "amblea": 5719, "Ġsuminist": 5720, "ĠrecibiÃ³": 5721, "Ġcompa": 5722, "quen": 5723, "Ġasegura": 5724, "ĠTribunal": 5725, "ting": 5726, "Ġprodu": 5727, "ĠguÃŃa": 5728, "Mi": 5729, "ĠRusia": 5730, "Ġinfantil": 5731, "Ġcuentan": 5732, "Ġasc": 5733, "Ġpromedio": 5734, "Ġsuave": 5735, "Ġefectu": 5736, "pira": 5737, "Ġlengua": 5738, "jeron": 5739, "PS": 5740, "ĠTecn": 5741, "Ġasunto": 5742, "Ġreserva": 5743, "ys": 5744, "Ġoptim": 5745, "Ġdejo": 5746, "Ġbri": 5747, "ĠpresentÃ³": 5748, "Ġimplic": 5749, "rimiento": 5750, "Ġdomicilio": 5751, "?,": 5752, "mm": 5753, "Ġvaya": 5754, "ĠfrancÃ©s": 5755, "]âĢĭ": 5756, "Ġvio": 5757, "Ġprotes": 5758, "Ġcomportamiento": 5759, "Ġconcreto": 5760, "ĠGer": 5761, "Ġhablando": 5762, "Ġdieron": 5763, "Ġalcance": 5764, "guar": 5765, "Ãºcar": 5766, "ĠÃīl": 5767, "Ġllen": 5768, "Ġlleno": 5769, "ĠHar": 5770, "sen": 5771, "ĠVI": 5772, "Ġaudio": 5773, "Ġelemento": 5774, "Ġnecesitan": 5775, "Ġhos": 5776, "ĠfenÃ³m": 5777, "Ġamist": 5778, "Ġriesgos": 5779, "Ġexpan": 5780, "Ġporta": 5781, "Ġmedic": 5782, "esÃŃa": 5783, "vimos": 5784, "Ġgana": 5785, "Ġcontactos": 5786, "Ġalcalde": 5787, "dice": 5788, "Ġvale": 5789, "ĠSala": 5790, "ĠHol": 5791, "Ġconsecuencias": 5792, "29": 5793, "Ġclara": 5794, "ĠbebÃ©": 5795, "Ġesposa": 5796, "Ġerrores": 5797, "ĠcafÃ©": 5798, "Ġ36": 5799, "ĠEstas": 5800, "Ġagentes": 5801, "Ġindustrial": 5802, "ruguay": 5803, "pin": 5804, "eraciÃ³n": 5805, "viera": 5806, "Ġ300": 5807, "Ġsuces": 5808, "Ġcocin": 5809, "Ġadecuado": 5810, "DO": 5811, "cir": 5812, "Ġporcent": 5813, "Ġespal": 5814, "Ġcontinuar": 5815, "Ġsolicitar": 5816, "Ġautores": 5817, "Ġasegurar": 5818, "ĠDerecho": 5819, "Ġexpec": 5820, "Ġcercan": 5821, "ueve": 5822, "Ġsabes": 5823, "Ġfom": 5824, "Ġverdadero": 5825, "Ġprogres": 5826, "olina": 5827, "Ġutilizando": 5828, "ondo": 5829, "ĠPRO": 5830, "ĠniÃ±a": 5831, "Ġrepresentantes": 5832, "Ġflor": 5833, "ĠRu": 5834, "ĠSub": 5835, "ĠEuropea": 5836, "Ġpretende": 5837, "ĠPÃ©rez": 5838, "Ġtrabaja": 5839, "Ġalco": 5840, "ĠSte": 5841, "ĠIndust": 5842, "let": 5843, "ĠPlaza": 5844, "Ġresponder": 5845, "ĠprÃ³ximos": 5846, "ĠevaluaciÃ³n": 5847, "Ġchico": 5848, "Ġdesen": 5849, "ini": 5850, "Ġinfec": 5851, "Ġmenudo": 5852, "ĠZapa": 5853, "Ġafirma": 5854, "Ġgratuita": 5855, "ÃŃsima": 5856, "ĠBas": 5857, "Ġflo": 5858, "Ġconflicto": 5859, "Ġinvoluc": 5860, "Ġdesconoci": 5861, "Ġconsejos": 5862, "Ġputas": 5863, "ĠPuede": 5864, "Ãĳ": 5865, "Ġbru": 5866, "Ġperfectamente": 5867, "Ġmercados": 5868, "Ġpaque": 5869, "Ġcontes": 5870, "ĠCopa": 5871, "roid": 5872, "Ġantiguo": 5873, "Ġresponsables": 5874, "Ġpilo": 5875, "tuales": 5876, "Ġconvierte": 5877, "Ġameric": 5878, "rÃŃ": 5879, "Ġmotivos": 5880, "iverso": 5881, "ĠON": 5882, "Much": 5883, "arra": 5884, "ecido": 5885, "Ġvit": 5886, "Ġetique": 5887, "ĠAgu": 5888, "Ġimpor": 5889, "cesa": 5890, "Ġsencilla": 5891, "ĠPri": 5892, "Ġutilizado": 5893, "ÃŃsticos": 5894, "ĠTwitter": 5895, "Ġaccidente": 5896, "tric": 5897, "Rec": 5898, "ĠAL": 5899, "Ġcaer": 5900, "Ġestablece": 5901, "Ġvenezol": 5902, "',": 5903, "Ġabierta": 5904, "Ġdestru": 5905, "RES": 5906, "Ġprote": 5907, "Ġescon": 5908, "Ġservir": 5909, "ĠfotografÃŃa": 5910, "rucciones": 5911, "%,": 5912, "ĠquÃŃm": 5913, "Ġrem": 5914, "sal": 5915, "ĠDepartamento": 5916, "ĠAmb": 5917, "doba": 5918, "ueva": 5919, "Ġpuesta": 5920, "Ġfuertes": 5921, "Ġcarretera": 5922, "tom": 5923, "Ġneg": 5924, "Ġhuel": 5925, "Ġinfraestruc": 5926, "tones": 5927, "ĠdecÃŃa": 5928, "Ġdesn": 5929, "ane": 5930, "ĠejecuciÃ³n": 5931, "ĠCorte": 5932, "Ġdocument": 5933, "ĠdeberÃ¡n": 5934, "ĠAD": 5935, "ni": 5936, "ĠenvÃŃo": 5937, "Ġarchivos": 5938, "Ġabra": 5939, "Ġextraord": 5940, "Ġcaliente": 5941, "Ġubicado": 5942, "Ġ)": 5943, "ĠTom": 5944, "icales": 5945, "90": 5946, "rida": 5947, "bum": 5948, "Ġtier": 5949, "Ġcomunes": 5950, "Ġautoridad": 5951, "Ġconvoc": 5952, "Ġsoporte": 5953, "ĠautÃ©n": 5954, "ĠmÃ¡quina": 5955, "Ġincluyen": 5956, "Ġpeti": 5957, "Ġhipo": 5958, "ĠVol": 5959, "ĠCentral": 5960, "ĠSecretarÃŃa": 5961, "tizaciÃ³n": 5962, "ĠJavier": 5963, "Ġaclar": 5964, "Ġlist": 5965, "Ġalar": 5966, "ĠAst": 5967, "Ġdiscipl": 5968, "Ġcabal": 5969, "Gracias": 5970, "Ġproporcion": 5971, "abora": 5972, "ĠcelebraciÃ³n": 5973, "Ġflex": 5974, "Ġprotagonista": 5975, "Ġhacerse": 5976, "Ġquedado": 5977, "Ġcarb": 5978, "Ġpeligro": 5979, "ĠoposiciÃ³n": 5980, "ela": 5981, "Ġtranspar": 5982, "hor": 5983, "ĠmÃ©dicos": 5984, "Ġvein": 5985, "ĠMat": 5986, "Ġmira": 5987, "orts": 5988, "esper": 5989, "ĠJohn": 5990, "Ġmasa": 5991, "Ġapertura": 5992, "bios": 5993, "adura": 5994, "ĠTÃ©cn": 5995, "Ġdefens": 5996, "afa": 5997, "ĠProduc": 5998, "Ġactitud": 5999, "rue": 6000, "Ġcamp": 6001, "Ġartic": 6002, "Ġhabilidades": 6003, "rieron": 6004, "Ġbu": 6005, "ĠincreÃŃble": 6006, "ĠTrabajo": 6007, "ij": 6008, "Ġfich": 6009, "Ġanimal": 6010, "Ġger": 6011, "lin": 6012, "ĠestÃ¡ndar": 6013, "Ġactuales": 6014, "Ġexplor": 6015, "tieron": 6016, "pendencia": 6017, "ualmente": 6018, "quez": 6019, "ĠCul": 6020, "Ġfantas": 6021, "grado": 6022, "ĠnÃºmeros": 6023, "Hace": 6024, "amÃ©rica": 6025, "ĠCur": 6026, "Ġtoque": 6027, "Ġadj": 6028, "ĠâĤ¬": 6029, "ĠLiga": 6030, "Ġllevado": 6031, "Ġgestion": 6032, "ĠDeb": 6033, "Ġposterior": 6034, "Ġpensando": 6035, "Ġenamor": 6036, "hol": 6037, "Ġvienen": 6038, "Ġviendo": 6039, "ĠestaciÃ³n": 6040, "ARA": 6041, "Ġresca": 6042, "Ġpintura": 6043, "teo": 6044, "Dis": 6045, "Ã±ar": 6046, "Ġingre": 6047, "ĠDist": 6048, "Ġdesea": 6049, "Ġ..": 6050, "Ġestrellas": 6051, "ĠtÃ©cnicos": 6052, "Ġimpon": 6053, "Ġmarketing": 6054, "Ġnerv": 6055, "genierÃŃa": 6056, "guen": 6057, "ĠMartÃŃnez": 6058, "okies": 6059, "ĠMientras": 6060, "Ġvistas": 6061, "aso": 6062, "ilos": 6063, "Ã³stico": 6064, "-,": 6065, "ille": 6066, "Ġperro": 6067, "ionales": 6068, "ĠGa": 6069, "ĠÃºnicamente": 6070, "tistas": 6071, "risa": 6072, "ĠRE": 6073, "Ġfuncionarios": 6074, "Ġagradable": 6075, "ĠDr": 6076, "Ġauton": 6077, "Ġ2006": 6078, "Pue": 6079, "lando": 6080, "Ġenviar": 6081, "ĠsÃŃnt": 6082, "Ġterra": 6083, "ĠPues": 6084, "ĠFuer": 6085, "ĠdÃ©cada": 6086, "Ġdefinitiva": 6087, "Ġdeleg": 6088, "Ã¡bamos": 6089, "Ġteatro": 6090, "Ġempieza": 6091, "ĠdaÃ±os": 6092, "ajo": 6093, "70": 6094, "Ã¡bi": 6095, "36": 6096, "osofÃŃa": 6097, "ĠSen": 6098, "ĠCosta": 6099, "ĠubicaciÃ³n": 6100, "rente": 6101, "ĠGuerra": 6102, "Ġrecibe": 6103, "igna": 6104, "Ġindependiente": 6105, "ĠreciÃ©n": 6106, "ĠFernÃ¡ndez": 6107, "ube": 6108, "Ġapartado": 6109, "Ġcomunicado": 6110, "Ġreca": 6111, "ĠCÃ¡mara": 6112, "Ġbuscan": 6113, "Ġesencial": 6114, "Ġinspir": 6115, "Ġfutbol": 6116, "Ġbases": 6117, "Ġsecretario": 6118, "Ġaument": 6119, "ĠItalia": 6120, "ĠCla": 6121, "ĠSanto": 6122, "Ġhago": 6123, "ĠForm": 6124, "endas": 6125, "Ġcruz": 6126, "Ġcontam": 6127, "vos": 6128, "Ġaquello": 6129, "ĠprÃ¡cticamente": 6130, "grÃ¡fica": 6131, "Ġrelo": 6132, "dimientos": 6133, "Ġpremios": 6134, "Ġvidas": 6135, "Ġcabello": 6136, "Ġsup": 6137, "lada": 6138, "Ġmod": 6139, "zon": 6140, "Ġllena": 6141, "Ġflores": 6142, "Ġlujo": 6143, "ĠEjecu": 6144, "umb": 6145, "Ġimplica": 6146, "Ġprivada": 6147, "ham": 6148, "capacidad": 6149, "orar": 6150, "Ġign": 6151, "ĠDic": 6152, "Ġcomprender": 6153, "olÃ³gicas": 6154, "Ġconsist": 6155, "entro": 6156, "ĠFederal": 6157, "ĠPD": 6158, "ĠTar": 6159, "Â´": 6160, "Ġdejando": 6161, "Ġfiestas": 6162, "ĠanunciÃ³": 6163, "tern": 6164, "ĠsabÃŃa": 6165, "ĠdecidiÃ³": 6166, "yendo": 6167, "ĠJulio": 6168, "Ġcamis": 6169, "ĠmÃ³viles": 6170, "Ġves": 6171, "adÃ¡": 6172, "Ġinicial": 6173, "afas": 6174, "Ġcontribu": 6175, "ĠcuÃ¡n": 6176, "ĠindicÃ³": 6177, "vio": 6178, "Ġcosta": 6179, "Ġdieta": 6180, "Ġdepende": 6181, "Ġarchivo": 6182, "ĠDef": 6183, "Ġreform": 6184, "Ġprofesores": 6185, "duras": 6186, "ĠAudi": 6187, "icultura": 6188, "Ġchoc": 6189, "Ġjuez": 6190, "Ġmatrimonio": 6191, "Ġadecuada": 6192, "alacio": 6193, "ĠMuseo": 6194, "ĠcaÃŃda": 6195, "Ġrobo": 6196, "mes": 6197, "ĠfrÃŃo": 6198, "Ġago": 6199, "Ġsimilares": 6200, "ĠConstituciÃ³n": 6201, "Ġcreer": 6202, "Ġoficiales": 6203, "Ġconcur": 6204, "ĠGuar": 6205, "Ġsufici": 6206, "Ġaport": 6207, "So": 6208, "Ġhuev": 6209, "ĠafirmÃ³": 6210, "ĠcÃ©l": 6211, "Ġrin": 6212, "americana": 6213, "Ġmovil": 6214, "ĠrecuperaciÃ³n": 6215, "Ġgobier": 6216, "ĠWindows": 6217, "Ã¡stico": 6218, "ĠðŁ": 6219, "Ġesperanza": 6220, "Ġcapaces": 6221, "ĠeconÃ³micos": 6222, "Ġviajar": 6223, "tÃŃ": 6224, "Ġllamar": 6225, "ĠHern": 6226, "Ġturismo": 6227, "AB": 6228, "Ġmanejo": 6229, "Ġmezcl": 6230, "Ġestablecido": 6231, "Ġcuel": 6232, "andro": 6233, "Ġaconte": 6234, "IB": 6235, "mart": 6236, "ĠSab": 6237, "Ġcostos": 6238, "Ġestrategias": 6239, "igos": 6240, "Ġsopor": 6241, "tol": 6242, "Per": 6243, "Ġfacilitar": 6244, "ĠCiencias": 6245, "ĠAma": 6246, "cciÃ³n": 6247, "ĠfÃ¡cilmente": 6248, "uma": 6249, "ĠrepresentaciÃ³n": 6250, "ĠtradiciÃ³n": 6251, "Ġvisitas": 6252, "Ġorgul": 6253, "DE": 6254, "Ġjapon": 6255, "ĠempezÃ³": 6256, ".\"": 6257, "Ġperci": 6258, "tÃºa": 6259, "Ġcomienzo": 6260, "Ġintegral": 6261, "Ġrostro": 6262, "Ġindividual": 6263, "Ġdestacar": 6264, "Ġdesay": 6265, "Par": 6266, "Ġtono": 6267, "Ġimpar": 6268, "Ġabre": 6269, "Ġasign": 6270, "55": 6271, "ĠlogrÃ³": 6272, "tesis": 6273, "ĠbritÃ¡n": 6274, "oras": 6275, "Ġcircunstancias": 6276, "ficos": 6277, "Ġgeo": 6278, "ĠtrÃ¡fico": 6279, "Ġrecuperar": 6280, "Ġpuedas": 6281, "ĠaÃ±adir": 6282, "Ġileg": 6283, "ĠazÃºcar": 6284, "Ġcandidato": 6285, "ĠinnovaciÃ³n": 6286, "ĠHotel": 6287, "Ġderiv": 6288, "Ġgenerales": 6289, "Ġacu": 6290, "Ġpese": 6291, "Ġsiente": 6292, "Ġconfir": 6293, "ĠPrograma": 6294, "ĠMundo": 6295, "Ġposee": 6296, "Ġcuidad": 6297, "Ġpiscina": 6298, "Ġurg": 6299, "ÃŃficas": 6300, "Ġcelebrar": 6301, "Ġregalo": 6302, "ĠTur": 6303, "Ġcuch": 6304, "ami": 6305, "ĠSolo": 6306, "apÃ³n": 6307, "Ġnecesarias": 6308, "Ġestudiar": 6309, "Ġalquiler": 6310, "tudes": 6311, "Ġventaja": 6312, "Ġprobablemente": 6313, "Ġreales": 6314, "500": 6315, "Ġcomput": 6316, "ĠActu": 6317, "Ġgenial": 6318, "op": 6319, "Ġespecies": 6320, "Ġjuz": 6321, "ĠReino": 6322, "Ġbanco": 6323, "zca": 6324, "dremos": 6325, "Ġelectoral": 6326, "ĠteorÃŃa": 6327, "Ġapara": 6328, "Ġbiblio": 6329, "Ġcompras": 6330, "Ġdeuda": 6331, "Ġpropiedades": 6332, "Ġnecesitas": 6333, "ĠparecÃŃa": 6334, "Ġpleno": 6335, "Ġreceta": 6336, "Ġadquirir": 6337, "Ġcausas": 6338, "Ġtocar": 6339, "ĠsaliÃ³": 6340, "ĠSalv": 6341, "ĠTiene": 6342, "ĠTrump": 6343, "land": 6344, "idu": 6345, "Ġconoz": 6346, "ĠÃ¡l": 6347, "Ġconsultar": 6348, "Ġusa": 6349, "Ġpieza": 6350, "TU": 6351, "ĠgarantÃŃa": 6352, "Ġtuvieron": 6353, "!!!!": 6354, "Ġquerido": 6355, "Ġlide": 6356, "Ġlluvia": 6357, "Ġdispone": 6358, "Ġguer": 6359, "Ġaltos": 6360, "ĠCÃ³r": 6361, "ĠFil": 6362, "Ġenga": 6363, "Ġtasa": 6364, "Ġans": 6365, "ĠcuÃ¡l": 6366, "Ġdiscurso": 6367, "Ġrecurso": 6368, "Ġtorneo": 6369, "ualidad": 6370, "ĠAN": 6371, "Ġnuevamente": 6372, "Ġsituado": 6373, "ĠMen": 6374, "ĠFiscal": 6375, "Ġadmi": 6376, "ĠestratÃ©g": 6377, "dimos": 6378, "Ġdiferencias": 6379, "ĠEntonces": 6380, "ĠHospital": 6381, "Ġfuncional": 6382, "dados": 6383, "ĠFlor": 6384, "Ġcop": 6385, "DA": 6386, "Ġcomplejo": 6387, "ĠOc": 6388, "Ġincluir": 6389, "Ġdije": 6390, "Ġrazon": 6391, "ĠJul": 6392, "III": 6393, "Ġcircu": 6394, "Ġfrases": 6395, "Ġregul": 6396, "ĠParque": 6397, "Ã³rm": 6398, "Ġpresentan": 6399, "tologÃŃa": 6400, "ĠniÃ±as": 6401, "Ġutilizan": 6402, "ãģ": 6403, "ĠescribiÃ³": 6404, "Ġconvertirse": 6405, "ĠAC": 6406, "Ġentrenamiento": 6407, "Ġanalizar": 6408, "inarias": 6409, "Ġestados": 6410, "ĠCat": 6411, "Ġactores": 6412, "Ġmm": 6413, "drÃŃa": 6414, "ĠFre": 6415, "Ġviven": 6416, "Ġdispuesto": 6417, "Ġcorresponde": 6418, "Ġllegan": 6419, "Ġdemocracia": 6420, "ĠcrÃŃtica": 6421, "ĠcompaÃ±ÃŃas": 6422, "ĠiP": 6423, "Ġpene": 6424, "Ġnueve": 6425, "UC": 6426, "ĠMedio": 6427, "bel": 6428, "Ġconta": 6429, "habil": 6430, "ĠCÃ¡": 6431, "Ġrespal": 6432, "ota": 6433, "IDAD": 6434, "ĠjamÃ¡s": 6435, "Ġliteratura": 6436, "Ġactor": 6437, "Ġtrituradora": 6438, "ĠreducciÃ³n": 6439, "isos": 6440, "IV": 6441, "uir": 6442, "ricaciÃ³n": 6443, "Ð¾": 6444, "turaciÃ³n": 6445, "Ġdelan": 6446, "Ġsocio": 6447, "95": 6448, "Ġfechas": 6449, "art": 6450, "ondres": 6451, "dy": 6452, "Ġpuerto": 6453, "QU": 6454, "Ġensay": 6455, "ant": 6456, "quÃŃa": 6457, "Ġsalvo": 6458, "Ġexpecta": 6459, "Ġesperando": 6460, "Ġdios": 6461, "ev": 6462, "Ġculturales": 6463, "Ġtantas": 6464, "ĠInformaciÃ³n": 6465, "Ġinmedi": 6466, "orÃ¡n": 6467, "TER": 6468, "Ġdestaca": 6469, "ĠenseÃ±anza": 6470, "ĠalegrÃŃa": 6471, "ĠSociedad": 6472, "lon": 6473, "Ġpersonalidad": 6474, "migo": 6475, "Ġinvierno": 6476, "Ġreto": 6477, "Ġtextos": 6478, "sted": 6479, "Ġrealizan": 6480, "ĠLatina": 6481, "Ġciertos": 6482, "Ġviento": 6483, "Ġzapatos": 6484, "Ġconqu": 6485, "Ġdeterminar": 6486, "SS": 6487, "ĠcÃ¡": 6488, "Ġ2000": 6489, "Ġsentencia": 6490, "ĠseÃ±ala": 6491, "Ġcuadro": 6492, "Ġ32": 6493, "Ġama": 6494, "ĠlÃŃqu": 6495, "Ġtribu": 6496, "americano": 6497, "ĠEd": 6498, "Ġmalo": 6499, "ĠRÃŃo": 6500, "ĠGab": 6501, "ĠAndr": 6502, "Ġexpor": 6503, "ĠNoticias": 6504, "ĠdeclaraciÃ³n": 6505, "ĠAM": 6506, "Ġantigua": 6507, "Ha": 6508, "ĠhÃ¡bi": 6509, "Ġevidente": 6510, "Ãł": 6511, "GO": 6512, "34": 6513, "inter": 6514, "Ġpopulares": 6515, ".[": 6516, "Ġpantal": 6517, "ĠMag": 6518, "ĠsalÃ³n": 6519, "ĠFederaciÃ³n": 6520, "Ġdefender": 6521, "ĠComercio": 6522, "âĢ¦.": 6523, "Ġacredi": 6524, "tral": 6525, "Ġmoto": 6526, "Ġinvertir": 6527, "Ġordenador": 6528, "han": 6529, "ĠGe": 6530, "fas": 6531, "Ġescuelas": 6532, "Ã¡ndole": 6533, "Ġrealizada": 6534, "ristas": 6535, "ĠfotografÃŃas": 6536, "Ġgir": 6537, "Nos": 6538, "Ġaj": 6539, "Ġcurios": 6540, "Ġdur": 6541, "ridos": 6542, "Ġdominio": 6543, "Ġminuto": 6544, "ith": 6545, "ionar": 6546, "iber": 6547, "ĠPÃºblica": 6548, "Ġacel": 6549, "Ġhice": 6550, "Ġcorrer": 6551, "ife": 6552, "mites": 6553, "Ġmanual": 6554, "ĠParÃŃs": 6555, "Ġsorpresa": 6556, "Ġrecientemente": 6557, "Ġaparecen": 6558, "Ġactuar": 6559, "Ġtarif": 6560, "menta": 6561, "Ġrato": 6562, "Ġaceptar": 6563, "Todo": 6564, "Ġapos": 6565, "Esto": 6566, "ĠNuevo": 6567, "Ġdesarrollado": 6568, "arago": 6569, "Ġsuperar": 6570, "Ġrecord": 6571, "LO": 6572, "Ġentradas": 6573, "gador": 6574, "Ġprostitutas": 6575, "Ġfib": 6576, "maras": 6577, "Ġpeligros": 6578, "mal": 6579, "Ġanuncios": 6580, "ĠBur": 6581, "ĠDec": 6582, "Ġgr": 6583, "Ġcomponentes": 6584, "dental": 6585, "pp": 6586, "ĠDiv": 6587, "rarÃ¡": 6588, "ĠTea": 6589, "Ġactivos": 6590, "Ġsilencio": 6591, "Ġquiera": 6592, "ĠclÃ¡sico": 6593, "ĠRafa": 6594, "ĠdiÃ¡logo": 6595, "frica": 6596, "ieren": 6597, "Ġacor": 6598, "ĠcorrupciÃ³n": 6599, "ecreto": 6600, "Ġrespuestas": 6601, "ventud": 6602, "itando": 6603, "laga": 6604, "ĠJer": 6605, "Ġaleg": 6606, "Ġincremento": 6607, "Ġimpuestos": 6608, "Ġcuestion": 6609, "ĠAndroid": 6610, "Ã¡nico": 6611, "Ġescolar": 6612, "ĠvolviÃ³": 6613, "unda": 6614, "Ġhorm": 6615, "ĠBoliv": 6616, "iller": 6617, "IP": 6618, "Ġepiso": 6619, "Ġdecidido": 6620, "gando": 6621, "ĠUno": 6622, "Ġinterac": 6623, "?.": 6624, "Ġcorriente": 6625, "ters": 6626, "Ġchil": 6627, "Ġpide": 6628, "Ġseguros": 6629, "ĠpermitirÃ¡": 6630, "enaje": 6631, "Ġfinalidad": 6632, "Ġsho": 6633, "Todos": 6634, "Ġperiodista": 6635, "Ġaccion": 6636, "Ġadicional": 6637, "ĠEstÃ¡": 6638, "Ġcuesta": 6639, "Ġresal": 6640, "Ġcerebro": 6641, "ux": 6642, "ĠutilizaciÃ³n": 6643, "ĠtÃŃtulos": 6644, "ĠasociaciÃ³n": 6645, "Ġmover": 6646, "ĠMur": 6647, "undar": 6648, "Ġventajas": 6649, "Ġfrase": 6650, "Ġvisitantes": 6651, "Ġalternativa": 6652, "Ġcerv": 6653, "isten": 6654, "Ġatender": 6655, "Ġconseguido": 6656, "Ġmeter": 6657, "izon": 6658, "Ġgig": 6659, "Ġanual": 6660, "ĠAndalucÃŃa": 6661, "Ġperspectiva": 6662, "Ġjudicial": 6663, "Ġtalleres": 6664, "Ġcuestiones": 6665, "tÃº": 6666, "ego": 6667, "ĠRic": 6668, "Ġhumor": 6669, "ĠsÃ³l": 6670, "ĠValle": 6671, "Ġalm": 6672, "ĠPC": 6673, "ĠGestiÃ³n": 6674, "Ġhel": 6675, "Ġbajar": 6676, "Ġrestaurantes": 6677, "ezca": 6678, "Ġinfluencia": 6679, "laciones": 6680, "Ġje": 6681, "ĠNew": 6682, "Ġviviendas": 6683, "ĠPlata": 6684, "Ġparecen": 6685, "Ma": 6686, "ike": 6687, "ĠCÃ³": 6688, "Co": 6689, "Ġpartida": 6690, "Ġdormitor": 6691, "ĠFestival": 6692, "tres": 6693, "Ġdor": 6694, "enten": 6695, "Ġhumanidad": 6696, "Ġdispu": 6697, "Ġuniversidad": 6698, "ĠHistoria": 6699, "Ġinteresantes": 6700, "Ġadv": 6701, "Pues": 6702, "ĠEra": 6703, "Ġlogra": 6704, "sar": 6705, "ĠCOM": 6706, "Ã³nico": 6707, "Ġexplicar": 6708, "Ġcolegio": 6709, "ĠDerechos": 6710, "Ġcantante": 6711, "Ġproto": 6712, "Ġcoste": 6713, "Ġvulner": 6714, "Ġinteligencia": 6715, "Ġdoctor": 6716, "Ġcontribuy": 6717, "zando": 6718, "ĠdecoraciÃ³n": 6719, "Ġintento": 6720, "Ġreglas": 6721, "Ġconviv": 6722, "wa": 6723, "Ġacercar": 6724, "Ġtradicionales": 6725, "ificados": 6726, "ĠmÃ©todos": 6727, "ĠautÃ³n": 6728, "ambre": 6729, "Ġbolsa": 6730, "Ġcotidi": 6731, "Ġcuento": 6732, "Ġgira": 6733, "Ġplano": 6734, "Ġhorario": 6735, "Ġpudiera": 6736, "ames": 6737, "Ġbatalla": 6738, "Ġacabar": 6739, "Ġ34": 6740, "comun": 6741, "Ġpriva": 6742, "raron": 6743, "Ġusando": 6744, "Ġemi": 6745, "Ġsuger": 6746, "Ġconforme": 6747, "ortun": 6748, "Ġafi": 6749, "Ġpropon": 6750, "pul": 6751, "jera": 6752, "ĠdÃ©cadas": 6753, "Ġcampos": 6754, "Ġparticulares": 6755, "cindi": 6756, "Ġdeclaraciones": 6757, "Ġlanzamiento": 6758, "Car": 6759, "bres": 6760, "Ġrelacionadas": 6761, "Ġnacimiento": 6762, "Ġsentimientos": 6763, "Ġdecre": 6764, "Ġtelef": 6765, "Ġopiniones": 6766, "Ġbienestar": 6767, "ĠEncuent": 6768, "Ġvigil": 6769, "Ġefectivo": 6770, "alizadas": 6771, "ĠAust": 6772, "ubl": 6773, "Ġrepu": 6774, "Ġofrecemos": 6775, "Ġnegoci": 6776, "Ġescala": 6777, "gor": 6778, "Ġciertas": 6779, "Ġvay": 6780, "ĠApren": 6781, "ĠvÃ¡l": 6782, "ajaj": 6783, "edi": 6784, "Ġrefug": 6785, "ezas": 6786, "Ġcari": 6787, "Ġdelito": 6788, "yen": 6789, "ĠlÃŃderes": 6790, "ĠCÃ³rdoba": 6791, "Ġatre": 6792, "ĠpreparaciÃ³n": 6793, "75": 6794, "Ġsosp": 6795, "izados": 6796, "ock": 6797, "ĠdarÃ¡": 6798, "Ġconsiderar": 6799, "xil": 6800, "ĠPaz": 6801, "Ġindis": 6802, "Ġrent": 6803, "Ġterceros": 6804, "Ġsole": 6805, "ĠAlej": 6806, "Ġorganizado": 6807, "ĠGol": 6808, "dom": 6809, "Ã¡les": 6810, "ster": 6811, "Ġpromover": 6812, "Ġargentino": 6813, "Ġesfuerzos": 6814, "ĠprevenciÃ³n": 6815, "Ġ33": 6816, "bos": 6817, "ĠLondres": 6818, "Ġmercan": 6819, "ĠPremio": 6820, "ĠSegun": 6821, "aman": 6822, "Ġedificios": 6823, "ĠcombinaciÃ³n": 6824, "Ġdescanso": 6825, "Ġrap": 6826, "iada": 6827, "Ġescritor": 6828, "ĠÃ¡lbum": 6829, "Ġtrayec": 6830, "Ġsof": 6831, "Ġdiscu": 6832, "ĠcompaÃ±ero": 6833, "ĠSÃ³lo": 6834, "Ġdirigido": 6835, "ĠEr": 6836, "Ġfracas": 6837, "Ġforman": 6838, "Ġmuebles": 6839, "Ġprevia": 6840, "ijo": 6841, "Ġcelebra": 6842, "Ġbr": 6843, "ĠLatino": 6844, "Ġlogrado": 6845, "Ġseguimiento": 6846, "cidas": 6847, "Ġapartam": 6848, "ĠjardÃŃn": 6849, "ight": 6850, "grÃ¡fico": 6851, "ĠProtecciÃ³n": 6852, "ĠcatÃ¡": 6853, "Ġamiga": 6854, "derÃŃa": 6855, "Ġaver": 6856, "TR": 6857, "terrÃ¡n": 6858, "ĠIb": 6859, "atamente": 6860, "ĠnaciÃ³": 6861, "Ġ2005": 6862, "CIA": 6863, "Ġpenal": 6864, "ĠsÃŃntomas": 6865, "Ġaler": 6866, "ot": 6867, "Ġperros": 6868, "inando": 6869, "ĠCO": 6870, "Ġprobable": 6871, "cra": 6872, "ĠSÃŃ": 6873, "Ġretro": 6874, "Ġdificultades": 6875, "ĠHasta": 6876, "ariamente": 6877, "Ġacostumb": 6878, "Ġdesign": 6879, "Ġdefec": 6880, "ser": 6881, "Ġcorpor": 6882, "Ġeficaz": 6883, "Ġhojas": 6884, "Ġiniciar": 6885, "Ġaprovechar": 6886, "Ġbro": 6887, "Ġviejo": 6888, "Ġacero": 6889, "Ġaltas": 6890, "ĠIng": 6891, "Ġvosotros": 6892, "Ð°": 6893, "Ã³d": 6894, "Ġcolum": 6895, "Ġdescuento": 6896, "Ġmirar": 6897, "Ã©ut": 6898, "ĠestarÃ¡n": 6899, "Ġvestido": 6900, "osas": 6901, "ĠGuad": 6902, "Ġtuve": 6903, "Ġarre": 6904, "Ġmaestro": 6905, "aragoza": 6906, "ferencias": 6907, "ĠpasiÃ³n": 6908, "Ġposteriormente": 6909, "Ġejercicios": 6910, "Ġdesplaz": 6911, "Ġencontraba": 6912, "Ġid": 6913, "ĠDaniel": 6914, "Ġcerrar": 6915, "Ġganado": 6916, "ÃŃna": 6917, "Ġcrecer": 6918, "Ġingreso": 6919, "Ġ;": 6920, "ĠEnrique": 6921, "Ġconcierto": 6922, "Ġsocios": 6923, "epres": 6924, "Ġguitar": 6925, "ĠDig": 6926, "Ġsucede": 6927, "Ġingredientes": 6928, "Ġestablecimiento": 6929, "Ġfl": 6930, "ĠimpresiÃ³n": 6931, "idaciÃ³n": 6932, "Ġplena": 6933, "Ġcorrecto": 6934, "Ġprevisto": 6935, "Ġbes": 6936, "Ġarena": 6937, "Ġconceptos": 6938, "usos": 6939, "ĠquizÃ¡": 6940, "Ġdiagn": 6941, "Ġdiciendo": 6942, "ood": 6943, "orio": 6944, "Ġfren": 6945, "ĠGas": 6946, "onal": 6947, "Ġpositivo": 6948, "ĠEspaÃ±ola": 6949, "Ã³mico": 6950, "Ġregional": 6951, "Ġhin": 6952, "Ġ150": 6953, "ĠIsrael": 6954, "ĠPubl": 6955, "Ġdeba": 6956, "ĠDecreto": 6957, "Ġpoca": 6958, "crito": 6959, "Ġmuestran": 6960, "Ġaso": 6961, "ĠcÃ¡r": 6962, "Ġseguramente": 6963, "Ġinfin": 6964, "Ġfactor": 6965, "ĠDirector": 6966, "Ġlum": 6967, "Ġmetal": 6968, "Ðµ": 6969, "asti": 6970, "Ġcomprobar": 6971, "Ġobservar": 6972, "Ġblanca": 6973, "Ġestrech": 6974, "illar": 6975, "Ã©ro": 6976, "Ġincluido": 6977, "ĠcapÃŃtulo": 6978, "pla": 6979, "ADO": 6980, "ĠMis": 6981, "gues": 6982, "Ġsobreviv": 6983, "ĠLor": 6984, "Ġapa": 6985, "cambio": 6986, "Ġhubi": 6987, "Ġpade": 6988, "Ġmapa": 6989, "48": 6990, "Ġsexuales": 6991, "Ġconvocatoria": 6992, "iversario": 6993, "Ġafecta": 6994, "Ġ48": 6995, "Ġdesac": 6996, "IEN": 6997, "Ġaparecer": 6998, "Ġdemostrar": 6999, "ĠOrden": 7000, "demia": 7001, "ĠCataluÃ±a": 7002, "Ġentreten": 7003, "Son": 7004, "enciales": 7005, "Ġmanip": 7006, "ĠAR": 7007, "ĠJapÃ³n": 7008, "ĠespectÃ¡culo": 7009, "Ġperu": 7010, "Ġcorrecta": 7011, "ĠAP": 7012, "Ġcorta": 7013, "Ġdormir": 7014, "Ġestatal": 7015, "ox": 7016, "Ã³mica": 7017, "lÃ³": 7018, "Ġtec": 7019, "ĠDos": 7020, "cada": 7021, "Ġtermina": 7022, "quie": 7023, "ĠlÃŃmites": 7024, "ua": 7025, "ficas": 7026, "Â®": 7027, "Ġanuncio": 7028, "uaciÃ³n": 7029, "Ġhermana": 7030, "Ġpreparar": 7031, "Ġanteriormente": 7032, "Ġprivi": 7033, "ĠDoc": 7034, "iosos": 7035, "Ġestrella": 7036, "Ġpolici": 7037, "ique": 7038, "Ġdemocr": 7039, "Ġenfoc": 7040, "Ġprestig": 7041, "Ġimpac": 7042, "ĠsueÃ±os": 7043, "Ġhoteles": 7044, "ĠComitÃ©": 7045, "ĠNÂº": 7046, "ĠrealizarÃ¡": 7047, "ianza": 7048, "aque": 7049, "ld": 7050, "39": 7051, "sin": 7052, "dicas": 7053, "Ġgrasa": 7054, "quito": 7055, "xx": 7056, "derÃ¡": 7057, "Ġdenuncia": 7058, "ĠconvirtiÃ³": 7059, "Ġcapit": 7060, "Ġtranspor": 7061, "IG": 7062, "ey": 7063, "Ġgustan": 7064, "Ġporcentaje": 7065, "Ġaventura": 7066, "Ġfij": 7067, "ĠMir": 7068, "ĠcomisiÃ³n": 7069, "Ġletras": 7070, "Ġgor": 7071, "Ġpecho": 7072, "Ġgastron": 7073, "Ġcruc": 7074, "Ġdibujos": 7075, "Ġmuerto": 7076, "ĠApple": 7077, "Ġcolectivo": 7078, "ĠCastilla": 7079, "Ġ195": 7080, "Ġdifun": 7081, "ĠAca": 7082, "38": 7083, "Ġmuertos": 7084, "Ġsujeto": 7085, "ĠelaboraciÃ³n": 7086, "sion": 7087, "Ġparecido": 7088, "Ġhomenaje": 7089, "Ġcientos": 7090, "Ġdiri": 7091, "lÃŃn": 7092, "ĠvÃŃctima": 7093, "ĠdiseÃ±os": 7094, "SOE": 7095, "Ġgrad": 7096, "Ġlibres": 7097, "ĠMos": 7098, "yn": 7099, "ĠSalvador": 7100, "bur": 7101, "ĠMed": 7102, "Ġclaramente": 7103, "get": 7104, "Ġestancia": 7105, "abel": 7106, "Ġactivo": 7107, "Ġseleccion": 7108, "Ġidioma": 7109, "Ġemociones": 7110, "Ġimpul": 7111, "Ġtanta": 7112, "ney": 7113, "Ġinmediato": 7114, "drÃ¡n": 7115, "Ġcitas": 7116, "ĠIII": 7117, "ĠArm": 7118, "Ġcercano": 7119, "Ġaeropuerto": 7120, "Ġmunicipios": 7121, "Ġempresarial": 7122, "teral": 7123, "ĠEjecutivo": 7124, "Ġagencia": 7125, "medi": 7126, "hibi": 7127, "Ġamistad": 7128, "Ġpot": 7129, "Ġnovia": 7130, "Ġtriunfo": 7131, "ĠDiego": 7132, "cura": 7133, "ĠVide": 7134, "Ġcookies": 7135, "ĠNavidad": 7136, "ĠPaÃŃs": 7137, "ĠintegraciÃ³n": 7138, "ĠSiempre": 7139, "Ġoficinas": 7140, "Ġelegido": 7141, "Ġcubrir": 7142, "ĠdestacÃ³": 7143, "tornos": 7144, "Ġactiva": 7145, "ĠMes": 7146, "Ġcober": 7147, "erio": 7148, "aste": 7149, "Ġelig": 7150, "Ġlector": 7151, "Ġparticipa": 7152, "Ġbonito": 7153, "ĠPolÃŃtica": 7154, "Ġigualdad": 7155, "ĠClar": 7156, "Ġpatrimonio": 7157, "Ġcorrespondientes": 7158, "Ġllegaron": 7159, "ĠIl": 7160, "Ġhabil": 7161, "Ġ38": 7162, "hone": 7163, "Ġvotos": 7164, "Ġmental": 7165, "Ġexactamente": 7166, "Ġinvestigadores": 7167, "Ġmoral": 7168, "cita": 7169, "Ġic": 7170, "Ġespectacular": 7171, "ĠbotÃ³n": 7172, "ensiones": 7173, "Ġespalda": 7174, "Ġesque": 7175, "cuador": 7176, "ĠcÃ©lulas": 7177, "Ġtrato": 7178, "stos": 7179, "Ġespecialistas": 7180, "Ġconmigo": 7181, "ĠSuperior": 7182, "ĠRadio": 7183, "Ġproporciona": 7184, "Ġuniverso": 7185, "Ġpasan": 7186, "PE": 7187, "istencia": 7188, "Ġsignificado": 7189, "ĠvÃŃdeos": 7190, "ĠbaterÃŃa": 7191, "Ġcoches": 7192, "Ġdedicado": 7193, "ĠAlberto": 7194, "ĠAsamblea": 7195, "Ġfamoso": 7196, "ĠCreo": 7197, "ĠInst": 7198, "Ġculpa": 7199, "Ġtierras": 7200, "Ġmilitares": 7201, "elos": 7202, "ington": 7203, "ĠJe": 7204, "Ġlabora": 7205, "\":": 7206, "Ġcombust": 7207, "Ġpista": 7208, "ĠLeer": 7209, "ĠPin": 7210, "Ġdecidir": 7211, "ĠPopular": 7212, "icen": 7213, "37": 7214, "Ġinmig": 7215, "ĠViv": 7216, "Ġmetro": 7217, "Ġserio": 7218, "ĠMov": 7219, "ĠeconÃ³micas": 7220, "Ġambiental": 7221, "Ġlegales": 7222, "Ġnoches": 7223, "Ġmascul": 7224, "ĠmontaÃ±a": 7225, "ĠJuegos": 7226, "ibe": 7227, "terna": 7228, "ĠfantÃ¡": 7229, "Ġcabe": 7230, "Ġvuelo": 7231, "Ġcarreras": 7232, "Ġaccesorios": 7233, "Ġbrazos": 7234, "ĠAir": 7235, "Ġlatino": 7236, "Ġcuello": 7237, "ragÃ³n": 7238, "its": 7239, "ĠcontinÃºa": 7240, "fal": 7241, "ĠComp": 7242, "Ġurban": 7243, "ĠprÃ©st": 7244, "Ġojo": 7245, "Ġprotec": 7246, "Ġgobiernos": 7247, "Ġexces": 7248, "ĠInform": 7249, "Ġmoderno": 7250, "ĠsÃŃmb": 7251, "Ġversiones": 7252, "ĠlÃŃmite": 7253, "Ġsecreto": 7254, "ĠfÃ¡b": 7255, "Ġpeda": 7256, "rg": 7257, "urÃŃa": 7258, "Ġoriginales": 7259, "Ġmetodo": 7260, "ĠAra": 7261, "cientes": 7262, "Ġnovedades": 7263, "47": 7264, "Ġfinanciera": 7265, "iciones": 7266, "Ġpared": 7267, "ĠNov": 7268, "ĠVis": 7269, "Ġorganiza": 7270, "Ġexitos": 7271, "rÃ©s": 7272, "Ġelegante": 7273, "IX": 7274, "ĠTeatro": 7275, "Ac": 7276, "isp": 7277, "Ġlicencia": 7278, "Ġportal": 7279, "Ġconsiderado": 7280, "Ġnormativa": 7281, "wer": 7282, "ĠConsul": 7283, "Ġseguidores": 7284, "ĠXV": 7285, "ĠLuc": 7286, "Ġabsor": 7287, "ĠLoc": 7288, "idel": 7289, "abilidades": 7290, "Ġmexicano": 7291, "ĠcategorÃŃas": 7292, "ĠreparaciÃ³n": 7293, "ure": 7294, "ĠSobre": 7295, "Ġejemplos": 7296, "Ġacondi": 7297, "alizÃ³": 7298, "Ġausencia": 7299, "Ġparejas": 7300, "Ġocupa": 7301, "ĠleÃŃdo": 7302, "Ġidentificar": 7303, "tara": 7304, "ĠelÃ©ctrica": 7305, "posiciones": 7306, "Ġafirm": 7307, "Ġconces": 7308, "ĠobligaciÃ³n": 7309, "ĠMuy": 7310, "MP": 7311, "viendo": 7312, "Ġhiper": 7313, "ĠAutÃ³n": 7314, "Ã¡ticamente": 7315, "Ġdejan": 7316, "ĠTel": 7317, "berg": 7318, "anes": 7319, "ĠAndrÃ©s": 7320, "Ġimprescindi": 7321, "Ġprocedimientos": 7322, "Ġventana": 7323, "dri": 7324, "terra": 7325, "Ġquerer": 7326, "ĠinterpretaciÃ³n": 7327, "05": 7328, "Ġcifra": 7329, "Ġmerece": 7330, "Ġcable": 7331, "Ġprevio": 7332, "Ġemocional": 7333, "Ġmac": 7334, "Ġaliment": 7335, "Ġplatos": 7336, "Ġrique": 7337, "Ġfui": 7338, "ĠcientÃŃficos": 7339, "Ġeficiencia": 7340, "ĠBro": 7341, "Ġparcial": 7342, "ĠSch": 7343, "Ġbancos": 7344, "Ġsonrisa": 7345, "ĠCE": 7346, "ĠNuestra": 7347, "Ġadolescentes": 7348, "ĠÃģl": 7349, "Ġdulce": 7350, "Ġalcohol": 7351, "ĠPDF": 7352, "Ġbasado": 7353, "Ġ400": 7354, "Ġtelevis": 7355, "pÃ³": 7356, "presiÃ³n": 7357, "Ġfelicidad": 7358, "Ġvoto": 7359, "Ġinteresa": 7360, "Ġequilibrio": 7361, "ĠCÃ³digo": 7362, "Ġarras": 7363, "ĠfabricaciÃ³n": 7364, "Ġrefor": 7365, "Ġbicic": 7366, "rimir": 7367, "ĠMel": 7368, "ĠPel": 7369, "ĠAgr": 7370, "iforn": 7371, "Ġcancel": 7372, "Ġacord": 7373, "Ġgasto": 7374, "ĠrevisiÃ³n": 7375, "Ġconferencia": 7376, "ganos": 7377, "cienda": 7378, "Ġincendi": 7379, "Ġvenir": 7380, "Ġfundamentales": 7381, "ĠapariciÃ³n": 7382, "Ġcriterios": 7383, "Ġpunta": 7384, "SE": 7385, "culares": 7386, "formas": 7387, "dras": 7388, "Ġinstrumentos": 7389, "100": 7390, "Ġestudiante": 7391, "Ġapropi": 7392, "DI": 7393, "Ġpodremos": 7394, "Ġsimul": 7395, "Ġfelici": 7396, "Ġcanales": 7397, "Ġplazas": 7398, "lÃ³n": 7399, "iesta": 7400, "FE": 7401, "Ġgeneralmente": 7402, "Ġconsta": 7403, "Ġcontigo": 7404, "Ã³mez": 7405, "ionado": 7406, "amÃ¡": 7407, "Ã¡ndolo": 7408, "ĠganÃ³": 7409, "The": 7410, "Ġninguno": 7411, "ics": 7412, "Ġseguido": 7413, "genda": 7414, "Ġpronunci": 7415, "Ġplato": 7416, "Ġtengas": 7417, "Ġhagan": 7418, "ĠfenÃ³meno": 7419, "San": 7420, "Ġrein": 7421, "ĠFal": 7422, "Ġboda": 7423, "Ġrepresentante": 7424, "Ġinfraestructura": 7425, "ongitud": 7426, "Ġvib": 7427, "ĠYou": 7428, "ĠUnido": 7429, "ĠMÃ¡laga": 7430, "Ġpermita": 7431, "tid": 7432, "Ġingles": 7433, "Ġasesina": 7434, "Ġactuaciones": 7435, "ĠFamil": 7436, "ĠArte": 7437, "Ġresuel": 7438, "Ġpatr": 7439, "Ġbras": 7440, "Ã§": 7441, "ciÃĥ": 7442, "Ġencab": 7443, "Ġoperativo": 7444, "Ã©ticos": 7445, "Ġpreparado": 7446, "Ġquede": 7447, "arlas": 7448, "ĠUnidad": 7449, "rÃ©": 7450, "ĠHumanos": 7451, "bamos": 7452, "Ġdichos": 7453, "ĠHace": 7454, "Ġfues": 7455, "lia": 7456, "Ġintegrantes": 7457, "gin": 7458, "ĠpidiÃ³": 7459, "Ġpasaj": 7460, "ĠVie": 7461, "Ã±ez": 7462, "Ġinmediatamente": 7463, "Ġjud": 7464, "isco": 7465, "ĠColegio": 7466, "Ġpobreza": 7467, "Ġpanor": 7468, "rana": 7469, "ish": 7470, "ĠdocumentaciÃ³n": 7471, "Ġinvestigaciones": 7472, "Ġtrayectoria": 7473, "unciÃ³n": 7474, "Ġtum": 7475, "Ġtalento": 7476, "domin": 7477, "ĠprogramaciÃ³n": 7478, "44": 7479, "ĠHon": 7480, "ĠMc": 7481, "Ġlla": 7482, "Ġimplan": 7483, "Ġvigente": 7484, "Ġrelaj": 7485, "riel": 7486, "ĠFab": 7487, "Ġenfoque": 7488, "undo": 7489, "ĠdefiniciÃ³n": 7490, "imp": 7491, "ĠLeg": 7492, "Ġchat": 7493, "Ġcompetencias": 7494, "Ġponen": 7495, "Ġgustado": 7496, "Ġtrabajan": 7497, "Ġarquitectura": 7498, "Ġcandidatos": 7499, "Ġaplica": 7500, "Ġtestimon": 7501, "Ġllegue": 7502, "ĠindÃŃgen": 7503, "venciones": 7504, "ĠpublicÃ³": 7505, "Ġafil": 7506, "Ġconsumidores": 7507, "Ġpolvo": 7508, "Ġpreguntar": 7509, "ende": 7510, "Ġ2004": 7511, "Ġllamadas": 7512, "Ġavance": 7513, "Ġequival": 7514, "Mientras": 7515, "ĠLes": 7516, "Ġrecre": 7517, "ĠAlcal": 7518, "ĠFacultad": 7519, "desa": 7520, "Ġvuelto": 7521, "ĠAsimismo": 7522, "Ġtoca": 7523, "ĠacompaÃ±ado": 7524, "Ġcolon": 7525, "ĠTurismo": 7526, "Ġcelular": 7527, "Ġseries": 7528, "Ġseria": 7529, "Ġgratuito": 7530, "Ġjugue": 7531, "Ġ?": 7532, "zados": 7533, "Ġadquis": 7534, "ny": 7535, "ĠPuedes": 7536, "Ġnegra": 7537, "Ġpus": 7538, "mobil": 7539, "31": 7540, "ĠFar": 7541, "Ġirre": 7542, "sic": 7543, "ĠdiseÃ±ado": 7544, "OC": 7545, "Ġreemp": 7546, "Ġlaborales": 7547, "Ġsing": 7548, "imnas": 7549, "Ġdaba": 7550, "tn": 7551, "ĠRafael": 7552, "Ġvitam": 7553, "tencia": 7554, "Ġmoles": 7555, "ucle": 7556, "ÃįA": 7557, "Ġperf": 7558, "ĠTrabaj": 7559, "Ġdefinir": 7560, "Ġtabla": 7561, "ĠfilosofÃŃa": 7562, "ĠDÃŃaz": 7563, "Ġnumerosos": 7564, "Ġsug": 7565, "SA": 7566, "Ġactriz": 7567, "Ġsolar": 7568, "Ġcorpora": 7569, "Ġmet": 7570, "ĠUruguay": 7571, "Ġcargos": 7572, "Ġlectores": 7573, "ĠLic": 7574, "ĠcontemporÃ¡n": 7575, "ĠSupre": 7576, "by": 7577, "ĠArtes": 7578, "Ġdirigida": 7579, "Ġcartas": 7580, "ICO": 7581, "ĠprisiÃ³n": 7582, "zadas": 7583, "Ġalternativas": 7584, "Ġautob": 7585, "ray": 7586, "Ġrock": 7587, "ind": 7588, "Ġprofundo": 7589, "ĠocurriÃ³": 7590, "ĠUsu": 7591, "Ġocci": 7592, "Ġtrim": 7593, "ĠtendrÃŃa": 7594, "Ġdocentes": 7595, "Ġsufrir": 7596, "Ġpiensa": 7597, "aÃ±os": 7598, "umbre": 7599, "ĠconcentraciÃ³n": 7600, "Ã³st": 7601, "Mo": 7602, "apia": 7603, "Ġtendencias": 7604, "Ġapuesta": 7605, "Ġfirme": 7606, "erra": 7607, "ĠSim": 7608, "ĠtransformaciÃ³n": 7609, "Ġseg": 7610, "rom": 7611, "Ġtratamientos": 7612, "ĠFa": 7613, "ĠRub": 7614, "ĨĴ": 7615, "Ġcomplicado": 7616, "ĠterminÃ³": 7617, "ĠRoma": 7618, "Ġreuniones": 7619, "Ġdesarrolla": 7620, "ĠdebÃŃa": 7621, "ĠPSOE": 7622, "Ġcontinua": 7623, "Ġinversiones": 7624, "ĠEconomÃŃa": 7625, "ĠBos": 7626, "ĠĠĠĠ": 7627, "Ġgraves": 7628, "Ġbols": 7629, "Ġdosis": 7630, "inadas": 7631, "asas": 7632, "tedr": 7633, "Ġdra": 7634, "Ġformulario": 7635, "cua": 7636, "Ġcuerpos": 7637, "emor": 7638, "Ġsober": 7639, "Ġhorizon": 7640, "ĠfÃ³rm": 7641, "ĠsÃº": 7642, "Ġgobernador": 7643, "Ġinstalar": 7644, "ĠPadre": 7645, "Ġmunicipales": 7646, "32": 7647, "ĠElla": 7648, "mÃ¡tica": 7649, "Ġinquie": 7650, "ĠplÃ¡stico": 7651, "Ġvirtual": 7652, "Ġline": 7653, "Ġcristal": 7654, "ĠagregÃ³": 7655, "ĠÃļ": 7656, "Ġpuntu": 7657, "Ġquitar": 7658, "Ġtol": 7659, "Ġcontratos": 7660, "ĠLima": 7661, "Ġpropone": 7662, "Ġexpectativas": 7663, "Ġeconom": 7664, "Ġregiones": 7665, "Ġintelectual": 7666, "ĠCir": 7667, "terÃŃas": 7668, "Ġ75": 7669, "ĠCD": 7670, "ĠVi": 7671, "cedentes": 7672, "olut": 7673, "ĠJef": 7674, "Ġreti": 7675, "ĠCampe": 7676, "Ġconocidos": 7677, "46": 7678, "Ġplas": 7679, "ĠAlex": 7680, "Ġ37": 7681, "Ã³logos": 7682, "ĠbÃ¡sicos": 7683, "ans": 7684, "Cada": 7685, "Ã¨": 7686, "taje": 7687, "Ġcifras": 7688, "ĠOrganizaciÃ³n": 7689, "Ġafron": 7690, "ĠDiseÃ±o": 7691, "ĠEdu": 7692, "ĠhistÃ³rica": 7693, "Ġaportar": 7694, "erar": 7695, "Ġconsigue": 7696, "ÃŃmp": 7697, "ĠmÃ¡g": 7698, "Ġataques": 7699, "Ġadver": 7700, "dador": 7701, "Ġgoles": 7702, "Ġespiri": 7703, "ilaciÃ³n": 7704, "hÃŃ": 7705, "xi": 7706, "Ġsacri": 7707, "Ġaca": 7708, "ĠMujeres": 7709, "Ġembarazo": 7710, "Ġrecomiendo": 7711, "arro": 7712, "ĠclasificaciÃ³n": 7713, "Ġtomando": 7714, "Ġprotagonistas": 7715, "ement": 7716, "Ġguardar": 7717, "ĠGÃ³mez": 7718, "rosoft": 7719, "Ã³lica": 7720, "Estos": 7721, "gano": 7722, "camiento": 7723, "He": 7724, "Ġprepara": 7725, "Ġabund": 7726, "ĠTorre": 7727, "Ġdeterminado": 7728, "Ġprofundidad": 7729, "ĠAlgunos": 7730, "Ġescu": 7731, "Ġenfrentar": 7732, "ĠalemÃ¡n": 7733, "Ġsesiones": 7734, "Ġaconse": 7735, "ĠZaragoza": 7736, "Ġfiguras": 7737, "Ġrodil": 7738, "Ġolvidar": 7739, "izaciones": 7740, "Ġmono": 7741, "ĠBor": 7742, "Ġintercambio": 7743, "ĠTi": 7744, "Ġpiernas": 7745, "ÃŃcula": 7746, "ulada": 7747, "Ġge": 7748, "Ġrealizando": 7749, "ĠllevarÃ¡": 7750, "Ġempresarios": 7751, "Ġhomb": 7752, "Ġnormalmente": 7753, "Ġnotas": 7754, "Ġpuente": 7755, "ĠcomparaciÃ³n": 7756, "ĠtensiÃ³n": 7757, "ĠMuchas": 7758, "Ġdiferenci": 7759, "UM": 7760, "Ġmedicamentos": 7761, "ss": 7762, "ĠJim": 7763, "ume": 7764, "Ġdivis": 7765, "itarias": 7766, "Ġtarjetas": 7767, "ertos": 7768, "ĠMol": 7769, "Ġcomprob": 7770, "Ġaspir": 7771, "entaria": 7772, "olutamente": 7773, "Ġrival": 7774, "Ġgris": 7775, "vez": 7776, "ĠmontÃ³n": 7777, "ick": 7778, "sto": 7779, "ert": 7780, "uz": 7781, "Ġacuerdos": 7782, "ĠvÃŃas": 7783, "Ġfrac": 7784, "Ġ2019": 7785, "Ġamp": 7786, "urar": 7787, "Ġmando": 7788, "Ġmorir": 7789, "Man": 7790, "ĠcÃ¡maras": 7791, "Ġubicada": 7792, "mej": 7793, "Ġcolocar": 7794, "Ġcoleg": 7795, "Ġretras": 7796, "ĠMonte": 7797, "Ġ2003": 7798, "cula": 7799, "Ġcambia": 7800, "vie": 7801, "Ġtraer": 7802, "ĠcontÃ³": 7803, "Ġsacerdo": 7804, "09": 7805, "Ġpac": 7806, "Ġproveedores": 7807, "voz": 7808, "Fin": 7809, "Ġjoy": 7810, "ĠcÃ³modo": 7811, "Ġcambiado": 7812, "07": 7813, "Ġfisc": 7814, "icano": 7815, "bit": 7816, "Ġlav": 7817, "Ġdesh": 7818, "ieres": 7819, "fos": 7820, "Ġvege": 7821, "Ġinvitados": 7822, "iner": 7823, "Luego": 7824, "ĠInte": 7825, "Ġeducativo": 7826, "Ġgrados": 7827, "06": 7828, "ficamente": 7829, "Ġlegisla": 7830, "Ġconstituye": 7831, "jÃ³": 7832, "torÃŃa": 7833, "Ġvisual": 7834, "Hab": 7835, "Ġposiciones": 7836, "Ġsiguiendo": 7837, "ĠpodÃ©is": 7838, "ĠconfiguraciÃ³n": 7839, "Ġinterno": 7840, "Ġsiglos": 7841, "Ġreconocido": 7842, "ĠHernÃ¡ndez": 7843, "icana": 7844, "Ġfestival": 7845, "ĠSeb": 7846, "199": 7847, "ĠAtl": 7848, "vela": 7849, "ĠactualizaciÃ³n": 7850, "'.": 7851, "ĠaÃ©": 7852, "ĠMejor": 7853, "Ġreconoce": 7854, "ĠsatisfacciÃ³n": 7855, "ĠciudadanÃŃa": 7856, "orld": 7857, "Tra": 7858, "ĠAlejandro": 7859, "rillo": 7860, "ĠGranada": 7861, "Ġmaneras": 7862, "lle": 7863, "Ġapoyar": 7864, "Ġaparte": 7865, "iduos": 7866, "ĠTam": 7867, "ĠtransmisiÃ³n": 7868, "Ġlad": 7869, "Ġrelacionado": 7870, "ĠEspecial": 7871, "Ġcopia": 7872, "Ġaniversario": 7873, "vido": 7874, "Ġextremo": 7875, "Ġservidor": 7876, "ĠÃģlvar": 7877, "Ġreper": 7878, "âĢĻ.": 7879, "Ġpaseo": 7880, "Ġhermosa": 7881, "Ġvid": 7882, "Ġmarido": 7883, "Ġcastel": 7884, "ĠAf": 7885, "inten": 7886, "ĠWar": 7887, "Ġunif": 7888, "Ġbasada": 7889, "Ġindependencia": 7890, "Ġrecop": 7891, "Ð¸": 7892, "Ġignor": 7893, "ĠInvestigaciÃ³n": 7894, "ĠTan": 7895, "Ġproporcionar": 7896, "ĠPrimera": 7897, "ĠBra": 7898, "ĠKa": 7899, "ĠmenÃº": 7900, "Ġcobertura": 7901, "Ġincu": 7902, "Ġparedes": 7903, "Ġabogado": 7904, "ĠWill": 7905, "ĠrevoluciÃ³n": 7906, "ĠtomÃ³": 7907, "ĠConse": 7908, "Ġaumenta": 7909, "Ġrico": 7910, "Ġgarantiz": 7911, "Ġextranjero": 7912, "Ġmargen": 7913, "lga": 7914, "nal": 7915, "Ġlook": 7916, "Ġcrema": 7917, "ĠexpresÃ³": 7918, "Ġconm": 7919, "ĠMario": 7920, "igual": 7921, "ĠAcu": 7922, "Ġpienso": 7923, "08": 7924, "iosas": 7925, "Ġtiro": 7926, "rilla": 7927, "Ġespiritual": 7928, "Ġartifici": 7929, "ĠEse": 7930, "Ġbotel": 7931, "Ġregreso": 7932, "Pres": 7933, "Ġarma": 7934, "utas": 7935, "Ã³rico": 7936, "Ġpublici": 7937, "Ġom": 7938, "ĠvÃŃn": 7939, "Ġlament": 7940, "Ġdigitales": 7941, "Ġtap": 7942, "Ġdesayuno": 7943, "Ġ55": 7944, "ĠcÃ¡rcel": 7945, "Ġdipl": 7946, "ĠDar": 7947, "Ġsorte": 7948, "ĠArch": 7949, "Ġorganismos": 7950, "endario": 7951, "Ġinjust": 7952, "Ġhues": 7953, "Ġatribu": 7954, "iario": 7955, "Ġequivoc": 7956, "cieron": 7957, "ĠPÃºblico": 7958, "ĠâĨĴ": 7959, "ĠlegislaciÃ³n": 7960, "tusias": 7961, "Ġalojamiento": 7962, "oca": 7963, "Ġretra": 7964, "78": 7965, "ĠaprobaciÃ³n": 7966, "aller": 7967, "Ġth": 7968, "ĠCarmen": 7969, "endido": 7970, "Ġchocola": 7971, "'s": 7972, "izan": 7973, "Ġcombina": 7974, "Ġtejido": 7975, "ifornia": 7976, "Ġempu": 7977, "Ġcritic": 7978, "Ġaqui": 7979, "ĠinscripciÃ³n": 7980, "Ġrespectivamente": 7981, "Ġletra": 7982, "Ġentrenador": 7983, "Ġimpuesto": 7984, "Ġdependiendo": 7985, "gip": 7986, "ĠEnerg": 7987, "Ġmolino": 7988, "Ġox": 7989, "Ġdientes": 7990, "uca": 7991, "Ġinteligente": 7992, "Ġ<": 7993, "Ġfinanciero": 7994, "Ġdelitos": 7995, "Ġdemostrado": 7996, "Ġrecomendable": 7997, "Asimismo": 7998, "Ġaden": 7999, "gna": 8000, "Ġamenaza": 8001, "Ġincom": 8002, "ĠLiber": 8003, "terial": 8004, "Ġformado": 8005, "Ġrecomienda": 8006, "Ġpensado": 8007, "ingÃ¼": 8008, "ĠGob": 8009, "Ġnav": 8010, "Ã©spe": 8011, "Ġrelato": 8012, "CH": 8013, "amas": 8014, "Algun": 8015, "ĠpÃ¡r": 8016, "Ġhecha": 8017, "ĠiniciÃ³": 8018, "cÃ¡n": 8019, "itados": 8020, "49": 8021, "ĠmÃ¡quinas": 8022, "Ġcombate": 8023, "Ġmodificar": 8024, "merÃŃa": 8025, "Ġrestos": 8026, "ĠportÃ¡": 8027, "ĠNegro": 8028, "ÃŃnea": 8029, "Uno": 8030, "ĠNaciÃ³n": 8031, "Ġdarse": 8032, "Ġmoderna": 8033, "Ġadelga": 8034, "Ġcapacidades": 8035, "ĠIns": 8036, "OD": 8037, "ĠPortu": 8038, "ĠreflexiÃ³n": 8039, "od": 8040, "ĠÃ©stos": 8041, "ĠextensiÃ³n": 8042, "gotÃ¡": 8043, "ĠPoder": 8044, "ĠAnti": 8045, "Ġinstrumento": 8046, "ĠnaciÃ³n": 8047, "ĠEcuador": 8048, "Ġcircuito": 8049, "Ġvital": 8050, "inio": 8051, "ĠencontrarÃ¡s": 8052, "ĠdiagnÃ³stico": 8053, "Ġentusias": 8054, "Ġtomado": 8055, "mana": 8056, "Ġperiodistas": 8057, "ĠRiv": 8058, "Ġbrindar": 8059, "ĠtendrÃ¡s": 8060, "laterra": 8061, "Ġintensidad": 8062, "ĠCastro": 8063, "ides": 8064, "Ġmatar": 8065, "into": 8066, "Ġconsejo": 8067, "Ġpublicar": 8068, "Ġemergencia": 8069, "rista": 8070, "Ġtenia": 8071, "unas": 8072, "Ġhaces": 8073, "Ġcontamos": 8074, "Ġaudiencia": 8075, "Ġcole": 8076, "Ġlisto": 8077, "Ġcomodidad": 8078, "Ġcuri": 8079, "mir": 8080, "Ġgay": 8081, "Ġextranjeros": 8082, "ĠÃ¡rboles": 8083, "Ġinteresados": 8084, "ĠraÃŃz": 8085, "entimiento": 8086, "Ġdejamos": 8087, "Ġdeportivo": 8088, "strucciÃ³n": 8089, "Ġrealizadas": 8090, "ĠmÃŃnima": 8091, "aras": 8092, "tz": 8093, "Ġeficiente": 8094, "Ġterraza": 8095, "Ġexplos": 8096, "quilidad": 8097, "ĠFoto": 8098, "ĠBr": 8099, "Ġdijeron": 8100, "Ġevidencia": 8101, "ĠcatÃ³": 8102, "Ġsinc": 8103, "Ġasistir": 8104, "Ġcinta": 8105, "ĠUE": 8106, "ĠTex": 8107, "Ġluces": 8108, "Ġdign": 8109, "top": 8110, "ĠCamp": 8111, "GA": 8112, "Ġabst": 8113, "Ġ65": 8114, "Ġasuntos": 8115, "Â©": 8116, "2017": 8117, "ĠContra": 8118, "ĠHD": 8119, "Ãºc": 8120, "mica": 8121, "Ġprofunda": 8122, "Ġpreocupa": 8123, "Ġpublicada": 8124, "Ġpreviamente": 8125, "Ġinformes": 8126, "Ġpude": 8127, "erales": 8128, "Ġturno": 8129, "Ġemail": 8130, "Ġvel": 8131, "Ġcreen": 8132, "ĠOro": 8133, "Ġdiversidad": 8134, "Ġhablamos": 8135, "ĠdeberÃŃan": 8136, "Ġfilm": 8137, "sito": 8138, "Ġcerem": 8139, "ĠAgencia": 8140, "Ġconductor": 8141, "ĠCarta": 8142, "Ġplane": 8143, "Ġdocente": 8144, "Ġabsolutamente": 8145, "Ġguard": 8146, "Ġdivertido": 8147, "Ġsimb": 8148, "Ġrevolucion": 8149, "Ġbrasile": 8150, "iter": 8151, "Ġparo": 8152, "ĠNicol": 8153, "Ġcog": 8154, "Ġmonitor": 8155, "Ġproductores": 8156, "Ġacabado": 8157, "Ġfacilidad": 8158, "mato": 8159, "Ġaisl": 8160, "Ġlongitud": 8161, "Ġhidra": 8162, "Ġpobres": 8163, "Ġalumno": 8164, "Ġcorrectamente": 8165, "Ġquieras": 8166, "Ġpuls": 8167, "Ġasistentes": 8168, "ĠpreocupaciÃ³n": 8169, "Ġmaqu": 8170, "ĠaviÃ³n": 8171, "endaciones": 8172, "paÃ±as": 8173, "incu": 8174, "Ġrepos": 8175, "Bueno": 8176, "Ġexpon": 8177, "Ġcomentar": 8178, "Ġeditorial": 8179, "icar": 8180, "Ġnumerosas": 8181, "Ġmedicina": 8182, "ĠEsper": 8183, "Ġmatem": 8184, "ugÃŃa": 8185, "ĠVirgen": 8186, "ĠPresiden": 8187, "Ġmagia": 8188, "icias": 8189, "ĠcientÃŃfico": 8190, "ĠSU": 8191, "Ġinfancia": 8192, "Ġfri": 8193, "Ġtotalidad": 8194, "Ġcero": 8195, "Ġdiaria": 8196, "Ġaporta": 8197, "Ġdiscrim": 8198, "Ġdescarga": 8199, "Ã±ado": 8200, "hua": 8201, "ĠencontrÃ³": 8202, "allado": 8203, "Ġenlaces": 8204, "fru": 8205, "Ġapas": 8206, "Ġponerse": 8207, "Ġreferente": 8208, "ĠestrÃ©s": 8209, "ĠdiscusiÃ³n": 8210, "ĠpeticiÃ³n": 8211, "Ġextrem": 8212, "trÃ³leo": 8213, "Ġprevenir": 8214, "ĠestarÃŃa": 8215, "grafo": 8216, "ĠdifusiÃ³n": 8217, "entarios": 8218, "diciÃ³n": 8219, "grad": 8220, "idal": 8221, "hats": 8222, "Ġcach": 8223, "inan": 8224, "manes": 8225, "Ġfederal": 8226, "bes": 8227, "Ġabur": 8228, "ĠTodas": 8229, "ĠTes": 8230, "ĠBlack": 8231, "Â¡Â¡": 8232, "eco": 8233, "Ġestadio": 8234, "Ġtrae": 8235, "medio": 8236, "Ġayudan": 8237, "IR": 8238, "bor": 8239, "Ġesencia": 8240, "Ġsh": 8241, "Ġexclusivamente": 8242, "Ġcerrado": 8243, "iam": 8244, "Ġtriste": 8245, "Ġvirus": 8246, "Ġtable": 8247, "ĠPalacio": 8248, "Ġneu": 8249, "Ġinspec": 8250, "Ġocurrido": 8251, "ĠcomentÃ³": 8252, "ĠPodemos": 8253, "Ġmarcar": 8254, "Estamos": 8255, "yer": 8256, "Ġdias": 8257, "ĠPARA": 8258, "Ġefectiva": 8259, "ĠEqui": 8260, "ĠdeclarÃ³": 8261, "Ġperteneci": 8262, "Ġdedicada": 8263, "________": 8264, "Ġjuris": 8265, "Ġnarra": 8266, "ĠContin": 8267, "Ġcompuesto": 8268, "Ġexamen": 8269, "ĠBern": 8270, "omba": 8271, "Ġvisu": 8272, "ãĥ": 8273, "Ġdificultad": 8274, "ĠextraÃ±o": 8275, "denas": 8276, "Ġpertenece": 8277, "----": 8278, "Ġexclusiva": 8279, "ĠRosa": 8280, "Ġganador": 8281, "ĠelectrÃ³nica": 8282, "Gu": 8283, "Ġhambre": 8284, "Ġantiguos": 8285, "Ġconducta": 8286, "undaria": 8287, "Ġagradecer": 8288, "Ġproducido": 8289, "Ġbajos": 8290, "Ġllevaba": 8291, "Ġ39": 8292, "ĠilusiÃ³n": 8293, "Ġsuperiores": 8294, "ural": 8295, "ÃŃdos": 8296, "idaridad": 8297, "ĠconversaciÃ³n": 8298, "ĠcampeÃ³n": 8299, "ZA": 8300, "fera": 8301, "ĠconservaciÃ³n": 8302, "blemente": 8303, "ĠNuestro": 8304, "Ġresidencia": 8305, "Ġcena": 8306, "ĠWal": 8307, "Ġconflictos": 8308, "ĠVan": 8309, "Ġcompletar": 8310, "ĠFelipe": 8311, "Ã¡rez": 8312, "Ġexceso": 8313, ".âĢĶ": 8314, "df": 8315, "lie": 8316, "Ġtercero": 8317, "oluciones": 8318, "Ġusado": 8319, "Ġcreatividad": 8320, "uto": 8321, "Ġvenido": 8322, "Ġcuadros": 8323, "ĠexplotaciÃ³n": 8324, "Ser": 8325, "04": 8326, "Ġpremi": 8327, "Ġplen": 8328, "ĠRicardo": 8329, "Ġbe": 8330, "ĠStar": 8331, "ĠSebasti": 8332, "Ġdiscre": 8333, "jada": 8334, "ĠMayor": 8335, "Ġtradu": 8336, "ĠAntes": 8337, "cinas": 8338, "ĠPh": 8339, "ĠMetro": 8340, "Ġpaquete": 8341, "igh": 8342, "Ġobligaciones": 8343, "ĠHombre": 8344, "Ġavances": 8345, "Ġgracia": 8346, "ĠOficial": 8347, "Ġestructuras": 8348, "ĠIP": 8349, "Ġocupar": 8350, "ĠEduardo": 8351, "Ġcen": 8352, "Ġtranquilidad": 8353, "Ġador": 8354, "Ġiban": 8355, "ÃŃculas": 8356, "ĠreligiÃ³n": 8357, "65": 8358, "Ġencargado": 8359, "ĠDomingo": 8360, "Ġdesgra": 8361, "Ġejercer": 8362, "...]": 8363, "ĠpoesÃŃa": 8364, "ĠComunicaciÃ³n": 8365, "ĠiPhone": 8366, "cioso": 8367, "Ġsaludable": 8368, "Ġahorro": 8369, "ĠDip": 8370, "ĠSoy": 8371, "Ġitaliano": 8372, "Ġaer": 8373, "Ġcontactar": 8374, "dismo": 8375, "Ġrecoger": 8376, "Ġrural": 8377, "Ġconstruc": 8378, "rones": 8379, "Ġexistentes": 8380, "ĠrecepciÃ³n": 8381, "denes": 8382, "Ġinteresado": 8383, "Ġdecide": 8384, "Ġtecho": 8385, "Ġdrogas": 8386, "Ġmasco": 8387, "Ġriqueza": 8388, "Estas": 8389, "Ġproducen": 8390, "Ġancho": 8391, "ĠBil": 8392, "Sal": 8393, "ĠNaciones": 8394, "ĠEsa": 8395, "ĠcrÃŃticas": 8396, "Ġhosp": 8397, "ĠexcepciÃ³n": 8398, "Ġmultitud": 8399, "Ġbarra": 8400, "Ġ2002": 8401, "mis": 8402, "ĠCr": 8403, "ĠEEUU": 8404, "Fue": 8405, "Ġsalen": 8406, "Ġcaminos": 8407, "ĠSerg": 8408, "Ġencuentros": 8409, "Ġmete": 8410, "Ġlesiones": 8411, "dias": 8412, "Ġplataformas": 8413, "Ġautos": 8414, "ĠControl": 8415, "ĠPS": 8416, "Ġpositiva": 8417, "Ġfinancieros": 8418, "lico": 8419, "Ġatractivo": 8420, "Ver": 8421, "ilas": 8422, "ĠreacciÃ³n": 8423, "Ġluchar": 8424, "ĠBu": 8425, "ĠCultural": 8426, "Ġhorno": 8427, "mala": 8428, "Ġbrillante": 8429, "ĠcooperaciÃ³n": 8430, "Ġruido": 8431, "Ġ2001": 8432, "toÃ±o": 8433, "Ġrepetir": 8434, "Ġpendiente": 8435, "inales": 8436, "ĠBolivia": 8437, "Ġdirectora": 8438, "cambi": 8439, "ĠIndustri": 8440, "americanos": 8441, "Ġpura": 8442, "icha": 8443, "Ġcomedor": 8444, "Ġcau": 8445, "Ġigualmente": 8446, "ĠtraducciÃ³n": 8447, "Ġolvi": 8448, "Ġsindica": 8449, "Ġvuestra": 8450, "Ð½": 8451, "ierte": 8452, "Ġtendremos": 8453, "ĠestÃ©tica": 8454, "Ġperj": 8455, "ĠIndia": 8456, "ĠCel": 8457, "ĠBogotÃ¡": 8458, "ĠCalifornia": 8459, "Ġdistinto": 8460, "ĠUsted": 8461, "cando": 8462, "ĠhÃŃ": 8463, "Ġbandas": 8464, "ĠInde": 8465, "ĠLOS": 8466, "Ġromper": 8467, "Ġinsu": 8468, "ĠÃ¡nimo": 8469, "ĠLle": 8470, "Ġpermitido": 8471, "Ġconsciente": 8472, "ĠProyecto": 8473, "UD": 8474, "Ġvideoj": 8475, "itivo": 8476, "parte": 8477, "Ġesperan": 8478, "Ġesperaba": 8479, "Ġtemporal": 8480, "ĠfinanciaciÃ³n": 8481, "ĠCe": 8482, "ĠEspaÃ±ol": 8483, "ĠInglaterra": 8484, "terapia": 8485, "Ġinstante": 8486, "ĠAS": 8487, "Publ": 8488, "traciÃ³n": 8489, "Ġpap": 8490, "Ġperju": 8491, "ĠmÃ³d": 8492, "Ġincluidos": 8493, "Ġintenta": 8494, "ĠSantos": 8495, "ĠdivisiÃ³n": 8496, "ĠMicrosoft": 8497, "itores": 8498, "ĠmÃ©dica": 8499, "Ġindividuales": 8500, "ĠMexic": 8501, "Ġpodamos": 8502, "Ġcump": 8503, "Ġminist": 8504, "ning": 8505, "ĠColor": 8506, "aunque": 8507, "Ġcuarta": 8508, "Ã©nd": 8509, "Ġintroducir": 8510, "ĠIncluso": 8511, "Ġmanifies": 8512, "tricidad": 8513, "Ġmecanismos": 8514, "Ġhierro": 8515, "Ġpaisaje": 8516, "Ġpagos": 8517, "ĠRegistro": 8518, "Ġclim": 8519, "Ġsombra": 8520, "Ġadicionales": 8521, "Ġllevo": 8522, "ĠlÃ¡": 8523, "ÑĤ": 8524, "sh": 8525, "ĠAdo": 8526, "Ġpensamientos": 8527, "ficio": 8528, "eda": 8529, "Ġrema": 8530, "Ġsemej": 8531, "venil": 8532, "ĀĀĀĀĀĀĀĀĀĀĀĀĀĀĀĀ": 8533, "Ġdeje": 8534, "ormes": 8535, "Ġsecund": 8536, "ĠÃŃ": 8537, "ĠClas": 8538, "ĠcampaÃ±as": 8539, "Ġdocumental": 8540, "ĠIV": 8541, "ĠautorizaciÃ³n": 8542, "rate": 8543, "ĠEstudios": 8544, "Ġsociedades": 8545, "reros": 8546, "ĠTemp": 8547, "ĠelÃ©ctrico": 8548, "MI": 8549, "Ġfuese": 8550, "Ġmoneda": 8551, "ĠRio": 8552, "Ġabsoluto": 8553, "ĠQuer": 8554, "stagram": 8555, "Ġinstrucciones": 8556, "ĠCastel": 8557, "Ġresumen": 8558, "tÃŃas": 8559, "Ġoscuro": 8560, "ĠprofesiÃ³n": 8561, "ĠDra": 8562, "Ġmonum": 8563, "itÃ³": 8564, "Ġmaestros": 8565, "AquÃŃ": 8566, "Ġguste": 8567, "ĠromÃ¡n": 8568, "ecas": 8569, "Ġhoja": 8570, "Ġescla": 8571, "Ġrecetas": 8572, "ienta": 8573, "Ġclaves": 8574, "entario": 8575, "âĢ¦âĢ¦": 8576, "Ġnecesitamos": 8577, "Ġhue": 8578, "Ġagregar": 8579, "Ġcantidades": 8580, "Ġuniversidades": 8581, "Ġsaludo": 8582, "Ġauxil": 8583, "Ġarque": 8584, "Ġrecuerdos": 8585, "ĠcuÃ¡les": 8586, "Ġlabios": 8587, "Ġeducativa": 8588, "........": 8589, "glesias": 8590, "Ġrebel": 8591, "Ġfrontera": 8592, "Ãļ": 8593, "Ġestric": 8594, "ĠimplementaciÃ³n": 8595, "Ġentiende": 8596, "enz": 8597, "Ġconvenio": 8598, "antiles": 8599, "Ad": 8600, "Ġampliar": 8601, "ilio": 8602, "Ġafectados": 8603, "Ġcontrar": 8604, "bro": 8605, "Ġescritura": 8606, "Ġfinalizar": 8607, "Ġenrique": 8608, "ĠejÃ©rcito": 8609, "Ġestabilidad": 8610, "Ġinstancia": 8611, "Ġcaminar": 8612, "ĠAB": 8613, "tarÃ¡n": 8614, "ĠelectrÃ³nicos": 8615, "Ġurbano": 8616, "Ġagar": 8617, "Ġinstitucional": 8618, "Ġhablan": 8619, "Ġbajas": 8620, "Ġsalido": 8621, "ueble": 8622, "ĠautomÃ³vil": 8623, "Ġbosque": 8624, "66": 8625, "Ġanaliz": 8626, "Ġalmacenamiento": 8627, "Ġveter": 8628, "Ġcertificado": 8629, "ĠIr": 8630, "istemas": 8631, "Ġcuantos": 8632, "Ġchocolate": 8633, "jerÃŃa": 8634, "Ġjuega": 8635, "ĠpodÃŃan": 8636, "Ã³nimo": 8637, "ALES": 8638, "Ġconcluy": 8639, "SÃŃ": 8640, "ArtÃŃculo": 8641, "ĠmanifestÃ³": 8642, "Ġrecep": 8643, "abas": 8644, "Ġtonel": 8645, "Ġdemuestra": 8646, "Ġinsul": 8647, "ĠLan": 8648, "Ġlados": 8649, "Ġinsist": 8650, "cara": 8651, "mn": 8652, "ĠuniÃ³n": 8653, "iten": 8654, "ĠmostrÃ³": 8655, "tive": 8656, "Ġcuyos": 8657, "Ġtrabajador": 8658, "ĠBueno": 8659, "titudes": 8660, "CIONES": 8661, "Ġflujo": 8662, "Ġarmon": 8663, "Ġdiscapacidad": 8664, "Ġtemperaturas": 8665, "Ġescul": 8666, "ĠNatural": 8667, "Ġresiduos": 8668, "Ġnacido": 8669, "Ġquieran": 8670, "ĠProvincial": 8671, "Ġencabez": 8672, "Ġpiloto": 8673, "ĠpolÃ©m": 8674, "Ġhumil": 8675, "ĠSierra": 8676, "Ġfabricante": 8677, "ĠDiario": 8678, "ĠEstoy": 8679, "Ġsusp": 8680, "tamen": 8681, "Ġproven": 8682, "ĠAmeric": 8683, "Ġespecialista": 8684, "Ġbarco": 8685, "Ġalf": 8686, "ema": 8687, "Ġvertic": 8688, "Ġreloj": 8689, "Ġuniversal": 8690, "ĠBre": 8691, "Ġruedas": 8692, "ĠIma": 8693, "Ġdimensiones": 8694, "ĠmuriÃ³": 8695, "MS": 8696, "Ġdesas": 8697, "ĠnÃºc": 8698, "uera": 8699, "ashington": 8700, "Ġbl": 8701, "Ġrueda": 8702, "Ġdiscos": 8703, "ĠDigital": 8704, "Ġapreci": 8705, "Ġbalance": 8706, "ĠUnidas": 8707, "Ġrecomendaciones": 8708, "Ġindividuos": 8709, "ĠbÃ¡sico": 8710, "ĠCine": 8711, "ĠcariÃ±o": 8712, "Ġciudadano": 8713, "Ġagente": 8714, "ĠadaptaciÃ³n": 8715, "Ġinex": 8716, "uan": 8717, "ĠSud": 8718, "Ġorganizar": 8719, "Ã©tr": 8720, "Ġeuropeo": 8721, "Ġllan": 8722, "Ġcuidados": 8723, "ĠcomposiciÃ³n": 8724, "ĠQuÃ©": 8725, "Ġinmediata": 8726, "Ġajuste": 8727, "stica": 8728, "ĠparÃ¡": 8729, "Ġcalendario": 8730, "ĠmuchÃŃsimo": 8731, "cord": 8732, "Ġprimavera": 8733, "Ġconstitucional": 8734, "Ġimporte": 8735, "Ġpierde": 8736, "razgo": 8737, "Ġtransmitir": 8738, "Ġirreg": 8739, "Ġingenier": 8740, "Ġeuropeos": 8741, "Ġnaran": 8742, "trÃŃa": 8743, "ribuye": 8744, "Ġcolorear": 8745, "habilitaciÃ³n": 8746, "istar": 8747, "Ġindividuo": 8748, "Ġbailar": 8749, "ĠcumpleaÃ±os": 8750, "Ġfabricantes": 8751, "Ġusan": 8752, "ĠVar": 8753, "ibil": 8754, "Ġagenda": 8755, "Ġhaz": 8756, "tional": 8757, "uestras": 8758, "hibiciÃ³n": 8759, "Ġdespues": 8760, "ĠBlanco": 8761, "Ġdibujo": 8762, "ĠSant": 8763, "ĠAmbiente": 8764, "Hasta": 8765, "ĠDefensa": 8766, "Ġbebidas": 8767, "ĠCN": 8768, "Ġmadres": 8769, "ĠperdiÃ³": 8770, "ĠiluminaciÃ³n": 8771, "Ġprivileg": 8772, "âĢ¦)": 8773, "Ġjugando": 8774, "ĠcientÃŃfica": 8775, "ĠÃ³rganos": 8776, "Segu": 8777, "ĠDatos": 8778, "85": 8779, "ĠÃ³p": 8780, "Ġdiputado": 8781, "ĠdesempeÃ±": 8782, "ĠArt": 8783, "UT": 8784, "ips": 8785, "Ġmarch": 8786, "Ġ!": 8787, "Ġhermoso": 8788, "Ġtela": 8789, "Ġlider": 8790, "Ġrutas": 8791, "Ġconveniente": 8792, "ispo": 8793, "Ġexpresa": 8794, "ĠcaracterÃŃstica": 8795, "ĠÃŃndice": 8796, "ÃŃtico": 8797, "Ġponiendo": 8798, "cub": 8799, "Ġcomunicaciones": 8800, "Ġcoordin": 8801, "Ġgre": 8802, "Ġsentimiento": 8803, "Ġpermiso": 8804, "media": 8805, "Ġdamos": 8806, "ritos": 8807, "ÃŃg": 8808, "Ġcriterio": 8809, "ald": 8810, "Ġesperamos": 8811, "ĠTener": 8812, "cipe": 8813, "Ġsobres": 8814, "Ġllegando": 8815, "ĠQuiz": 8816, "jando": 8817, "uerzo": 8818, "uena": 8819, "Ġutilidad": 8820, ",,": 8821, "Ġimprescindible": 8822, "urias": 8823, "Ġveinte": 8824, "tander": 8825, "Ġdisponibilidad": 8826, "Ġtranquilo": 8827, "tipo": 8828, "ĠcirculaciÃ³n": 8829, "martph": 8830, "ĠLen": 8831, "Ġsalvar": 8832, "ĠcoordinaciÃ³n": 8833, "utados": 8834, "ĠdesempeÃ±o": 8835, "ĠSociales": 8836, "usto": 8837, "Ġcans": 8838, "Ġmusicales": 8839, "Ġpuro": 8840, "ĠHan": 8841, "Ġavanzar": 8842, "].": 8843, "Ġiniciativas": 8844, "Ġestatu": 8845, "Ġturistas": 8846, "Ġincrement": 8847, "Ġjornadas": 8848, "Ġeficacia": 8849, "Ġcien": 8850, "Ġregistrado": 8851, "Ġcicl": 8852, "ĠxD": 8853, "ĠespecÃŃfico": 8854, "Ġtratando": 8855, "Ġmister": 8856, "ĠKar": 8857, "Ġabsoluta": 8858, "ĠHacienda": 8859, "ĠMayo": 8860, "Ġconsideran": 8861, "Ġculo": 8862, "Ġdoce": 8863, "ĠReyes": 8864, "Ġresponde": 8865, "tarlo": 8866, "acu": 8867, "Otro": 8868, "Ġ42": 8869, "Emp": 8870, "toriales": 8871, "Ġexc": 8872, "Ġbasa": 8873, "Ġrequieren": 8874, "ĠseÃ±ora": 8875, "Ġenemigo": 8876, "gran": 8877, "ĠAllÃŃ": 8878, "ĠSO": 8879, "ĠllamÃ³": 8880, "ĠcapacitaciÃ³n": 8881, "Â·": 8882, "ĠÃ³pti": 8883, "Ġhubiese": 8884, "ĠChar": 8885, "Ġplayas": 8886, "Ġdistingu": 8887, "Ġdedos": 8888, "Cons": 8889, "Ġterminado": 8890, "Ġtrimestre": 8891, "ĠPapa": 8892, "Ca": 8893, "Ġpasajeros": 8894, "Ġdato": 8895, "Ġrosa": 8896, "03": 8897, "ĠFun": 8898, "ÃŃficamente": 8899, "ĠpetrÃ³leo": 8900, "acha": 8901, "tecas": 8902, "Ġempie": 8903, "ĠPanamÃ¡": 8904, "sula": 8905, "Ġdepos": 8906, "Ġfrag": 8907, "Ġgimnas": 8908, "Ġexperto": 8909, "cemos": 8910, "ĠjurÃŃdica": 8911, "42": 8912, "Ġayudas": 8913, "Ġrealizados": 8914, "alizaciones": 8915, "Ġcola": 8916, "ĠorientaciÃ³n": 8917, "ĠXIX": 8918, "ĠmillÃ³n": 8919, "ĠdueÃ±o": 8920, "Ġcompens": 8921, "Ġcuero": 8922, "Ġplantilla": 8923, "ĠidentificaciÃ³n": 8924, "Ġaliv": 8925, "ĠmodificaciÃ³n": 8926, "bao": 8927, "88": 8928, "Ġmodern": 8929, "Ġutilizados": 8930, "ĠDI": 8931, "trans": 8932, "Ġvoces": 8933, "Ġaviso": 8934, "Ġprivadas": 8935, "ĠreÃºn": 8936, "taÃ±a": 8937, "Ġsaga": 8938, "Ġrecorrer": 8939, "ĠbaÃ±os": 8940, "ĠVia": 8941, "ĠPeÃ±a": 8942, "ãĤ": 8943, "Ġaust": 8944, "Ġaprobado": 8945, "ĠEstamos": 8946, "ĠRegional": 8947, "tibles": 8948, "Ġmodos": 8949, "ĠmamÃ¡": 8950, "Ġrepresentan": 8951, "atemala": 8952, "ĠdÃ©bil": 8953, "ĠOficina": 8954, "Ġlanzar": 8955, "ĠPR": 8956, "Ġindustriales": 8957, "Ã³sitos": 8958, "ĠCÃ³mo": 8959, "ĠToda": 8960, "ajaja": 8961, "Ġmaterias": 8962, "-.": 8963, "Ġrenta": 8964, "icioso": 8965, "Ġmantienen": 8966, "ĠNicolÃ¡s": 8967, "ak": 8968, "ĠFormaciÃ³n": 8969, "ĠMedia": 8970, "ted": 8971, "Ġbron": 8972, "Ġasumir": 8973, "Ġfum": 8974, "Ġaluminio": 8975, "trices": 8976, "ĠcontrataciÃ³n": 8977, "ĠcatÃ¡logo": 8978, "Ġdeseos": 8979, "Ġï": 8980, "Ġmanga": 8981, "ĠSexo": 8982, "tle": 8983, "Ġpreserv": 8984, "ĠRamÃ³n": 8985, "...)": 8986, "ĠlÃ³gica": 8987, "anc": 8988, "ĠAutÃ³noma": 8989, "ĠReglamento": 8990, "Ġconstantemente": 8991, "Ġprivacidad": 8992, "Ġwith": 8993, "Ġpercib": 8994, "Ġentiendo": 8995, "Ġfamosa": 8996, "Sab": 8997, "tinas": 8998, "ĠInstagram": 8999, "Ġfrutas": 9000, "fun": 9001, "Ġrecientes": 9002, "ĠFondo": 9003, "Ġ600": 9004, "ĠMurcia": 9005, "dea": 9006, "Ġjuventud": 9007, "Ġmexicana": 9008, "Ġrango": 9009, "anal": 9010, "vol": 9011, "Ġquedarse": 9012, "ĠconclusiÃ³n": 9013, "Ġceb": 9014, "fonso": 9015, "Ġmadru": 9016, "ĠBien": 9017, "ĠcomprensiÃ³n": 9018, "ĠOtros": 9019, "ĠSegunda": 9020, "Ġcultivo": 9021, "Ġfortalecer": 9022, "leto": 9023, "Ġcafe": 9024, "ĠSergio": 9025, "02": 9026, "Ġhaci": 9027, "menes": 9028, "Ġsindic": 9029, "Ġsuav": 9030, "Ġferia": 9031, "ĠharÃ¡n": 9032, "Ġimpresionante": 9033, "Ġconfun": 9034, "Ġapartamento": 9035, "IST": 9036, "Ġtreinta": 9037, "Ġescas": 9038, "Ġmodalidad": 9039, "ĠficciÃ³n": 9040, "Ġmovilidad": 9041, "ĠmetÃ¡l": 9042, "Ġmalos": 9043, "ĠBea": 9044, "box": 9045, "64": 9046, "Ãºsica": 9047, "Ġcontrad": 9048, "trada": 9049, "Ġabogados": 9050, "Ġit": 9051, "Ġdestacado": 9052, "Ġbeso": 9053, "Ġestima": 9054, "ĠNie": 9055, "Ġces": 9056, "nado": 9057, "Ġhttps": 9058, "Antes": 9059, "Ġpermanecer": 9060, "ĠFiscalÃŃa": 9061, "Ġasigna": 9062, "Ġgarantiza": 9063, "Ġvuestro": 9064, "Ġfiel": 9065, "Ġsumar": 9066, "iti": 9067, "ĠPOR": 9068, "ĠseÃ±ales": 9069, "Ġnoc": 9070, "Ġdesl": 9071, "ĠMartin": 9072, "Ġvuelos": 9073, "Ġliqu": 9074, "Ġcartel": 9075, "ĠdifÃŃciles": 9076, "Ġvicepres": 9077, "Ġargentina": 9078, "Ġinser": 9079, "ĠSemana": 9080, "Ġportu": 9081, "ĠVas": 9082, "Ġmagist": 9083, "Muchas": 9084, "Ġvinos": 9085, "Ġinformado": 9086, "Ġsecu": 9087, "Ġdeportiva": 9088, "esas": 9089, "Ã©rico": 9090, "Ġbonita": 9091, "ĠSho": 9092, "istos": 9093, "Ġhol": 9094, "ĠCuer": 9095, "Ġculp": 9096, "ĠCoo": 9097, "ĠNosotros": 9098, "Ġimpe": 9099, "Ġcombatir": 9100, "Ġaporte": 9101, "Ġende": 9102, "Ġpata": 9103, "ĠcompeticiÃ³n": 9104, "Ġense": 9105, "icante": 9106, "Ġanunciado": 9107, "Ġcreando": 9108, "Ġetapas": 9109, "Ġcortes": 9110, "Ġset": 9111, "Ġvirtud": 9112, "Ġtin": 9113, "Ġveremos": 9114, "77": 9115, "ĠNet": 9116, "Col": 9117, "ĠTorres": 9118, "Ġimaginar": 9119, "citos": 9120, "Ġsujetos": 9121, "ĠexpansiÃ³n": 9122, "ĠAv": 9123, "Ġpiedras": 9124, "garse": 9125, "ĠprÃ³ximas": 9126, "ĠBri": 9127, "Ġmuseo": 9128, "tube": 9129, "ĠÃĵ": 9130, "ĠExper": 9131, "Ġexige": 9132, "Ġdepartam": 9133, "Ġcaj": 9134, "ĠEmple": 9135, "Ġfuncionario": 9136, "Ġindicado": 9137, "Ġater": 9138, "guÃ©": 9139, "tela": 9140, "Ġbancar": 9141, "Ġsuyo": 9142, "tarias": 9143, "Ġparlam": 9144, "Ġevaluar": 9145, "ĠUl": 9146, "Ġespecializada": 9147, "Ġmirando": 9148, "ĠVicente": 9149, "Ġhuevos": 9150, "Ġpresidenta": 9151, "Ġnecesitar": 9152, "gulo": 9153, "Ã¡ndonos": 9154, "ede": 9155, "Ġestuvieron": 9156, "AA": 9157, "MO": 9158, "Ġconducir": 9159, "cismo": 9160, "Ġnucle": 9161, "ĠTenemos": 9162, "Ġdelic": 9163, "Ġimpro": 9164, "Ġcubierta": 9165, "Ġproductor": 9166, "temp": 9167, "Ġamable": 9168, "Sobre": 9169, "ĠProvincia": 9170, "ĠacÃ¡": 9171, "Ġcontribuir": 9172, "Ġgeneraciones": 9173, "Ġtratado": 9174, "Ġpublicaciones": 9175, "Ġconocen": 9176, "ĠSr": 9177, "Ãºp": 9178, "Ġmostra": 9179, "Ġcarro": 9180, "Ġcomputadora": 9181, "Ġescenas": 9182, "Ġnovio": 9183, "ÃŃcola": 9184, "Ġacepta": 9185, "ĠconsiguiÃ³": 9186, "Ġbarato": 9187, "Pa": 9188, "Ġbolas": 9189, "Ġdecora": 9190, "Ġasociaciones": 9191, "ERO": 9192, "ĠRoberto": 9193, "Ġmuestras": 9194, "Ġpobla": 9195, "tito": 9196, "Ġcorreg": 9197, "Otra": 9198, "ÑĢ": 9199, "Ġdelincu": 9200, "GU": 9201, "Ġconformidad": 9202, "iadas": 9203, "Ġpoderes": 9204, "Ġalber": 9205, "Ġprodujo": 9206, "Ġquem": 9207, "43": 9208, "Ġnace": 9209, "orro": 9210, "Actu": 9211, "abetes": 9212, "Ġ250": 9213, "Ġverlo": 9214, "izadas": 9215, "ĠaÃ±ade": 9216, "EA": 9217, "ĠCaribe": 9218, "Ġprivados": 9219, "Ġglob": 9220, "Ġinmobil": 9221, "Ġdeportes": 9222, "Ġjeje": 9223, "Ġmanejar": 9224, "Ġinn": 9225, "Ġmach": 9226, "Ġbrazo": 9227, "Ġqueso": 9228, "Ġminerales": 9229, "Ġ120": 9230, "ĠCanadÃ¡": 9231, "ĠEspero": 9232, "Ġgestionar": 9233, "Ġmejoras": 9234, "ĠAri": 9235, "Ġrecomendamos": 9236, "Ġprobabilidad": 9237, "ĠBon": 9238, "Ġfallo": 9239, "Ġregla": 9240, "Ġadjud": 9241, "ward": 9242, "Tu": 9243, "ĠEX": 9244, "bie": 9245, "ĠAlim": 9246, "Cre": 9247, "ĠBlanca": 9248, "ĠenseÃ±ar": 9249, "turo": 9250, "ĠTengo": 9251, "emb": 9252, "Ġnieve": 9253, "Ġpatio": 9254, "ĠabriÃ³": 9255, "Ġcampeonato": 9256, "Ġasal": 9257, "ĠbÃ¡sica": 9258, "ĠvacÃŃo": 9259, "ĠRico": 9260, "ĠÃ³rgano": 9261, "Ġmecanismo": 9262, "ĠcÃŃr": 9263, "Ġmaravilloso": 9264, "Ġredac": 9265, "Ġinfo": 9266, "Ġconectar": 9267, "ĠAragÃ³n": 9268, "Ġtrama": 9269, "Di": 9270, "avo": 9271, "Ġquedaron": 9272, "ĠcrÃ©ditos": 9273, "Ġreempla": 9274, "Ġdestacan": 9275, "ĠMercado": 9276, "omina": 9277, "iblia": 9278, "Ġpropa": 9279, "ĠperiÃ³dico": 9280, "ĠHor": 9281, "Ġcompet": 9282, "ĠEv": 9283, "TIV": 9284, "Ġpudieron": 9285, "Ġacudir": 9286, "Ġenemigos": 9287, "putaciÃ³n": 9288, "ĠespaÃ±olas": 9289, "Ġmemor": 9290, "ĠclÃŃnica": 9291, "Ob": 9292, "ĠGlo": 9293, "Ġverdes": 9294, "ĠCoord": 9295, "ĠSar": 9296, "Nuestro": 9297, "Ġdele": 9298, "ĠPi": 9299, "ĠOf": 9300, "Ġpolic": 9301, "ART": 9302, "gia": 9303, "ĠAcademia": 9304, "Ġdichas": 9305, "Ġnoctur": 9306, "Ġfueran": 9307, "Ġprovoca": 9308, "Ġsostenible": 9309, "ĠtelÃ©fonos": 9310, "Ġfans": 9311, "Ġsituada": 9312, "Ġembaj": 9313, "Ġlaboratorio": 9314, "enses": 9315, "Ġidiomas": 9316, "ĠGobern": 9317, "Ġapariencia": 9318, "Ġpotente": 9319, "UB": 9320, "Ġreformas": 9321, "iona": 9322, "Ġdesf": 9323, "Ġapunta": 9324, "Ġescribe": 9325, "Ġcercana": 9326, "Ġseleccionar": 9327, "Ġtorm": 9328, "dicaciÃ³n": 9329, "wood": 9330, "Os": 9331, "2015": 9332, "Ġpendientes": 9333, "ĠAuto": 9334, "Ġintercambi": 9335, "2016": 9336, "Ġcuidar": 9337, "ĠIngenierÃŃa": 9338, "Bo": 9339, "ĠhÃ¡bitos": 9340, "ernam": 9341, "rÃŃan": 9342, "Ġconsumidor": 9343, "Ġdebo": 9344, "Ġbasura": 9345, "ĠdescripciÃ³n": 9346, "ADA": 9347, "ĠWashington": 9348, "ĠfÃ¡brica": 9349, "fit": 9350, "Ġesquina": 9351, "Ġpublica": 9352, "Ġiguales": 9353, "Ġbille": 9354, "idi": 9355, "itat": 9356, "Ġaltamente": 9357, "Creo": 9358, "recciÃ³n": 9359, "Ġsalas": 9360, "aqu": 9361, "Ã¡mico": 9362, "trina": 9363, "Ġlogo": 9364, "colo": 9365, "enco": 9366, "Ġtruc": 9367, "olla": 9368, "ĠBiblio": 9369, "Ġfrancesa": 9370, "Ġregalos": 9371, "ĠÃģfrica": 9372, "Ġverse": 9373, "ificada": 9374, "way": 9375, "Ġdirigentes": 9376, "tadura": 9377, "Ġmontaje": 9378, "Ġembar": 9379, "ÃŃnas": 9380, "Ġreproduc": 9381, "ĠlÃŃquido": 9382, "Ġsubs": 9383, "Ã³cra": 9384, "ĠpermitiÃ³": 9385, "Ġadolescente": 9386, "Ġlimpio": 9387, "alax": 9388, "Ġviviendo": 9389, "risto": 9390, "Ġpermitan": 9391, "lantes": 9392, "cÃ³mo": 9393, "ĠRica": 9394, "Ġrevisar": 9395, "Ġobserva": 9396, "ĠhÃ©ro": 9397, "Ġdebut": 9398, "tilidad": 9399, "ĠSue": 9400, "NO": 9401, "ĠSy": 9402, "ĠParlamento": 9403, "ĠEspÃŃritu": 9404, "Ġdistinta": 9405, "Ġformal": 9406, "Ġreservas": 9407, "ĠdinÃ¡mica": 9408, "ariales": 9409, "dadas": 9410, "ĠimaginaciÃ³n": 9411, "Ġfruto": 9412, "kin": 9413, "Ġalimento": 9414, "ĠAmor": 9415, "ĠadquisiciÃ³n": 9416, "Ġcono": 9417, "Ġexcelentes": 9418, "ME": 9419, "ĠveÃŃa": 9420, "ĠFeria": 9421, "Ġsoci": 9422, "ĠNunca": 9423, "ĠnavegaciÃ³n": 9424, "Ġobtuvo": 9425, "Ġsat": 9426, "Ġtasas": 9427, "ĠJack": 9428, "Ġcampes": 9429, "Ġinvita": 9430, "Ġasociados": 9431, "Ġpropietarios": 9432, "ĠmuÃ±": 9433, "geno": 9434, "ĠespecÃŃficos": 9435, "din": 9436, "Ġponemos": 9437, "ĠemociÃ³n": 9438, "Ġfach": 9439, "endar": 9440, "polit": 9441, "Ġvende": 9442, "ĠRecuer": 9443, "Ġyou": 9444, "ĠAprende": 9445, "Ġbendi": 9446, "ĠfÃ³rmula": 9447, "Ġmalas": 9448, "Ġacondicionado": 9449, "Ġprovincial": 9450, "Ġtoneladas": 9451, "eramente": 9452, "Ġretos": 9453, "Ġhorarios": 9454, "ĠAutor": 9455, "Ġprohib": 9456, "Ġsatisfacer": 9457, "TV": 9458, "cripciones": 9459, "ĠacadÃ©mico": 9460, "Ġcoron": 9461, "Ġmencionar": 9462, "ĠVida": 9463, "ĠgrÃ¡fico": 9464, "ĠexplicaciÃ³n": 9465, "Ġconciertos": 9466, "Ġaci": 9467, "oxid": 9468, "ĠMuchos": 9469, "68": 9470, "ERA": 9471, "Ñģ": 9472, "quillaje": 9473, "ĠbaÃ±": 9474, "Ġfemenino": 9475, "ĠPaul": 9476, "ÃŃmetros": 9477, "Ġprimaria": 9478, "lados": 9479, "Ġderrota": 9480, "Ġexistir": 9481, "ĠPlay": 9482, "ĠEmpresa": 9483, "Ġdeterior": 9484, "Ġrumbo": 9485, "Ġentero": 9486, "ĠprestaciÃ³n": 9487, "Ġdistrito": 9488, "Ġepisodio": 9489, "ĠprecisiÃ³n": 9490, "ÃŃces": 9491, "ĠseÃ±alado": 9492, "tifica": 9493, "Ġhabia": 9494, "Ġpropietario": 9495, "Ġeuropea": 9496, "ĠcontinÃº": 9497, "Ġsirven": 9498, "ĠSebastiÃ¡n": 9499, "Ġadvers": 9500, "Ġamantes": 9501, "Ġdivul": 9502, "erÃŃas": 9503, "Ġestilos": 9504, "Ġdetener": 9505, "Ġdetenido": 9506, "Ġsalsa": 9507, "orden": 9508, "udiciales": 9509, "Ġarroz": 9510, "Ġoral": 9511, "ualquier": 9512, "Ġescapar": 9513, "Ġparar": 9514, "Ġdoy": 9515, "Ġautomo": 9516, "Del": 9517, "ader": 9518, "Ġinoc": 9519, "ĠRosario": 9520, "ĠautonomÃŃa": 9521, "Ġllaman": 9522, "hab": 9523, "ĠinspiraciÃ³n": 9524, "ĠOnline": 9525, "Ġfuncionar": 9526, "ĠdaÃ±": 9527, "Ġelectro": 9528, "Ġdisciplina": 9529, "Ġpoeta": 9530, "Ġborde": 9531, "Ġprolon": 9532, "Ġreiv": 9533, "Ġantic": 9534, "Ġemocion": 9535, "Ã©nez": 9536, "amar": 9537, "vias": 9538, "Ġaval": 9539, "Ġextin": 9540, "Ġescenarios": 9541, "Ġquisiera": 9542, "Ġsignific": 9543, "Ġhig": 9544, "Ġejecutivo": 9545, "Ġraza": 9546, "ICI": 9547, "PD": 9548, "Ġtrabajado": 9549, "Ġaccidentes": 9550, "Ġhabilidad": 9551, "Ġdices": 9552, "ĠLuna": 9553, "ĠGuatemala": 9554, "Ġronda": 9555, "alla": 9556, "Ġsustancias": 9557, "Ġvigor": 9558, "Ġdiputados": 9559, "Ġahorrar": 9560, "Ġdefinitivamente": 9561, "Ġtransferencia": 9562, "SI": 9563, "rey": 9564, "ĠaÃ±adiÃ³": 9565, "Ġgustos": 9566, "ĠDom": 9567, "Ġfija": 9568, "Ġolor": 9569, "Ġrica": 9570, "Ġcalent": 9571, "ĠAustral": 9572, "Ġsolidaridad": 9573, "Ġmari": 9574, "NA": 9575, "lash": 9576, "ĠGalicia": 9577, "ĠautomÃ¡ticamente": 9578, "mol": 9579, "Ġ44": 9580, "Ġmesas": 9581, "ise": 9582, "ĠGuer": 9583, "Ġcerveza": 9584, "Ġingen": 9585, "Ġshow": 9586, "Ġ01": 9587, "ĠPÃ¡g": 9588, "Ġprovincias": 9589, "Ġportavoz": 9590, "ĠEjÃ©rcito": 9591, "Ġgub": 9592, "ĠcayÃ³": 9593, "Ġanticip": 9594, "uncios": 9595, "Ġtos": 9596, "Finalmente": 9597, "Ġhilo": 9598, "Ġfavoritos": 9599, "Ġtrist": 9600, "ĠJorn": 9601, "Ġrenunci": 9602, "ĠContac": 9603, "ges": 9604, "Ġintenso": 9605, "Ġparticiparon": 9606, "Ġlimpia": 9607, "ĠindÃŃgenas": 9608, "Ġlistas": 9609, "Ġlimpiar": 9610, "ĠÃºtiles": 9611, "ĠoÃŃdo": 9612, "chos": 9613, "Ġnavegador": 9614, "Ġroja": 9615, "tuario": 9616, "udio": 9617, "iremos": 9618, "ĠbalÃ³n": 9619, "Ġcreciente": 9620, "Ġanci": 9621, "ĠQUE": 9622, "Ġreiter": 9623, "Ã³gico": 9624, "Ġpreciso": 9625, "Ġreciben": 9626, "Ġansiedad": 9627, "Ġcolumna": 9628, "ĠActualmente": 9629, "ĠPortugal": 9630, "ze": 9631, "ĠÃºnicos": 9632, "Ġprestaciones": 9633, "Ġinformar": 9634, "Ġexclusivo": 9635, "inete": 9636, "asiÃ³n": 9637, "ÃŃsimas": 9638, "ĠhablÃ³": 9639, "ĠHen": 9640, "Ġintim": 9641, "ĠaceptaciÃ³n": 9642, "Ġraro": 9643, "Ġsufrido": 9644, "Ġpsico": 9645, "Ġorgullos": 9646, "Ġcostes": 9647, "Ġvolv": 9648, "Ġestablecimientos": 9649, "Ġcaptur": 9650, "Ġmanifesta": 9651, "ĠSex": 9652, "illermo": 9653, "lix": 9654, "Ġmadri": 9655, "ĠcÃ³moda": 9656, "Ã³nicas": 9657, "RAN": 9658, "Ġdrama": 9659, "Ġabrazo": 9660, "Ġ43": 9661, "Ġbaile": 9662, "ĠCalle": 9663, "Ġmexicanos": 9664, "Ġ47": 9665, "Ġdirigir": 9666, "Ġfemin": 9667, "ĠÃ³rdenes": 9668, "Ġestadounidenses": 9669, "peta": 9670, "Ġpredic": 9671, "ĠTim": 9672, "Ġreglam": 9673, "ĠNorm": 9674, "iempo": 9675, "QuiÃ©n": 9676, "Ġsiga": 9677, "ĠfÃŃsicas": 9678, "Muy": 9679, "Ġcontinuidad": 9680, "ĠDol": 9681, "Ġmasaje": 9682, "Ġescrita": 9683, "Ġtemprano": 9684, "ĠvaloraciÃ³n": 9685, "Ġcomidas": 9686, "Ġmaquinaria": 9687, "ĠAngel": 9688, "Ġreferencias": 9689, "ĠMul": 9690, "ĠMoreno": 9691, "Ġsolucionar": 9692, "Ġabri": 9693, "Ġtranscur": 9694, "Ġobligado": 9695, "Ġasomb": 9696, "Ġfibra": 9697, "Ġpagina": 9698, "ings": 9699, "ĠsÃºper": 9700, "ĠSp": 9701, "Ġregresar": 9702, "Ġliderazgo": 9703, "Ġcrimen": 9704, "tizar": 9705, "Ġbandera": 9706, "ĠrespondiÃ³": 9707, "Ġcastellano": 9708, "Ãºrg": 9709, "ĠEspa": 9710, "app": 9711, "Ġhumedad": 9712, "Ġcenten": 9713, "Ġmediados": 9714, "Ġfavorito": 9715, "67": 9716, "ulaciones": 9717, "ÃŃv": 9718, "ĠplanificaciÃ³n": 9719, "Ġelevado": 9720, "Ġceremonia": 9721, "Ġsp": 9722, "ĠtrÃ¡n": 9723, "Ġobtenido": 9724, "ĠCanarias": 9725, "Ġbicicleta": 9726, "abo": 9727, "Ġconocemos": 9728, "rico": 9729, "ĠCristina": 9730, "Ġterren": 9731, "Ġmarcado": 9732, "Ġdeseas": 9733, "Ġodio": 9734, "ĠGuadal": 9735, "tedral": 9736, "Ġcreada": 9737, "41": 9738, "Ġcomenzaron": 9739, "ĠayudarÃ¡": 9740, "Ġprendas": 9741, "Ġcolombiano": 9742, "Ġprede": 9743, "ĠInterior": 9744, "Ġprobado": 9745, "Ġquiso": 9746, "Ġmedir": 9747, "ucar": 9748, "Ġpintar": 9749, "ĠSomos": 9750, "Ġ95": 9751, "ĠjurÃŃdico": 9752, "Ġaparato": 9753, "Ġdirige": 9754, "Ġintegrado": 9755, "sung": 9756, "Ġterap": 9757, "Ġjubil": 9758, "Ġdefine": 9759, "Ġentien": 9760, "Estoy": 9761, "Ġpostura": 9762, "hael": 9763, "ĠtÃ©": 9764, "Ġultra": 9765, "Ġvivido": 9766, "Ġcoger": 9767, "Ġlevantar": 9768, "Ġreduce": 9769, "Ġmand": 9770, "ĠpodrÃŃamos": 9771, "Ġmotores": 9772, "ĠserÃŃan": 9773, "Ġtop": 9774, "idra": 9775, "ĠsÃŃmbolo": 9776, "Ġplantea": 9777, "BI": 9778, "Ġaficionados": 9779, "ĠWil": 9780, "Ġgato": 9781, "Ġsuple": 9782, "ĠIsabel": 9783, "lig": 9784, "tinos": 9785, "ĠCastillo": 9786, "ĠEduca": 9787, "trop": 9788, "Ġinvestigar": 9789, "Ġmodificaciones": 9790, "Ġdisput": 9791, "Ġprocl": 9792, "ĠMich": 9793, "critos": 9794, "cm": 9795, "ĠGust": 9796, "Ġespon": 9797, "Ġciviles": 9798, "ĠÃ©stas": 9799, "ĠtÃ¡c": 9800, "Ġpanorama": 9801, "ĠcirugÃŃa": 9802, "ĠclÃ¡sicos": 9803, "Ġpoquito": 9804, "Ġescog": 9805, "ĠbÃ¡sicas": 9806, "iental": 9807, "ĠPrincip": 9808, "Ġrestr": 9809, "Ġfrust": 9810, "Ġintu": 9811, "ĠcÃ³m": 9812, "ĠLeon": 9813, "ĠnegociaciÃ³n": 9814, "Ġ[...]": 9815, "Ġatraves": 9816, "ĠotoÃ±o": 9817, "rocar": 9818, "Ġvigilancia": 9819, "Ġingresar": 9820, "Ġpisos": 9821, "Ġsuficientes": 9822, "econ": 9823, "uerta": 9824, "work": 9825, "ENTE": 9826, "Ġapo": 9827, "cons": 9828, "ll": 9829, "ucho": 9830, "!,": 9831, "diciones": 9832, "Ġpatro": 9833, "ĠAmazon": 9834, "Ġcorporal": 9835, "Ġapla": 9836, "Ġmineral": 9837, "Ġargumento": 9838, "taban": 9839, "ĠFon": 9840, "ĠJames": 9841, "Ġsilla": 9842, "Ġhabido": 9843, "Ġcristianos": 9844, "vida": 9845, "Ġestando": 9846, "Ġdependencia": 9847, "Ġasesinato": 9848, "Ġindependientes": 9849, "Ġocurrir": 9850, "mano": 9851, "Ġemble": 9852, "Ġrelatos": 9853, "ĠDeportes": 9854, "Ġcomis": 9855, "ĠportÃ¡til": 9856, "Ġespi": 9857, "Ġtrop": 9858, "terales": 9859, "radores": 9860, "ĠespecÃŃfica": 9861, "Ġestaciones": 9862, "Ġesenciales": 9863, "Ġsoldados": 9864, "Ġsalario": 9865, "ĠDescar": 9866, "Ġreino": 9867, "Ġcuentos": 9868, "Ġalcanza": 9869, "Ġrell": 9870, "Ġbienvenida": 9871, "Ġnomin": 9872, "Ġprevent": 9873, "Ġacontecimientos": 9874, "Ġincumpl": 9875, "cap": 9876, "Ġcaracteriza": 9877, "Ġfes": 9878, "Ġben": 9879, "gena": 9880, "Ġcria": 9881, "ĠCU": 9882, "Ġestreno": 9883, "Ġsurge": 9884, "Ġcajas": 9885, "Ġatac": 9886, "ĠCA": 9887, "Ġagro": 9888, "ĠMedicina": 9889, "Ġcaball": 9890, "Ġgrues": 9891, "Ġinyec": 9892, "Ġfomentar": 9893, "oli": 9894, "Ġdescubierto": 9895, "Ġcontratar": 9896, "Ġdespren": 9897, "Ġaguan": 9898, "ĠpareciÃ³": 9899, "ĠMA": 9900, "ledo": 9901, "jeras": 9902, "ager": 9903, "ĠMorales": 9904, "Ġconfes": 9905, "Ġbasta": 9906, "ĠAnte": 9907, "Ġducha": 9908, "oros": 9909, "Ġcolabora": 9910, "ĠpÃ©rdidas": 9911, "iÃ©ndose": 9912, "Ġdedica": 9913, "OT": 9914, "Ġpudieran": 9915, "Ġprecisa": 9916, "Ġsello": 9917, "guardia": 9918, "tumbre": 9919, "ĠOscar": 9920, "Ġeducativos": 9921, "gÃ©n": 9922, "Ġby": 9923, "Ġmetas": 9924, "Ġdemon": 9925, "Ġguitarra": 9926, "Ġpersonalmente": 9927, "far": 9928, "ĠoraciÃ³n": 9929, "ĠEuropeo": 9930, "ĠsentÃŃa": 9931, "entamente": 9932, "ĠFrente": 9933, "Ġune": 9934, "Ġ46": 9935, "Ġlargas": 9936, "Ġcontempl": 9937, "Ġconvivencia": 9938, "Ġfuimos": 9939, "ĠgustÃ³": 9940, "Ġpaga": 9941, "Ġgafas": 9942, "Ġdisposiciones": 9943, "Ġpracticar": 9944, "eciendo": 9945, "Ġsentirse": 9946, "ĠChrist": 9947, "ĠnÂº": 9948, "Ġfresco": 9949, "Ġconstruido": 9950, "Ã¡ndola": 9951, "ondas": 9952, "ĠespecÃŃficas": 9953, "Ġindispens": 9954, "Ġnecesito": 9955, "Ġpesca": 9956, "cr": 9957, "Ġtribunal": 9958, "ĠPRI": 9959, "Ġricos": 9960, "ĠseÃ±alar": 9961, "ml": 9962, "Ġejecut": 9963, "icidio": 9964, "Ġtemplo": 9965, "Ġrecaud": 9966, "Ġexpresar": 9967, "Ġaves": 9968, "ĠWorld": 9969, "Ġdevolver": 9970, "ĠHerman": 9971, "ĠtrÃ¡nsito": 9972, "Ġdormitorios": 9973, "Ġdescenso": 9974, "ĠMana": 9975, "ĠAlta": 9976, "Ġcae": 9977, "Ġmadrugada": 9978, "ĠLibre": 9979, "Ġllevando": 9980, "Ġenviado": 9981, ",...": 9982, "Ġresultar": 9983, "Ġdesin": 9984, "ĠIsla": 9985, "Ġhogares": 9986, "Ġconsentimiento": 9987, "Ġvea": 9988, "Ġregistros": 9989, "Ġllevaron": 9990, "ĠregulaciÃ³n": 9991, "cop": 9992, "Ġrepubl": 9993, "Ġvieja": 9994, "ĠBio": 9995, "ĠobstÃ¡": 9996, "Ġcuadrados": 9997, "Ġcamiseta": 9998, "ĠCuenta": 9999, "ĠHabana": 10000, "ĠsuspensiÃ³n": 10001, "Ã©ramos": 10002, "Ġrebaj": 10003, "Ġarco": 10004, "ĠcontarÃ¡": 10005, "Ġevolu": 10006, "Ġheridas": 10007, "Ġfiscales": 10008, "ĠRol": 10009, "ĠOctubre": 10010, "lim": 10011, "98": 10012, "Ġdescuentos": 10013, "Ġminim": 10014, "Ġprestar": 10015, "uez": 10016, "GT": 10017, "ĠOtra": 10018, "onso": 10019, "Ġlargos": 10020, "Am": 10021, "Ġfascin": 10022, "ĠLibro": 10023, "ĠfotÃ³": 10024, "ĠSaludos": 10025, "Ġarru": 10026, "Ġpasta": 10027, "Ã¡vez": 10028, "Ġsolid": 10029, "ĠAlicante": 10030, "ĠEmpresas": 10031, "Ġintentando": 10032, "Ġcuriosidad": 10033, "ciencia": 10034, "ĠapareciÃ³": 10035, "ĠTro": 10036, "ĠUsuario": 10037, "Ġrelacionada": 10038, "Ġirregular": 10039, "esos": 10040, "Ġtemor": 10041, "daje": 10042, "Ġempresario": 10043, "Ġacumul": 10044, "Ġequivalente": 10045, "ĠGir": 10046, "Ġexcelencia": 10047, "ĠSport": 10048, "Ġcombustible": 10049, "Ġrealizaron": 10050, "Ġcolectiva": 10051, "dÃŃan": 10052, "Ġsuficientemente": 10053, "rena": 10054, "usas": 10055, "Ġdecreto": 10056, "Ġimpulso": 10057, "Ã¡menes": 10058, "ĠSta": 10059, "Ġestablecidos": 10060, "Ġreina": 10061, "ĠRespon": 10062, "Ġdejaron": 10063, "Ġeco": 10064, "ĠAsturias": 10065, "ĠMÃºsica": 10066, "Ġsignos": 10067, "Ġapp": 10068, "versiÃ³n": 10069, "Ġvecino": 10070, "ĠÃ¡cido": 10071, "Ante": 10072, "ĠAtenciÃ³n": 10073, "itiva": 10074, "ĠVictoria": 10075, "Ã³gica": 10076, "Ġtonos": 10077, "ÃŃncipe": 10078, "Ð¾Ð": 10079, "Ġintroduci": 10080, "CC": 10081, "Ġdiga": 10082, "Ġcaballo": 10083, "cones": 10084, "Ġechar": 10085, "Ġcurioso": 10086, "garon": 10087, "ĠGro": 10088, "Ġkilos": 10089, "EE": 10090, "Ġseco": 10091, "Ġbau": 10092, "Ġvueltas": 10093, "ĠComple": 10094, "ture": 10095, "Ġcuota": 10096, "ĠDen": 10097, "Ġcontinente": 10098, "idado": 10099, "Ġdeterminados": 10100, "ÃŃctor": 10101, "Bar": 10102, "Ġescoger": 10103, "Ġsmartph": 10104, "ĠturÃŃstico": 10105, "%)": 10106, "tab": 10107, "Ġ00": 10108, "Ġrecoge": 10109, "Ġsigo": 10110, "Ġmier": 10111, "Nuestra": 10112, "Ġabordar": 10113, "cionalmente": 10114, "Ãºmero": 10115, "Ġdisponer": 10116, "ĠAlto": 10117, "ĠSenado": 10118, "Ġmaquillaje": 10119, "ĠGuardia": 10120, "Ġelaborado": 10121, "Ġcausar": 10122, "Ġelector": 10123, "gica": 10124, "ĠIS": 10125, "ĠcontaminaciÃ³n": 10126, "Ġllamados": 10127, "Ġbiblioteca": 10128, "Ġdiabetes": 10129, "Ġsemillas": 10130, "Ġcreciendo": 10131, "Ġrecin": 10132, "Ġilegal": 10133, "Ġcoopera": 10134, "Ġimpulsar": 10135, "Ġfeste": 10136, "ĠAsia": 10137, "Ġfelices": 10138, "tÃºan": 10139, "ĠeliminaciÃ³n": 10140, "Ġpongo": 10141, "ĠPA": 10142, "Ġrefleja": 10143, "plan": 10144, "Ġlej": 10145, "Ġimportar": 10146, "gi": 10147, "ĠMarketing": 10148, "ajara": 10149, "Ġamo": 10150, "Ġcartera": 10151, "ĠArtÃŃculo": 10152, "ĠpercepciÃ³n": 10153, "Ġfrutos": 10154, "Ġparad": 10155, "Ġalej": 10156, "Ġrespaldo": 10157, "ĠconfirmÃ³": 10158, "vide": 10159, "ĠAlfonso": 10160, "ĠrenovaciÃ³n": 10161, "Ġtuvimos": 10162, "ĠAdministra": 10163, "Ġhall": 10164, "Ġ1999": 10165, "Ġrechazo": 10166, "Ġfracaso": 10167, "ĠaÃ±adido": 10168, "ĠLea": 10169, "inÃ³": 10170, "Ġtramo": 10171, "Ġexplicado": 10172, "Bus": 10173, "ĠDES": 10174, "ĠAÃ±o": 10175, "Ġtransparencia": 10176, "ĠreproducciÃ³n": 10177, "iertas": 10178, "Ġcompetir": 10179, "enza": 10180, "ĠOtro": 10181, "Ġbrinda": 10182, "ĠMarco": 10183, "Ġpatrocin": 10184, "Ġhec": 10185, "pot": 10186, "Ġhaberse": 10187, "Ġhabita": 10188, "venido": 10189, "Ġtorre": 10190, "ĠCapital": 10191, "Ġsalto": 10192, "Ġandal": 10193, "Ġprovocar": 10194, "Ġimpre": 10195, "Ġcreemos": 10196, "Ġrelevante": 10197, "alista": 10198, "ĠExcel": 10199, "Ġofens": 10200, "tega": 10201, "Ġfactura": 10202, "diales": 10203, "izando": 10204, "Ġrutina": 10205, "Ġespecializado": 10206, "ĠcreÃ³": 10207, "Ġliga": 10208, "Quer": 10209, "Ġ49": 10210, "Ġlistado": 10211, "ĠMaes": 10212, "ĠBilbao": 10213, "Ġquedo": 10214, "Ġmandar": 10215, "ĠcrÃŃtico": 10216, "ĠKe": 10217, "gnacio": 10218, "ĠPromo": 10219, "ĠraÃŃces": 10220, "ĠinclusiÃ³n": 10221, "raba": 10222, "Ġverduras": 10223, "Ġviva": 10224, "inc": 10225, "Cas": 10226, "Ġasesoramiento": 10227, "Ġcostumbre": 10228, "ejo": 10229, "Ġ:)": 10230, "Ġgolpes": 10231, "Ġparada": 10232, "Ġcortar": 10233, "Ġincent": 10234, "Ġdespre": 10235, "Ġadh": 10236, "ificaciones": 10237, "ĠcelebrarÃ¡": 10238, "ĠSitio": 10239, "ĠAzul": 10240, "ecimiento": 10241, "zamiento": 10242, "ĠÃ¡mbitos": 10243, "Somos": 10244, "izÃ³": 10245, "Ġtraslado": 10246, "rosa": 10247, "Ġparticipado": 10248, "ĠLE": 10249, "Ġsentidos": 10250, "ĠNeces": 10251, "gancia": 10252, "Ġcharla": 10253, "ĠfrÃŃa": 10254, "uido": 10255, "ĠGuillermo": 10256, "ĠAcciÃ³n": 10257, "ĠOp": 10258, "Ġofreciendo": 10259, "ĠFinanci": 10260, "Ġ41": 10261, "Ġencanto": 10262, "Ġamigas": 10263, "ĠTab": 10264, "Ġideales": 10265, "Ġparticularmente": 10266, "ÃŃso": 10267, "Ġplaca": 10268, "Ġmonto": 10269, "zones": 10270, "Ġcongel": 10271, "Ġorganizada": 10272, "bimos": 10273, "Ġelectricidad": 10274, "ĠmÃŃo": 10275, "Ġvidrio": 10276, ".Â»": 10277, "Ġnotar": 10278, "ĠCin": 10279, "Ġsubsi": 10280, "GB": 10281, "Ġespiritu": 10282, "eld": 10283, "ĠÃ¡ra": 10284, "Ġinmun": 10285, "ĠpolicÃŃas": 10286, "ĠHi": 10287, "uyendo": 10288, "Ġprogreso": 10289, "Ġpensaba": 10290, "Ġprofundi": 10291, "entados": 10292, "Ġnegativo": 10293, "Ġlac": 10294, "Ġhablado": 10295, "Ġproveedor": 10296, "Ġnaciones": 10297, "ĠRegiÃ³n": 10298, "Ġvivimos": 10299, "Ġfirmado": 10300, "Ġdignidad": 10301, "ensor": 10302, "tificado": 10303, "Ġrepresentar": 10304, "ĠMichael": 10305, "Ġestamp": 10306, "Ġsuministro": 10307, "ĠWilliam": 10308, "Ġpapeles": 10309, "ÃŃmenes": 10310, "Ġdada": 10311, "Ġamenazas": 10312, "ĠGil": 10313, "ĠLocal": 10314, "ĠBlog": 10315, "ĠprÃ³": 10316, "INA": 10317, "Ġargumentos": 10318, "ĠRuiz": 10319, "reza": 10320, "ĠconducciÃ³n": 10321, "Ġfirmas": 10322, "ĠtenÃŃamos": 10323, "Ġdestinos": 10324, "ĠseguirÃ¡": 10325, "tions": 10326, "ĠNoviembre": 10327, "ĠEvan": 10328, "tÃ¡nea": 10329, "Ġoficio": 10330, "Ġrevistas": 10331, "Ġdetectar": 10332, "Ġsostuvo": 10333, "Ġafrontar": 10334, "ĠBlo": 10335, "Ġego": 10336, "Ġabandonar": 10337, "Ġdeterminada": 10338, "terrÃ¡neo": 10339, "Ġproductividad": 10340, "ĠincorporaciÃ³n": 10341, "ĠseparaciÃ³n": 10342, "onces": 10343, "ĠconsideraciÃ³n": 10344, "ĠgarantÃŃas": 10345, "Ġaudiovis": 10346, "Ġcomplementar": 10347, "Ġmencionado": 10348, "Ġventanas": 10349, "Ġnegativa": 10350, "Ġdelantero": 10351, "ĠcuÃ¡ndo": 10352, "gnos": 10353, "Ġluna": 10354, "orcio": 10355, "ĠPie": 10356, "ĠGen": 10357, "ĠSantander": 10358, "Ġbaratos": 10359, "itadas": 10360, "Ġorgullo": 10361, "ĠHuman": 10362, "Ġdenominado": 10363, "Ġciencias": 10364, "Ġcompara": 10365, "ĠresultÃ³": 10366, "clar": 10367, "ĠRaÃºl": 10368, "ĠONU": 10369, "Ġhielo": 10370, "Ġcelebrado": 10371, "ursos": 10372, "Ġocta": 10373, "incl": 10374, "ej": 10375, "Ġincur": 10376, "Ġpart": 10377, "ĠRelaciones": 10378, "ĠPenal": 10379, "Ġpanel": 10380, "Ġpersegu": 10381, "Ġparticipan": 10382, "ĠlesiÃ³n": 10383, "Ġexcur": 10384, "ĠChÃ¡vez": 10385, "Ġcultiv": 10386, "delo": 10387, "Siempre": 10388, "adilla": 10389, "Ã¡z": 10390, "ĠartÃŃstica": 10391, "ficit": 10392, "Ġbomba": 10393, "Ġculmin": 10394, "Pos": 10395, "Ġmutu": 10396, "Ġcinemato": 10397, "erador": 10398, "olv": 10399, "Ġlanzado": 10400, "Ġfus": 10401, "Ġlabores": 10402, "Ġdesesper": 10403, "Tenemos": 10404, "Ġempleado": 10405, "Ġposiblemente": 10406, "Ã³micas": 10407, "ĠTecnologÃŃa": 10408, "Ġapreciar": 10409, "ĠZona": 10410, "urs": 10411, "ÃŃsimos": 10412, "ĠinflaciÃ³n": 10413, "ĠFlores": 10414, "Ġvayan": 10415, "Ġpertin": 10416, "Ġimplement": 10417, "yeron": 10418, "Ġmanifestaciones": 10419, "ĠCH": 10420, "Ġbuc": 10421, "Ġprecioso": 10422, "Ġparro": 10423, "ĠlanzÃ³": 10424, "ĠRevoluciÃ³n": 10425, "Ġbode": 10426, "ĠtemÃ¡tica": 10427, "ther": 10428, "ling": 10429, "ĠTres": 10430, "Ġfrecuente": 10431, "win": 10432, "ĠCiencia": 10433, "irÃ¡n": 10434, "ĠSecretario": 10435, "Ġamarillo": 10436, "Ã±e": 10437, "PO": 10438, "ĠsufriÃ³": 10439, "ĠLatinoamÃ©rica": 10440, "Ġnegros": 10441, "ĠGafas": 10442, "rimonio": 10443, "Ġmante": 10444, "ĠproteÃŃnas": 10445, "Ã©sar": 10446, "Ġquince": 10447, "Ã¡us": 10448, "uelve": 10449, "Ġinmigrantes": 10450, "icul": 10451, "Ġencuesta": 10452, "Ġmentir": 10453, "Ġprevis": 10454, "zcan": 10455, "Ġfuturos": 10456, "Ġdiplom": 10457, "iedades": 10458, "Eso": 10459, "ĠemisiÃ³n": 10460, "Tengo": 10461, "cionario": 10462, "Ġpaciencia": 10463, "ĠOne": 10464, "ĠhistÃ³ricos": 10465, "Ġconversaciones": 10466, "Ġejecutar": 10467, ").-": 10468, "Ġgalard": 10469, "atorio": 10470, "Ġcancha": 10471, "Ġlitros": 10472, "Ġvotar": 10473, "ĠDistrito": 10474, "Ġinconven": 10475, "Ġocio": 10476, "Ġmonstru": 10477, "Deb": 10478, "ĠMira": 10479, "Ġconlle": 10480, "ĠllegarÃ¡": 10481, "Ġexistente": 10482, "ĠHugo": 10483, "uth": 10484, "ĠMerce": 10485, "Ġsensibilidad": 10486, "Ġdestinado": 10487, "Ġdescribe": 10488, "2014": 10489, "Cor": 10490, "TS": 10491, "ĠPER": 10492, "Ġgubernam": 10493, "Ġterminal": 10494, "Or": 10495, "ĠCampo": 10496, "Ġterapia": 10497, "Ġ85": 10498, "ĠPsic": 10499, "tea": 10500, "eamente": 10501, "Ġtalla": 10502, "Ġespejo": 10503, "uelva": 10504, "Ġtest": 10505, "Ġenve": 10506, "Ġcaras": 10507, "Ġsubida": 10508, "ĠOriente": 10509, "Ġaventuras": 10510, "acciones": 10511, "Ġademas": 10512, "Ġnaranja": 10513, "Ġsienten": 10514, "Ġlateral": 10515, "Ġnecesariamente": 10516, "ĠpÃ¡rra": 10517, "Ġtrataba": 10518, "ĠperfecciÃ³n": 10519, "Ġautoma": 10520, "Ġafectar": 10521, ".....": 10522, "ĠNor": 10523, "Ġdesigual": 10524, "Ġseguimos": 10525, "Ġcontienen": 10526, "itamos": 10527, "Ġautora": 10528, "ĠcuÃ¡nto": 10529, "Ġvestidos": 10530, "ĠpatrÃ³n": 10531, "ata": 10532, "hh": 10533, "Ġutilizada": 10534, "tul": 10535, "Ġpescado": 10536, "Ġandar": 10537, "oraciones": 10538, "Ġcuyas": 10539, "!.": 10540, "Hemos": 10541, "ĠJur": 10542, "TC": 10543, "ĠSER": 10544, "Ġsimples": 10545, "Ġtraje": 10546, "Ġfrances": 10547, "ARIO": 10548, "ilan": 10549, "ĠProp": 10550, "Ġduelo": 10551, "Ġagencias": 10552, "my": 10553, "Ġesposo": 10554, "Ġconsigo": 10555, "Ġmisterio": 10556, "vada": 10557, "Ġ800": 10558, "Ġganancias": 10559, "Ġincrementar": 10560, "valuaciÃ³n": 10561, "ĠReci": 10562, "ĠtenÃ©is": 10563, "ĠmÃºsicos": 10564, "Ġcuantas": 10565, "ĠDivisiÃ³n": 10566, "Ġusos": 10567, "Ġservidores": 10568, "eja": 10569, "Ġtarifas": 10570, "iler": 10571, "ax": 10572, "Ġaqu": 10573, "ÃŃes": 10574, "Ġrespira": 10575, "ianas": 10576, "ĠDispon": 10577, "Ġfarmac": 10578, "erse": 10579, "Ġespecializados": 10580, "Ġcontroles": 10581, "ĠhacÃŃan": 10582, "Ġcostumb": 10583, "Ġcobrar": 10584, "Ġ--": 10585, "Ġmostrado": 10586, "ĠrecordÃ³": 10587, "Ġblancos": 10588, "ĠentrÃ³": 10589, "ĠmÃ¡r": 10590, "Ġaprue": 10591, "Ġabiertas": 10592, "tex": 10593, "ĠVil": 10594, "Ġsufre": 10595, "ÃŃticas": 10596, "Ġsecretos": 10597, "pado": 10598, "Soy": 10599, "ĠcatalÃ¡n": 10600, "Ġord": 10601, "Ġ1998": 10602, "Ġinfantiles": 10603, "Ġvariables": 10604, "Ġpolicial": 10605, "ĠPorno": 10606, "Ġlanza": 10607, "Ġreducido": 10608, "Ġvers": 10609, "ĠPatri": 10610, "Ġsana": 10611, "Ġviajeros": 10612, "ĠdestrucciÃ³n": 10613, "Ã¡ndal": 10614, "Ġ64": 10615, "Ġblogs": 10616, "timas": 10617, "Â±": 10618, "Ġriv": 10619, "Ġpelota": 10620, "ĠForo": 10621, "Ġsuperviv": 10622, "atch": 10623, "Ġsorprendente": 10624, "Ġtitulado": 10625, "damente": 10626, "ĠGratis": 10627, "IDA": 10628, "Ġtapa": 10629, "Ġconfec": 10630, "iertos": 10631, "adrid": 10632, "grÃ¡ficas": 10633, "ĠEllos": 10634, "Inicio": 10635, "Ġpistas": 10636, "ĠIde": 10637, "lid": 10638, "Ġelaborar": 10639, "enzo": 10640, "kes": 10641, "ĠharÃŃa": 10642, "ĠResoluciÃ³n": 10643, "ĠNavarra": 10644, "Ġtengamos": 10645, "Ġsecundaria": 10646, "69": 10647, "ĠAlonso": 10648, "Ġafectan": 10649, "Ġaman": 10650, "Ġprioridad": 10651, "Ã¶": 10652, "ADOR": 10653, "Ġabon": 10654, "Ġoeste": 10655, "ĠProfesional": 10656, "Ġevent": 10657, "EstÃ¡": 10658, "Ġjueces": 10659, "ĠGabriel": 10660, "Ġdeter": 10661, "ĠMaduro": 10662, "Ġarries": 10663, "Ġdiarios": 10664, "Ġdisfruta": 10665, "Ġfemenina": 10666, "Ġfruta": 10667, "Ã³lico": 10668, "Ġsingular": 10669, "htt": 10670, "tita": 10671, "ĠclÃ¡sica": 10672, "Ġinal": 10673, "iblemente": 10674, "Ġpelea": 10675, "Ġcobre": 10676, "ĠTre": 10677, "iciosa": 10678, "Ġhayas": 10679, "uliar": 10680, "fice": 10681, "Ġneum": 10682, "ĠacabÃ³": 10683, "ĠHal": 10684, "Ġdeportivas": 10685, "ĠParti": 10686, "cubre": 10687, "ĠmontaÃ±as": 10688, "quero": 10689, "Ġsolicitudes": 10690, "Ġcomunica": 10691, "ĠZapatos": 10692, "ĠOrg": 10693, "ĠprÃ¡ctico": 10694, "ĠFÃºtbol": 10695, "eth": 10696, "hum": 10697, "Ġvag": 10698, "Prim": 10699, "Ġdas": 10700, "Fi": 10701, "ortunadamente": 10702, "ĠteÃ³r": 10703, "Ġapell": 10704, "angel": 10705, "ĠProductos": 10706, "Ġvaso": 10707, "Ġtesis": 10708, "Ġmensual": 10709, "Ġdictadura": 10710, "Ġcubano": 10711, "camos": 10712, "Ġverdaderamente": 10713, "Ġsalga": 10714, "Ġpelic": 10715, "LAN": 10716, "ÃŃsica": 10717, "Ġnub": 10718, "89": 10719, "Ġchino": 10720, "ĠcelebrÃ³": 10721, "ĠenergÃ©tica": 10722, "Ġ....": 10723, "Ġruso": 10724, "ĠCity": 10725, "Ġconsultas": 10726, "Ġmontar": 10727, "Fo": 10728, "84": 10729, "Ġencuentre": 10730, "Ġpulgadas": 10731, "ĠautobÃºs": 10732, "Ġislas": 10733, "Ġllegamos": 10734, "Ġsabido": 10735, "Ġlogro": 10736, "ĠIgnacio": 10737, "ĠGuti": 10738, "ĠSeguro": 10739, "undamente": 10740, "eck": 10741, "Ġclaras": 10742, "dura": 10743, "ÃŃdas": 10744, "ĠReserv": 10745, "Ġmanz": 10746, "digos": 10747, "Ġatacar": 10748, "Ġbacter": 10749, "Ġjurisdic": 10750, "Ġresponsabilidades": 10751, "ĠbritÃ¡nico": 10752, "Ġcolectivos": 10753, "Ġfavorita": 10754, "Sus": 10755, "ĠVÃŃctor": 10756, "igma": 10757, "Na": 10758, "Ġcarbono": 10759, "Ġmarcador": 10760, "ĠFinalmente": 10761, "ĠTanto": 10762, "ayo": 10763, "Ġquinto": 10764, "Ġagrup": 10765, "Ġprotesta": 10766, "ĠdesafÃŃo": 10767, "Ġconsa": 10768, "Puede": 10769, "olas": 10770, "turadora": 10771, "uu": 10772, "ĠUtil": 10773, "Ġchar": 10774, "Ġcalcul": 10775, "ĠCorea": 10776, "Ġantiguas": 10777, "Ġdesarrollando": 10778, "Ġinscrib": 10779, "EX": 10780, "Ġconozco": 10781, "ĠdimensiÃ³n": 10782, "Ġadquier": 10783, "Ġrecogida": 10784, "inarios": 10785, "Ġsonidos": 10786, "Ġindican": 10787, "drome": 10788, "ĠparÃ¡metros": 10789, "ult": 10790, "Ġconstituyen": 10791, "2013": 10792, "ĠhipÃ³": 10793, "uncias": 10794, "ĠExtre": 10795, "ĠBB": 10796, "Ġalerta": 10797, "lace": 10798, "Ġrelevantes": 10799, "rov": 10800, "Ġcens": 10801, "bano": 10802, "bert": 10803, "ĠFranco": 10804, "TM": 10805, "ĠRock": 10806, "Ġfuncionan": 10807, "ĠPes": 10808, "Publicado": 10809, "ĠtransiciÃ³n": 10810, "Ġtuviera": 10811, "Ġpreciosa": 10812, "Ġvestir": 10813, "Ġdiscur": 10814, "Ġocasion": 10815, "Ġcasco": 10816, "ĠCalidad": 10817, "ĠÃģngeles": 10818, "Ġlimitado": 10819, "ĠLAS": 10820, "ls": 10821, "Ã©ticas": 10822, "ĠhuÃ©spe": 10823, "Ġperpe": 10824, "ĠgalerÃŃa": 10825, "Ġemis": 10826, "Ġsimpl": 10827, "Ġinteriores": 10828, "Ġonce": 10829, "Ġconocidas": 10830, "questa": 10831, "enciana": 10832, "Ġvigencia": 10833, "lero": 10834, "ĠAustralia": 10835, "Ġdefecto": 10836, "Ġrepeti": 10837, "âĨ": 10838, "Ã±Ã³n": 10839, "Ġpresidencial": 10840, "ĠfundaciÃ³n": 10841, "Ġpeculiar": 10842, "ĠCurso": 10843, "FA": 10844, "Ġclan": 10845, "Ġescritorio": 10846, "Ġligeramente": 10847, "ule": 10848, "ĠintroducciÃ³n": 10849, "ĠAgua": 10850, "Ġmedal": 10851, "ĠWi": 10852, "Ġsuena": 10853, "Ġcumplen": 10854, "ets": 10855, "adi": 10856, "Ġincorpora": 10857, "ĠmetodologÃŃa": 10858, "ĠMAR": 10859, "Ġmandato": 10860, "ĠparticipÃ³": 10861, "cuenta": 10862, "ester": 10863, "Ġtoman": 10864, "Ġdefien": 10865, "Bien": 10866, "ĠestÃ¡ndares": 10867, "Ġresidentes": 10868, "tock": 10869, "cista": 10870, "Ġtoler": 10871, "comunicaciones": 10872, "ĠLO": 10873, "ĠBat": 10874, "Ġescritos": 10875, "tuvieron": 10876, "ĠObama": 10877, "Ġtrascen": 10878, "ĠHel": 10879, "gÃ¼edad": 10880, "ĠextraÃ±a": 10881, "endiÃ³": 10882, "ĠplÃ¡st": 10883, "evita": 10884, "ĠCampeonato": 10885, "olvid": 10886, "Ġkg": 10887, "ĠRef": 10888, "Ġfacilita": 10889, "aragua": 10890, "ĠMarcos": 10891, "Ġligero": 10892, "endoza": 10893, "Ġcomplement": 10894, "Ġgravedad": 10895, "buen": 10896, "Ġsufren": 10897, "Ġromp": 10898, "ribunales": 10899, "Ġabord": 10900, "Ġclaridad": 10901, "Ġelimina": 10902, "bus": 10903, "untamente": 10904, "ĠdisminuciÃ³n": 10905, "Ġpresidencia": 10906, "Ġexcepto": 10907, "ĠWh": 10908, "Ġimplementar": 10909, "Ġfundament": 10910, "ĠDocu": 10911, "Ġecos": 10912, "Ġpecado": 10913, "ĠcapitÃ¡n": 10914, "Ġcolegios": 10915, "rimas": 10916, "Ġdesactiv": 10917, "ĠvenÃŃa": 10918, "ĠEsco": 10919, "ĠDominicana": 10920, "ĠAlgo": 10921, "Ġrefres": 10922, "Ġdivertida": 10923, "Ġcura": 10924, "CN": 10925, "ĠCanal": 10926, "Ġbarrios": 10927, "dela": 10928, "letÃŃn": 10929, "Ġabuso": 10930, "Ġmolesti": 10931, "ony": 10932, "ding": 10933, "ĠencontrÃ©": 10934, "ĠVamos": 10935, "cionada": 10936, "Ġmini": 10937, "Ġfama": 10938, "Ġsocialista": 10939, "Ġhun": 10940, "guera": 10941, "teria": 10942, "Ġtranquila": 10943, "Ġlavado": 10944, "Ġconfirmar": 10945, "Ġester": 10946, "guna": 10947, "Val": 10948, "Ġedades": 10949, "ĠMy": 10950, "Ġflam": 10951, "Ġfamosos": 10952, "ĠJard": 10953, "Ãºme": 10954, "ĠrehabilitaciÃ³n": 10955, "idurÃŃa": 10956, "Ġgeneran": 10957, "Ġasegurado": 10958, "ĠalgodÃ³n": 10959, "ĠprÃ©stamo": 10960, "Ġmueve": 10961, "ĠUR": 10962, "ĠXXI": 10963, "ĠOcci": 10964, "ĠLegisla": 10965, "Ġcaro": 10966, "Ġpollo": 10967, "Ġdisminuir": 10968, "86": 10969, "ence": 10970, "racciÃ³n": 10971, "Ġgigante": 10972, "Ġhabituales": 10973, "Ġleyenda": 10974, "ĠConce": 10975, "Ġguarda": 10976, "Ġsensaciones": 10977, "esto": 10978, "mado": 10979, "Ġtea": 10980, "Ġexperimentar": 10981, "ĠRaj": 10982, "Ġjurado": 10983, "ĠPresu": 10984, "ĠmanifestaciÃ³n": 10985, "Ġtestimonio": 10986, "ĠMadre": 10987, "ĠfÃ¡ciles": 10988, "Ġinternos": 10989, "Ġextrac": 10990, "ĠinteracciÃ³n": 10991, "ĠtrÃ¡mite": 10992, "Ġabiertos": 10993, "Ġdirigente": 10994, "ĠliberaciÃ³n": 10995, "VD": 10996, "Ġsorteo": 10997, "Ġmusul": 10998, "Ġindicar": 10999, "uis": 11000, "acos": 11001, "Ġapasion": 11002, "Ġlento": 11003, "cidades": 11004, "uyen": 11005, "Ġinsegu": 11006, "fia": 11007, "Ġagricultura": 11008, "ĠIndustria": 11009, "JA": 11010, "Ġvuelven": 11011, "Imp": 11012, "dito": 11013, "umer": 11014, "ĠEnergÃŃa": 11015, "Ġincorporar": 11016, "Ġcondena": 11017, "Ġinstalado": 11018, "Ġsemin": 11019, "2012": 11020, ".:": 11021, "Ġmaravillosa": 11022, "ciado": 11023, "Ġensal": 11024, "Ġremon": 11025, "87": 11026, "ĠLuz": 11027, "Ġlee": 11028, "Ġcoher": 11029, "Ã¡nicos": 11030, "Ġconsumir": 11031, "Ġdeclarado": 11032, "organ": 11033, "Ġtejidos": 11034, "Ġsustan": 11035, "ĠCÃ©sar": 11036, "ĠPac": 11037, "oya": 11038, "Ġconferencias": 11039, "ĠingenierÃŃa": 11040, "ĠVill": 11041, "sor": 11042, "Ġamericano": 11043, "olar": 11044, "Ġvs": 11045, "300": 11046, "Ġalcanzado": 11047, "Ġaprendido": 11048, "eme": 11049, "ezcan": 11050, "ĠPrimero": 11051, "ĠAlgunas": 11052, "Ġreivin": 11053, "ecÃŃan": 11054, "garÃ¡": 11055, "ĠSupremo": 11056, "ĠAdri": 11057, "ĠdÃ©ficit": 11058, "ĠBiblia": 11059, "Ã¡mb": 11060, "Ġhisp": 11061, "ĠChica": 11062, "Ġlluvias": 11063, "Ġpasaba": 11064, "ĠPersonal": 11065, "ortuna": 11066, "Ġindemn": 11067, "Ġprovis": 11068, "Ġacar": 11069, "Ġambi": 11070, "Ġcombinar": 11071, "ĠdepresiÃ³n": 11072, "Ġprecip": 11073, "Ġverte": 11074, "plica": 11075, ",.": 11076, "Ġcuartos": 11077, "ĠnÃºcleo": 11078, "Ġvapor": 11079, "esen": 11080, "direc": 11081, "ĠArquitec": 11082, "drÃ¡s": 11083, "sea": 11084, "Ġalianza": 11085, "ĠdiversiÃ³n": 11086, "Ġinclus": 11087, "ĠespecÃŃficamente": 11088, "Ġcopa": 11089, "Ġche": 11090, "ĠVo": 11091, "andante": 11092, "TRA": 11093, "ĠgastronomÃŃa": 11094, "Ġpapa": 11095, "terno": 11096, "ĠestadÃŃsticas": 11097, "Ġclubes": 11098, "Ġdesconocido": 11099, "Ġfunda": 11100, "dest": 11101, "Ġjuvenil": 11102, "ĠEstra": 11103, "Ġhicimos": 11104, "@@": 11105, "Ġindirec": 11106, "ĠVideo": 11107, "ĠEstatal": 11108, "Ġdedo": 11109, "ĠTaller": 11110, "ĠgrabaciÃ³n": 11111, "ĠTrad": 11112, "ĠBay": 11113, "Ġadvir": 11114, "Ġprocesamiento": 11115, "ĠdÃ³lar": 11116, "Ġinevita": 11117, "ĠhectÃ¡": 11118, "Ġdeterminadas": 11119, "Ġdiscul": 11120, "Ġbolsas": 11121, "ÂĶ": 11122, "Ġconclusiones": 11123, "Ġvalorar": 11124, "Ġlinea": 11125, "Ġenormes": 11126, "ÃŃnsula": 11127, "ĠNada": 11128, "Ġaparatos": 11129, "Ġvariable": 11130, "Ġinesper": 11131, "Ġrelativamente": 11132, "enciado": 11133, "ĠposesiÃ³n": 11134, "hop": 11135, "Ġvideojuegos": 11136, "lera": 11137, "Ġvivos": 11138, "toras": 11139, "Ġdespertar": 11140, "Ġmortal": 11141, "Cam": 11142, "ĠIgual": 11143, "gio": 11144, "âĢĺ": 11145, "ĠCL": 11146, "ĠUb": 11147, "Ġrepente": 11148, "Ġmadrile": 11149, "ĠCÃ¡diz": 11150, "Ġape": 11151, "Ġobtiene": 11152, "Ġexquis": 11153, "ĠSamsung": 11154, "Ġculturas": 11155, "ÃŃe": 11156, "Ġanuales": 11157, "ĠRich": 11158, "Ġfronteras": 11159, "tear": 11160, "Ġconcejal": 11161, "ĠIndustrial": 11162, "Ġcolaboradores": 11163, "Ġwebs": 11164, "ĠcapÃŃtulos": 11165, "Ġgiro": 11166, "ija": 11167, "Ã©rrez": 11168, "Ġimpedir": 11169, "Ġcomponente": 11170, "Ġposteriores": 11171, "Ġexcepcional": 11172, "igan": 11173, "ĠAnuncios": 11174, "Ġbeber": 11175, "ĠEP": 11176, "ĠconocÃŃa": 11177, "Porque": 11178, "Ġfacebook": 11179, "ĠdepÃ³sito": 11180, "Ġsigno": 11181, "Ġenferm": 11182, "Ã¡zquez": 11183, "ĠDiputaciÃ³n": 11184, "Ġincluida": 11185, "clo": 11186, "ĠampliaciÃ³n": 11187, "><": 11188, "Ġcontado": 11189, "Ġmantuvo": 11190, "ĠEmpleo": 11191, "ĠerÃ³": 11192, "Ġterritorios": 11193, "ĠautÃ©ntico": 11194, "Ġmultiplic": 11195, "nia": 11196, "Ġbrillo": 11197, "celo": 11198, "Ġtarifa": 11199, "Ġviaj": 11200, "Ġcostumbres": 11201, "Ġtransmi": 11202, "Ġmandatario": 11203, "ubo": 11204, "Ġviejos": 11205, "ĠMesa": 11206, "ĠUSB": 11207, "Ġharina": 11208, "Ġexpediente": 11209, "ĠinvitaciÃ³n": 11210, "Ġciudadana": 11211, "ĠTÃ©cnico": 11212, "ĠFan": 11213, "Ġfinancieras": 11214, "Ġnovedad": 11215, "ĠCAR": 11216, "olos": 11217, "Ġrespetar": 11218, "ĠSalÃ³n": 11219, "Ġclick": 11220, "Ġpresi": 11221, "ĠviolaciÃ³n": 11222, "Ġmaltra": 11223, "Ġrestaurar": 11224, "ĠverÃ¡": 11225, "Ġvencer": 11226, "ĠSelecciÃ³n": 11227, "Ġescolares": 11228, "Ġcalific": 11229, "Ġbella": 11230, "ĠSha": 11231, "Ġvuelva": 11232, "Ġafuera": 11233, "Ġterrible": 11234, "Ġambientales": 11235, "ĠHemos": 11236, "Ġtransforma": 11237, "Ġacusado": 11238, "ficar": 11239, "ĠChi": 11240, "ĠJimÃ©nez": 11241, "Ġlago": 11242, "Dos": 11243, "ĠcomercializaciÃ³n": 11244, "Ġmales": 11245, "guas": 11246, "dujo": 11247, "ĠproyecciÃ³n": 11248, "Ġpuse": 11249, "Ġpudiendo": 11250, "Ġgerente": 11251, "tano": 11252, "ĠDem": 11253, "Ġincons": 11254, "entre": 11255, "ĠpÃ¡": 11256, "Ġensayo": 11257, "gadores": 11258, "abra": 11259, "ĠFamilia": 11260, "Ġdescubrimiento": 11261, "ĠGustavo": 11262, "Ġintr": 11263, "Ġcolaborar": 11264, "Ġfrecuentes": 11265, "Ġdescubre": 11266, "Ġnovelas": 11267, "Ġperfiles": 11268, "Ġsera": 11269, "ÃŃrez": 11270, "ĠmotivaciÃ³n": 11271, "ĠUniversitario": 11272, "BO": 11273, "certid": 11274, "Ġcolonia": 11275, "Ġgigantes": 11276, "uco": 11277, "ĠFeder": 11278, "fol": 11279, "Ġgesto": 11280, "Ġasust": 11281, "tiquetas": 11282, "Ġdemandas": 11283, "Ġterrenos": 11284, "vÃ¡n": 11285, "ĠCoci": 11286, "Ġtestigos": 11287, "Ġ52": 11288, "embol": 11289, "Ġvenden": 11290, "Ġreduc": 11291, "caba": 11292, "Ġdid": 11293, "Ġvicepresidente": 11294, "Ġgalle": 11295, "gs": 11296, "uche": 11297, "ĠprevÃ©": 11298, "Ġadmir": 11299, "Ġdesapareci": 11300, "Ġcentrales": 11301, "Ġgrabar": 11302, "ÃŃtimo": 11303, "Ġhacerle": 11304, "Ġbrind": 11305, "Ġ56": 11306, "ASA": 11307, "Ġcadenas": 11308, "Ġfla": 11309, "ĠDin": 11310, "Ġvenezolano": 11311, "Ġalrededores": 11312, "Ġestuviera": 11313, "char": 11314, "Pas": 11315, "ĠLar": 11316, "Ġfijo": 11317, "zco": 11318, "Ġquedando": 11319, "Ġllevamos": 11320, "CON": 11321, "ĠTiempo": 11322, "Ġperjud": 11323, "apar": 11324, "Ġescucha": 11325, "ige": 11326, "Can": 11327, "ĠCR": 11328, "Ġpresentada": 11329, "Ġamante": 11330, "Ġportada": 11331, "Ġbolsillo": 11332, "Ġleve": 11333, "Ġregionales": 11334, "Ġllor": 11335, "ĠKo": 11336, "low": 11337, "ricas": 11338, "ĠÃ©tica": 11339, "ĠStre": 11340, "ĠGuadalajara": 11341, "ĠMarina": 11342, "iriÃ³": 11343, "Ġavenida": 11344, "ĠautomÃ¡tica": 11345, "Ġpiensan": 11346, "nar": 11347, "Ġpresupuestos": 11348, "ĠMauri": 11349, "Ġencontraron": 11350, "Ġrecinto": 11351, "Ġing": 11352, "ĠmÃŃa": 11353, "Ġdecenas": 11354, "ĠGan": 11355, "Ġhechas": 11356, "ĠFrank": 11357, "ĠvÃŃnculo": 11358, "Ġdispuestos": 11359, "ifi": 11360, "Ġdemues": 11361, "Ġtubo": 11362, "Ġmierda": 11363, "Ġnube": 11364, "mico": 11365, "CD": 11366, "Ġexce": 11367, "ĠJudicial": 11368, "Ġquir": 11369, "Ġdepartamentos": 11370, "ĠLED": 11371, "ĠelÃ©ctricos": 11372, "Ġesquema": 11373, "Ġexpuls": 11374, "ĠalcanzÃ³": 11375, "mÃ³s": 11376, "Jos": 11377, "ĠPueblo": 11378, "Ġcamar": 11379, "Ġjuguetes": 11380, "ĠEscri": 11381, "400": 11382, "Ġhard": 11383, "Ġjardines": 11384, "ĠTenerife": 11385, "2010": 11386, "Ġeng": 11387, "Ġmelo": 11388, "ĠpensÃ©": 11389, "Ġentretenimiento": 11390, "Ġasiento": 11391, "onÃŃa": 11392, "press": 11393, "book": 11394, "Ġnotable": 11395, "ucristo": 11396, "VE": 11397, "trico": 11398, "Ã¡ndome": 11399, "Ġinterrump": 11400, "ĠPens": 11401, "ĠBach": 11402, "ĠJaime": 11403, "uar": 11404, "Gran": 11405, "Ġinolvid": 11406, "ĠSL": 11407, "ĠToledo": 11408, "Ġabsur": 11409, "76": 11410, "Ġadministrativo": 11411, "ĠÃį": 11412, "Ã±ad": 11413, "cÃŃas": 11414, "Ġhuelga": 11415, "ĠEgip": 11416, "gramas": 11417, "eses": 11418, "faz": 11419, "Ġvieron": 11420, "Ġgrie": 11421, "Ġcaza": 11422, "anti": 11423, "ĠPap": 11424, "ĠMax": 11425, "puestamente": 11426, "Ġgenerado": 11427, "ĠcertificaciÃ³n": 11428, "Ġjuntas": 11429, "fecto": 11430, "aster": 11431, "ĠMendoza": 11432, "Ġmanteniendo": 11433, "alladolid": 11434, "Ġsensor": 11435, "acruz": 11436, "ĠVa": 11437, "ĠFron": 11438, "Ġpresentaron": 11439, "Ġresistente": 11440, "Ġpasaron": 11441, "Ġvilla": 11442, "mio": 11443, "Ġdiagnos": 11444, "Ġgloria": 11445, "Ġadministrativa": 11446, "trando": 11447, "ĠðŁĺ": 11448, "Ġdescri": 11449, "ĠMiami": 11450, "Ġfundador": 11451, "Ġple": 11452, "Ġintensa": 11453, "amanca": 11454, "Ġsalarios": 11455, "Ġagru": 11456, "Ġposeen": 11457, "lorca": 11458, "Ġconscientes": 11459, "onde": 11460, "ĠCompaÃ±": 11461, "amora": 11462, "ĠdetenciÃ³n": 11463, "Ġpositivos": 11464, "Ġsemi": 11465, "Ġcho": 11466, "Ġencontrarse": 11467, "Ġmuro": 11468, "Ġderivados": 11469, "Ġpresentaciones": 11470, "Ġescritores": 11471, "Ġavanzado": 11472, "ĠTampoco": 11473, "Ġbordo": 11474, "ĠquedarÃ¡": 11475, "Ġputa": 11476, "tif": 11477, "logÃŃas": 11478, "orada": 11479, "Ġacorde": 11480, "ĠPros": 11481, "Ġsufrimiento": 11482, "letos": 11483, "ternidad": 11484, "Ġhere": 11485, "ĠJoaqu": 11486, "ĠStu": 11487, "Fran": 11488, "Ġaclarar": 11489, "Ġsupera": 11490, "ULO": 11491, "ejas": 11492, "Ġcitado": 11493, "iss": 11494, "Ġizquierdo": 11495, "Ġonda": 11496, "Ġdormitorio": 11497, "grÃ¡ficos": 11498, "igar": 11499, "ĠDonald": 11500, "ĠcÃ¡lculo": 11501, "ĠLl": 11502, "ĠVerde": 11503, "Ġcontinuo": 11504, "muy": 11505, "Ġexhib": 11506, "piro": 11507, "ĠSigue": 11508, "ĠCerv": 11509, "hal": 11510, "Ġperjuicio": 11511, "ĠOpera": 11512, "Ġmuscular": 11513, "riz": 11514, "ĠbebÃ©s": 11515, "ĠvotaciÃ³n": 11516, "cera": 11517, "Ġquinta": 11518, "ĠtÃŃpico": 11519, "Ġcompartido": 11520, "Ġxxx": 11521, "Ġsalidas": 11522, "Ġquie": 11523, "ĠPatrimonio": 11524, "Ġsupermer": 11525, "Ġexigir": 11526, "Ġcircular": 11527, "Ġzo": 11528, "Ġmedias": 11529, "Ġcomplemento": 11530, "Ġdecis": 11531, "Ġespectadores": 11532, "Ġvos": 11533, "ĠgrÃ¡ficos": 11534, "Ġdesean": 11535, "ĠhÃºme": 11536, "Ġalemana": 11537, "ĠClÃŃn": 11538, "79": 11539, "DD": 11540, "Ġcualidades": 11541, "Ġrurales": 11542, "Ġbis": 11543, "Ġaco": 11544, "ĠGrande": 11545, "guÃ©s": 11546, "Ġinstan": 11547, "Ġcastillo": 11548, "Ġnegociaciones": 11549, "Ġcargar": 11550, "iÃ¡n": 11551, "Ġcorriendo": 11552, "illones": 11553, "ĠNego": 11554, "obo": 11555, "Ġvengan": 11556, "ms": 11557, "Ġhuevo": 11558, "Ġincertid": 11559, "Ġapete": 11560, "Ġpensiones": 11561, "Ġocultar": 11562, "Ġabus": 11563, "Ġtetas": 11564, "Ġcomienzan": 11565, "Ġboliv": 11566, "Ġloco": 11567, "ĠWhats": 11568, "ĠmÃºsculos": 11569, "Ġinto": 11570, "dista": 11571, "Ġtratados": 11572, "Ġencantado": 11573, "Ġ1000": 11574, "»¿": 11575, "riles": 11576, "Ġempe": 11577, "Ġrescate": 11578, "Ġpop": 11579, "ĠGutiÃ©rrez": 11580, "ĠÃģlvarez": 11581, "ĠGRA": 11582, "Ġinterro": 11583, "teos": 11584, "ĠAgust": 11585, "Ġreligiosa": 11586, "hola": 11587, "ĠRomero": 11588, "porque": 11589, "Ġestupen": 11590, "Ġlink": 11591, "Ġcompromisos": 11592, "Ġpaisajes": 11593, "Ã³ma": 11594, "Tal": 11595, "Ġsentimos": 11596, "otas": 11597, "lana": 11598, "GR": 11599, "Ġplanos": 11600, "ĠSA": 11601, "Ġdesgas": 11602, "Ġincidencia": 11603, "OP": 11604, "ĠclimÃ¡tico": 11605, "igas": 11606, "Ġascenso": 11607, "ĠÃ¡ngel": 11608, "oraciÃ³n": 11609, "Ġvisible": 11610, "Ġtomo": 11611, "ividad": 11612, "tividades": 11613, "ĠreconociÃ³": 11614, "fac": 11615, "ĠMej": 11616, "Ġcreador": 11617, "Ġvalle": 11618, "ÃŃgenes": 11619, "Tube": 11620, "Ġjudiciales": 11621, "TOR": 11622, "izas": 11623, "Ġpersi": 11624, "ĠRobert": 11625, "Ġunir": 11626, "ĠWa": 11627, "Ã²": 11628, "Ġfle": 11629, "ĠRecursos": 11630, "lÃ¡n": 11631, "Ġbarro": 11632, "Ġprin": 11633, "Ġsar": 11634, "Ġsupo": 11635, "Ġregistrar": 11636, "Ġreparto": 11637, "ĠBiblioteca": 11638, "yente": 11639, "ĠsiguiÃ³": 11640, "mia": 11641, "Ġsanciones": 11642, "Ġdirecciones": 11643, "Ġcapas": 11644, "Ġsostiene": 11645, "Ġemisiones": 11646, "ford": 11647, "CU": 11648, "ander": 11649, "ĠdiseÃ±ar": 11650, "Ġcalma": 11651, "ĠminerÃŃa": 11652, "Ġantecedentes": 11653, "Ġcasti": 11654, "Ġparale": 11655, "ness": 11656, "59": 11657, "Ġvitamina": 11658, "ĠEp": 11659, "queros": 11660, "Ġconfort": 11661, "Ġrestric": 11662, "Ġcrean": 11663, "uelta": 11664, "Ġartificial": 11665, "jidad": 11666, "Ġestuve": 11667, "ku": 11668, "tena": 11669, "ĠSAN": 11670, "egr": 11671, "tificar": 11672, "ĠRajoy": 11673, "Ab": 11674, "Ġgrasas": 11675, "ĠResta": 11676, "uertos": 11677, "ĠJefe": 11678, "quita": 11679, "ĠPuebla": 11680, "ĠâĢĿ": 11681, "ĠatmÃ³s": 11682, "Ġimprimir": 11683, "ĠTama": 11684, "Ġdetenidos": 11685, "ĠAlb": 11686, "ĠKen": 11687, "Ġsuspen": 11688, "ĠAlfre": 11689, "ĠsÃ©pti": 11690, "ĠacompaÃ±ar": 11691, "grada": 11692, "ĠCapa": 11693, "yu": 11694, "Ġmodernos": 11695, "ĠBlue": 11696, "colas": 11697, "Ġdanza": 11698, "Ġcalef": 11699, "Ġvistazo": 11700, "Ġadaptar": 11701, "Ġtim": 11702, "Ġsupervis": 11703, "omosex": 11704, "Ġhospitales": 11705, "Ġoccidental": 11706, "ĠSeptiembre": 11707, "Ġjunta": 11708, "Ġpastel": 11709, "2011": 11710, "Ġcantar": 11711, "Ġtramp": 11712, "ĠStor": 11713, "ĠRamÃŃrez": 11714, "ĠLog": 11715, "ĠEscorts": 11716, "Ġimagin": 11717, "Ġdisfrute": 11718, "ĠviviÃ³": 11719, "Ġbebida": 11720, "Ġsienta": 11721, "ometra": 11722, "Ġpoblaciones": 11723, "Ġvisitante": 11724, "ĠSent": 11725, "Ġfranqu": 11726, "Ġgimnasio": 11727, "ĠdiscriminaciÃ³n": 11728, "Ro": 11729, "mun": 11730, "Ã©sticos": 11731, "TAN": 11732, "vila": 11733, "Ġrecibieron": 11734, "Ġurbana": 11735, "Ġindependientemente": 11736, "Ġtratan": 11737, "Ġejemplares": 11738, "ĠrÃ©cord": 11739, "macia": 11740, "Ġquedaba": 11741, "ĠFuente": 11742, "Ġlev": 11743, "Ġrevela": 11744, "Ġrentabilidad": 11745, "Ġesperado": 11746, "Ġrecar": 11747, "Ġmantenerse": 11748, "Ġbuscas": 11749, "ania": 11750, "ecuciÃ³n": 11751, "Ġpromociones": 11752, "Ġretorno": 11753, "ĠCatÃ³lica": 11754, "Ġformatos": 11755, "Ġnarco": 11756, "Ġsatisfac": 11757, "fu": 11758, "Ġcomenzado": 11759, "vir": 11760, "Ġactualizar": 11761, "Ġhijas": 11762, "Ġcomparte": 11763, "ĠhabÃ©is": 11764, "Ġcumplido": 11765, "ĠactÃºa": 11766, "adÃ¡ver": 11767, "Ġcortos": 11768, "ĠDoctor": 11769, "tizado": 11770, "Cal": 11771, "Ġvuestros": 11772, "Ġpreparados": 11773, "Ġsospech": 11774, "Ġempiezan": 11775, "entÃ³": 11776, "Ġ1997": 11777, "Ġcuchar": 11778, "ĠGrecia": 11779, "Ġoscuridad": 11780, "Ġasimismo": 11781, "Ġdemand": 11782, "Ġretirar": 11783, "Pr": 11784, "JO": 11785, "Ġcercanos": 11786, "Ġconvierten": 11787, "ĠartÃŃstico": 11788, "Ġinterpretar": 11789, "Ġurgente": 11790, "Ġsangu": 11791, "Ġponga": 11792, "ĠpolÃ©mica": 11793, "ĠNicaragua": 11794, "Ġluminos": 11795, "Ġlleve": 11796, "Ġaline": 11797, "Ġcomentado": 11798, "Ġradical": 11799, "Ġdesgracia": 11800, "ENCIA": 11801, "Ġestatales": 11802, "Ġcompuesta": 11803, "Ġpresentamos": 11804, "Ġdespla": 11805, "Ġencantan": 11806, "Actualmente": 11807, "Ġtram": 11808, "Ġprece": 11809, "ĠfÃŃsicos": 11810, "NI": 11811, "Ġpinta": 11812, "FOR": 11813, "EP": 11814, "ĠLaura": 11815, "Ġsepa": 11816, "Ġke": 11817, "Ġsuya": 11818, "Ġinteligentes": 11819, "Ġmiel": 11820, "ĠRevista": 11821, "Ġtardes": 11822, "Ġparado": 11823, "ĠDemoc": 11824, "Pe": 11825, "ĠApar": 11826, "Ġreconocida": 11827, "ioneros": 11828, "Ġpetrol": 11829, "itis": 11830, "Ġheridos": 11831, "Ġtradiciones": 11832, "dones": 11833, "rita": 11834, "ionistas": 11835, "Ġconsiderada": 11836, "Ġatraer": 11837, "ĠâĢľÂ¿": 11838, "ĠApo": 11839, "Ġconvencer": 11840, "Ġrefrig": 11841, "achos": 11842, "Ġahi": 11843, "of": 11844, "Ġobviamente": 11845, "Ġafectado": 11846, "Ġbotella": 11847, "ocar": 11848, "ĠPalma": 11849, "Ġsucedido": 11850, "ĠsucediÃ³": 11851, "tti": 11852, "Ġnatur": 11853, "person": 11854, "Ġrealizarse": 11855, "ĠPÃºblicas": 11856, "Ġprocedentes": 11857, "chi": 11858, "ĠenergÃŃas": 11859, "Ġdulces": 11860, "Ġcambiando": 11861, "eres": 11862, "Ġintes": 11863, "Ġenmar": 11864, "Ġexterna": 11865, "Ġtransparente": 11866, "Ġpeligroso": 11867, "hay": 11868, "ĠJesucristo": 11869, "idro": 11870, "tines": 11871, "Ġafric": 11872, "Ġadapta": 11873, "Ġadoptar": 11874, "Ġefectivos": 11875, "pue": 11876, "Ġredi": 11877, "Ġangust": 11878, "Ġmanifiesto": 11879, "Ġmolde": 11880, "entando": 11881, "Ġsuspendi": 11882, "Ġavanzada": 11883, "Ġrever": 11884, "ĠCub": 11885, "ĠAgricultura": 11886, "logos": 11887, "Ġpoderoso": 11888, "iaria": 11889, "Ġestup": 11890, "Ġcomenta": 11891, "Ġotorga": 11892, "ĠdueÃ±os": 11893, "Ġvaca": 11894, "ĠdevoluciÃ³n": 11895, "ĠElectoral": 11896, "Ġligera": 11897, "ĠrestauraciÃ³n": 11898, "Ġempate": 11899, "Ġexposiciones": 11900, "Ġcrece": 11901, "ĠMariano": 11902, "Ġpasamos": 11903, "EspaÃ±a": 11904, "ĠPra": 11905, "Ġengan": 11906, "Ġprofundamente": 11907, "Ġministerio": 11908, "Ġdespacho": 11909, "Ġdesarrollan": 11910, "ecÃ©": 11911, "ĠAll": 11912, "ĠMara": 11913, "ĠdirÃŃa": 11914, "Ġpedidos": 11915, "Ġsaque": 11916, "ficientes": 11917, "Ġdenuncias": 11918, "Ġ99": 11919, "ĠMercedes": 11920, "grados": 11921, "Ġexplorar": 11922, "Ġextremadamente": 11923, "Ġabuela": 11924, "ĠEu": 11925, "ĠJuz": 11926, "ĠCro": 11927, "Ġnormales": 11928, "mor": 11929, "ĠdesafÃŃos": 11930, "Ġefectivamente": 11931, "itco": 11932, "ĠpresentarÃ¡": 11933, "Ġmanio": 11934, "Ġbares": 11935, "util": 11936, "Ġ51": 11937, "exo": 11938, "Ġmentira": 11939, "dora": 11940, "uj": 11941, "ĠirÃ¡": 11942, "ĠMancha": 11943, "Ġnavegar": 11944, "iaciones": 11945, "Ġlocalidades": 11946, "ĠObserv": 11947, "Ġoptar": 11948, "Ġconfirmado": 11949, "Ã±oz": 11950, "Ġlindo": 11951, "Ġrebo": 11952, "Entonces": 11953, "ĠencontrarÃ¡": 11954, "Ġreforzar": 11955, "Ġatro": 11956, "tte": 11957, "mÃ¡tico": 11958, "ĠcadÃ¡ver": 11959, "Ġcamisetas": 11960, "Ġvertical": 11961, "cÃ©": 11962, "Ġcaptura": 11963, "Ġediciones": 11964, "har": 11965, "ĠdesapariciÃ³n": 11966, "ĠNA": 11967, "Ġdeportivos": 11968, "ĠReina": 11969, "ĠcontraseÃ±a": 11970, "Ġmanifiesta": 11971, "Ġprestigio": 11972, "Ġalcanz": 11973, "ĠMovimiento": 11974, "ĠdÃ©ci": 11975, "ĠtecnolÃ³gica": 11976, "anim": 11977, "figu": 11978, "ĠdelegaciÃ³n": 11979, "hibido": 11980, "Ġseparado": 11981, "ĠcambiÃ³": 11982, "rases": 11983, "resa": 11984, "ĠhabÃŃamos": 11985, "ĠVega": 11986, "CL": 11987, "Ġrelativa": 11988, "Ġpresupues": 11989, "ĠÃģrea": 11990, "ĠBajo": 11991, "Ġextrema": 11992, "ĠBi": 11993, "ĠVenta": 11994, "Ġnovedos": 11995, "Ġmoch": 11996, "Ġrecomendar": 11997, "ĠanimaciÃ³n": 11998, "Ã¡ctica": 11999, "ani": 12000, "Ġsincer": 12001, "Ġauxiliar": 12002, "Ġdirectivos": 12003, "Ġregula": 12004, "tipos": 12005, "Ġcontener": 12006, "ĠRivera": 12007, "Ġ54": 12008, "Ġpolla": 12009, "Ġentrevistas": 12010, "Ġradi": 12011, "gÃ¼enza": 12012, "ĠcÃ©": 12013, "ĠmercancÃŃas": 12014, "Ġcaz": 12015, "Ġpertenecen": 12016, "ĠSor": 12017, "Ġcontun": 12018, "Ġgasolina": 12019, "Ġdescansar": 12020, "Ġadulto": 12021, "Ġ1996": 12022, "Ġ180": 12023, "abell": 12024, "ĠNar": 12025, "ĠAÃºn": 12026, "iciembre": 12027, "Ġgatos": 12028, "esor": 12029, "Ġrecal": 12030, "Ġindispensable": 12031, "Ġindicadores": 12032, "Ġchina": 12033, "Ġexpresiones": 12034, ".).": 12035, "cionalidad": 12036, "ĠocupaciÃ³n": 12037, "Toda": 12038, "ĠdeterminaciÃ³n": 12039, "ĠenseÃ±a": 12040, "izos": 12041, "ĠuÃ±as": 12042, "Ġempo": 12043, "Ġrellen": 12044, "ĠME": 12045, "ĠEgipto": 12046, "ĠsabidurÃŃa": 12047, "Ġextraordinaria": 12048, "Ġpublicados": 12049, "Jo": 12050, "Ġacomo": 12051, "ĠhectÃ¡reas": 12052, "Ġret": 12053, "tens": 12054, "Ġcomplejos": 12055, "Ġmonedas": 12056, "oncesto": 12057, "57": 12058, "lfo": 12059, "ĠLÃŃnea": 12060, "Ġentera": 12061, "Ġpaquetes": 12062, "Ġcincuenta": 12063, "ĠGuerrero": 12064, "Ġtestigo": 12065, "Ġasim": 12066, "fonÃŃa": 12067, "ĠSelec": 12068, "Ġganadores": 12069, "rerÃŃa": 12070, "Ġfrontal": 12071, "ĠEncuentra": 12072, "POR": 12073, "ĠStan": 12074, "ĠParaguay": 12075, "ĠescÃ¡ndal": 12076, "ĠLorenzo": 12077, "Ġpensamos": 12078, "rent": 12079, "ĠconsiderÃ³": 12080, "Ġlograron": 12081, "Ġasociado": 12082, "ĠHombres": 12083, "Ġopos": 12084, "ĠCic": 12085, "Ġrasgos": 12086, "ĠLee": 12087, "Ġlici": 12088, "Ġoperadores": 12089, "Ã§a": 12090, "ĠestÃ¡bamos": 12091, "Ġcro": 12092, "Ġaula": 12093, "Ġcreencias": 12094, "ĠinfecciÃ³n": 12095, "ĠacadÃ©mica": 12096, "Ġaroma": 12097, "Ġintegridad": 12098, "Ġinvitado": 12099, "Ġ57": 12100, "Ġescuchado": 12101, "ĠInglÃ©s": 12102, "ĠValladolid": 12103, "Ġincendio": 12104, "Ġsoledad": 12105, "adar": 12106, "Ġtransfer": 12107, "Ġeducativas": 12108, "Ġcotidiana": 12109, "Ġverla": 12110, "Ġemitir": 12111, "ĠRen": 12112, "Ġacabo": 12113, "icciones": 12114, "Ġhomosex": 12115, "ĠConst": 12116, "Ġpusieron": 12117, "ast": 12118, "Ġinicios": 12119, "Ġafectadas": 12120, "Ġepisodios": 12121, "Ġpiden": 12122, "tuoso": 12123, "Ġtemporadas": 12124, "Ġib": 12125, "Ġ72": 12126, "publ": 12127, "Ġdoctrina": 12128, "Todas": 12129, "Ġcontando": 12130, "jalÃ¡": 12131, "Ġcompatible": 12132, "Ġ1995": 12133, "idencial": 12134, "mÃ³n": 12135, "Ġpromete": 12136, "Ġoficialmente": 12137, "Ġsorprender": 12138, "aduras": 12139, "Ġintegrada": 12140, "ĠgrÃ¡fica": 12141, "selo": 12142, "back": 12143, "ĠNuestros": 12144, "ĠXVI": 12145, "Ġuniversitarios": 12146, "mu": 12147, "Ġinvi": 12148, "Ġmg": 12149, "Ġtropas": 12150, "Ġdesierto": 12151, "PR": 12152, "ĠdebiÃ³": 12153, "Ġsupongo": 12154, "Ġcoloca": 12155, "Ġcreativo": 12156, "ĠporquÃ©": 12157, "Ġhem": 12158, "Ġtrate": 12159, "ĠJunio": 12160, "ANA": 12161, "Ġbande": 12162, "Ġevangel": 12163, "Mon": 12164, "PI": 12165, "Ġrecurrir": 12166, "Ġalza": 12167, "ĠMinistro": 12168, "Ġsupuestamente": 12169, "ĠÃ©xitos": 12170, "Ġpp": 12171, "discipl": 12172, "Ġlimitada": 12173, "ĠautÃ©ntica": 12174, "Ġdram": 12175, "Ġ1994": 12176, "lique": 12177, "Ã¡sico": 12178, "ĠConten": 12179, "Ã¡mites": 12180, "Ġseleccionado": 12181, "Ġhombro": 12182, "ĠobservaciÃ³n": 12183, "ramiento": 12184, "ĠED": 12185, "ARC": 12186, "Ġfortuna": 12187, "Ġmatr": 12188, "Ġnavidad": 12189, "ĠtecnolÃ³gico": 12190, "Ġstan": 12191, "ĠDirectiva": 12192, "Ġretom": 12193, "ellos": 12194, "ĠInfantil": 12195, "Ġfores": 12196, "Ġtatu": 12197, "ĠtÃŃo": 12198, "gresos": 12199, "Encuent": 12200, "ĠconcluyÃ³": 12201, "Ġllave": 12202, "ĠNike": 12203, "Ġevita": 12204, "ĠDie": 12205, "Ġbronce": 12206, "ĠCort": 12207, "rie": 12208, "ĠAF": 12209, "Ġperdida": 12210, "Ġcristiana": 12211, "sex": 12212, "ĠseguÃŃa": 12213, "ĠvocaciÃ³n": 12214, "Ġayudarte": 12215, "ĠDeportivo": 12216, "ĠAcces": 12217, "real": 12218, "Ġara": 12219, "ĠInnov": 12220, "CuÃ¡n": 12221, "Ġsombras": 12222, "elle": 12223, "Ã±al": 12224, "Ġdens": 12225, "BRE": 12226, "ciosa": 12227, "ĠlÃ¡g": 12228, "Ġsobrevivir": 12229, "poraciÃ³n": 12230, "rimos": 12231, "Ġblancas": 12232, "56": 12233, "tren": 12234, "800": 12235, "Ġbosques": 12236, "Ġpiz": 12237, "ÃŃcolas": 12238, "Ġsano": 12239, "Ne": 12240, "ĠcoÃ±o": 12241, "Ġsobresal": 12242, "ĠArgent": 12243, "ĠprÃ©stamos": 12244, "Ġposicionamiento": 12245, "Ġrayos": 12246, "ĠcÃŃrculo": 12247, "cela": 12248, "dices": 12249, "ĠRan": 12250, "ross": 12251, "tiÃ©ndose": 12252, "uerte": 12253, "getales": 12254, "Ġsistem": 12255, "Ġdestruir": 12256, "Ġcep": 12257, "video": 12258, "Ġenfrenta": 12259, "ampa": 12260, "Ġtextura": 12261, "ĠsitÃºa": 12262, "Ġdestinados": 12263, "Ġopon": 12264, "ĠEnfer": 12265, "fl": 12266, "Ġout": 12267, "Ġcubre": 12268, "Ġnumero": 12269, "ĠrÃŃos": 12270, "Ġexigencias": 12271, "Ġnavide": 12272, "Ġrealice": 12273, "Ġconcer": 12274, "stein": 12275, "ĠMotor": 12276, "Ġargentinos": 12277, "icho": 12278, "Ġvera": 12279, "Ġcontempla": 12280, "ĠFigu": 12281, "Ġinstituto": 12282, "Ġdecorar": 12283, "Ġlimitaciones": 12284, "ĠSistemas": 12285, "Ġtrage": 12286, "Ġnecesitaba": 12287, "ĠpreguntÃ³": 12288, "ĠaprobÃ³": 12289, "aqueta": 12290, "Ġprofesora": 12291, "Ġmasas": 12292, "Ġgenerando": 12293, "Ġfases": 12294, "ĠAbril": 12295, "Ġsentado": 12296, "remo": 12297, "Ġrup": 12298, "ĠDeleg": 12299, "Ġhumanas": 12300, "Ġsueldo": 12301, "Ġber": 12302, "ĠlÃ³gico": 12303, "Ġcil": 12304, "hÃŃa": 12305, "Ġmaravilla": 12306, "ĠofreciÃ³": 12307, "Ġparezca": 12308, "apo": 12309, "Ġencuentras": 12310, "sable": 12311, "Ã¡micas": 12312, "Ġadecuados": 12313, "Ġtome": 12314, "Ġconforman": 12315, "ĠacompaÃ±a": 12316, "Ġhubieran": 12317, "Ġlogros": 12318, "Ġjab": 12319, "Ġetiqueta": 12320, "ĠconcesiÃ³n": 12321, "ĠBolsa": 12322, "Ġmadu": 12323, "Ġusados": 12324, "Ġpersonalizado": 12325, "usk": 12326, "mplemente": 12327, "Ġparques": 12328, "Ġconviene": 12329, "ĠAlianza": 12330, "ordi": 12331, "ĠGeo": 12332, "Ġsolos": 12333, "Ġais": 12334, "Ġbonitas": 12335, "Ġcarreteras": 12336, "Ġtitulares": 12337, "Ġpist": 12338, "Ġpico": 12339, "ĠGeorge": 12340, "Ġmur": 12341, "ĠHola": 12342, "Ġencer": 12343,
[...]
